<unk>	0
<s>	0
</s>	0
<pad>	0
こと	-0
れる	-1
ある	-2
ため	-3
いう	-4
され	-5
ために	-6
られる	-7
がある	-8
ことがある	-9
られることがある	-10
という	-11
その	-12
てい	-13
にお	-14
しな	-15
ステ	-16
れは	-17
まり	-18
つけ	-19
には	-20
あり	-21
定の	-22
ている	-23
況を	-24
理を	-25
ステム	-26
された	-27
これは	-28
つけた	-29
におい	-30
しない	-31
作物	-32
基本	-33
だっ	-34
モデ	-35
ルに	-36
出来	-37
動生	-38
念は	-39
文章	-40
示す	-41
端的	-42
造は	-43
うために	-44
システム	-45
づく	-46
事は	-47
付け	-48
依存	-49
文脈	-50
現は	-51
用い	-52
町で	-53
設計	-54
関連	-55
だった	-56
であり	-57
に示す	-58
ルに基	-59
処理を	-60
動生成	-61
基本構	-62
始まり	-63
定の著	-64
概念は	-65
状況を	-66
表現は	-67
これは自	-68
その出来	-69
には依存	-70
処理を行	-71
特定の著	-72
見つけた	-73
設計され	-74
関連付け	-75
された文章	-76
ために用い	-77
システムは	-78
モデルに基	-79
基本構造は	-80
文脈におい	-81
状況を端的	-82
その出来事は	-83
という表現は	-84
作物には依存	-85
始まりだった	-86
これは自動生成	-87
モデルに基づく	-88
設計されている	-89
された文章であり	-90
に示すために用い	-91
処理を行うために	-92
作物には依存しない	-93
関連付けられることがある	-94
特定の著作物には依存しない	-95
状況を端的に示すために用い	-96
これは自動生成された文章であり	-97
処理を行うために設計されている	-98
の始まりだった	-99
の町で	-100
を見つけた	-101
文脈において	-102
と関連付けられることがある	-103
という概念は	-104
の文脈において	-105
▁森	-106
▁大	-107
▁完	-108
▁自	-109
▁虚	-110
▁千	-111
▁深	-112
▁温	-113
▁質	-114
▁臥	-115
無欠	-116
▁完全	-117
▁完全無欠	-118
▁完全無欠という表現は	-119
万象	-120
▁森羅	-121
▁森羅万象	-122
▁森羅万象という表現は	-123
不敵	-124
▁大胆	-125
▁大胆不敵	-126
▁大胆不敵という表現は	-127
自在	-128
▁自由	-129
▁自由自在	-130
▁自由自在という表現は	-131
心坦	-132
心坦懐	-133
▁虚心坦懐	-134
▁虚心坦懐という表現は	-135
変万	-136
変万化	-137
▁千変万化	-138
▁千変万化という表現は	-139
謀遠	-140
知新	-141
謀遠慮	-142
▁深謀遠慮	-143
▁深謀遠慮という表現は	-144
▁温故	-145
▁温故知新	-146
▁温故知新という表現は	-147
▁百	-148
剛健	-149
▁質実	-150
▁質実剛健	-151
▁質実剛健という表現は	-152
▁起	-153
薪嘗	-154
薪嘗胆	-155
▁臥薪嘗胆	-156
▁臥薪嘗胆という表現は	-157
▁一	-158
▁電	-159
繚乱	-160
▁百花	-161
▁百花繚乱	-162
▁百花繚乱という表現は	-163
死回	-164
死回生	-165
▁起死回生	-166
▁起死回生という表現は	-167
▁不	-168
一会	-169
▁一期	-170
▁一期一会	-171
▁一期一会という表現は	-172
石火	-173
▁電光	-174
▁電光石火	-175
▁電光石火という表現は	-176
実行	-177
▁不言	-178
▁不言実行	-179
▁不言実行という表現は	-180
▁今	-181
日は	-182
ど頑	-183
張る	-184
だけ	-185
感じ	-186
▁今日は	-187
だけど頑	-188
だけど頑張る	-189
..	-190
▁ア	-191
▁す	-192
▁せ	-193
▁ワ	-194
▁ロ	-195
▁ヌ	-196
▁サ	-197
▁え	-198
▁ノ	-199
▁レ	-200
▁ち	-201
▁マ	-202
▁お	-203
▁シ	-204
▁セ	-205
▁へ	-206
▁ゆ	-207
▁ホ	-208
▁き	-209
▁ケ	-210
▁は	-211
▁ラ	-212
▁さ	-213
▁ふ	-214
▁ニ	-215
▁て	-216
▁ぬ	-217
▁ン	-218
▁の	-219
▁ソ	-220
▁モ	-221
▁く	-222
▁ん	-223
▁タ	-224
▁ろ	-225
▁ひ	-226
▁チ	-227
をの文脈において	-228
▁エ	-229
▁ユ	-230
▁や	-231
▁フ	-232
▁ム	-233
▁め	-234
▁ヒ	-235
▁る	-236
▁と	-237
▁み	-238
▁ら	-239
▁イ	-240
▁わ	-241
▁こ	-242
あと関連付けられることがある	-243
▁け	-244
▁ト	-245
▁か	-246
▁ス	-247
▁む	-248
▁そ	-249
ニの文脈において	-250
▁ヘ	-251
▁を	-252
▁メ	-253
▁コ	-254
▁オ	-255
▁り	-256
▁ミ	-257
ろという概念は	-258
▁ツ	-259
▁な	-260
▁ナ	-261
▁ま	-262
▁ね	-263
▁ネ	-264
▁ク	-265
▁ハ	-266
しという概念は	-267
▁ヨ	-268
▁ウ	-269
▁テ	-270
▁い	-271
▁ヤ	-272
▁ル	-273
アと関連付けられることがある	-274
ねと関連付けられることがある	-275
▁つ	-276
▁リ	-277
タと関連付けられることがある	-278
カという概念は	-279
ネという概念は	-280
▁う	-281
ぬと関連付けられることがある	-282
▁も	-283
▁キ	-284
ヌと関連付けられることがある	-285
チと関連付けられることがある	-286
マと関連付けられることがある	-287
▁た	-288
トの文脈において	-289
ウと関連付けられることがある	-290
ンの文脈において	-291
かという概念は	-292
ルと関連付けられることがある	-293
▁よ	-294
ひという概念は	-295
んという概念は	-296
をと関連付けられることがある	-297
よと関連付けられることがある	-298
せと関連付けられることがある	-299
きと関連付けられることがある	-300
シと関連付けられることがある	-301
サという概念は	-302
ナという概念は	-303
ふの文脈において	-304
▁あ	-305
こという	-306
こという概念は	-307
タという概念は	-308
シの文脈において	-309
にと関連付けられることがある	-310
▁カ	-311
キという概念は	-312
しの文脈において	-313
ちと関連付けられることがある	-314
▁ヲ	-315
ヨという概念は	-316
たという概念は	-317
むという概念は	-318
オと関連付けられることがある	-319
ほという概念は	-320
クと関連付けられることがある	-321
しと関連付けられることがある	-322
▁し	-323
ニという概念は	-324
ワという概念は	-325
てと関連付けられることがある	-326
アという概念は	-327
ちの文脈において	-328
ノと関連付けられることがある	-329
ねという概念は	-330
▁に	-331
サの文脈において	-332
ヤと関連付けられることがある	-333
ユという概念は	-334
ロという概念は	-335
オという概念は	-336
ツの文脈において	-337
▁れ	-338
ヨの文脈において	-339
えという概念は	-340
らと関連付けられることがある	-341
ケと関連付けられることがある	-342
レという概念は	-343
ヘという概念は	-344
ソという概念は	-345
そと関連付けられることがある	-346
イという概念は	-347
エという概念は	-348
さと関連付けられることがある	-349
へという概念は	-350
もと関連付けられることがある	-351
ノという概念は	-352
ミの文脈において	-353
あの文脈において	-354
カと関連付けられることがある	-355
ホという概念は	-356
くという概念は	-357
ワと関連付けられることがある	-358
ぬという概念は	-359
まという概念は	-360
ヘの文脈において	-361
タの文脈において	-362
そという概念は	-363
すと関連付けられることがある	-364
つという概念は	-365
にという概念は	-366
よという概念は	-367
まの文脈において	-368
マという概念は	-369
ネと関連付けられることがある	-370
ミという概念は	-371
ニと関連付けられることがある	-372
セという概念は	-373
ゆと関連付けられることがある	-374
んと関連付けられることがある	-375
ツという概念は	-376
むと関連付けられることがある	-377
ツと関連付けられることがある	-378
ヤの文脈において	-379
のという概念は	-380
なという概念は	-381
ハの文脈において	-382
ヌの文脈において	-383
ソと関連付けられることがある	-384
ユの文脈において	-385
ケの文脈において	-386
ほと関連付けられることがある	-387
▁ほ	-388
チという概念は	-389
メの文脈において	-390
ナと関連付けられることがある	-391
らの文脈において	-392
この文脈において	-393
ナの文脈において	-394
セと関連付けられることがある	-395
ちという概念は	-396
せの文脈において	-397
フと関連付けられることがある	-398
ての文脈において	-399
ゆの文脈において	-400
すという概念は	-401
ふという概念は	-402
ルという概念は	-403
チの文脈において	-404
てという概念は	-405
きの文脈において	-406
ぬの文脈において	-407
みの文脈において	-408
まと関連付けられることがある	-409
れと関連付けられることがある	-410
ムと関連付けられることがある	-411
みという概念は	-412
ほの文脈において	-413
へと関連付けられることがある	-414
ホと関連付けられることがある	-415
たの文脈において	-416
ひの文脈において	-417
ユと関連付けられることがある	-418
むの文脈において	-419
レと関連付けられることがある	-420
さという概念は	-421
ラの文脈において	-422
ルの文脈において	-423
ミと関連付けられることがある	-424
ハという概念は	-425
みと関連付けられることがある	-426
レの文脈において	-427
イの文脈において	-428
ヲと関連付けられることがある	-429
セの文脈において	-430
リと関連付けられることがある	-431
ヒという概念は	-432
カの文脈において	-433
ラと関連付けられることがある	-434
ネの文脈において	-435
その文脈において	-436
への文脈において	-437
ンと関連付けられることがある	-438
ヌという概念は	-439
やと関連付けられることがある	-440
サと関連付けられることがある	-441
エと関連付けられることがある	-442
もという概念は	-443
コという概念は	-444
ノの文脈において	-445
コと関連付けられることがある	-446
ヲという概念は	-447
さの文脈において	-448
わという概念は	-449
をという概念は	-450
クという概念は	-451
ンという概念は	-452
にの文脈において	-453
モと関連付けられることがある	-454
らという概念は	-455
フという概念は	-456
つと関連付けられることがある	-457
シという概念は	-458
マの文脈において	-459
ふと関連付けられることがある	-460
イと関連付けられることがある	-461
キと関連付けられることがある	-462
リの文脈において	-463
ロの文脈において	-464
ロと関連付けられることがある	-465
エの文脈において	-466
つの文脈において	-467
キの文脈において	-468
ウという概念は	-469
かと関連付けられることがある	-470
ヒと関連付けられることがある	-471
くの文脈において	-472
スの文脈において	-473
ワの文脈において	-474
こと関連付けられることがある	-475
ヘと関連付けられることがある	-476
コの文脈において	-477
ひと関連付けられることがある	-478
ゆという概念は	-479
すの文脈において	-480
やの文脈において	-481
うという概念は	-482
スという概念は	-483
もの文脈において	-484
ウの文脈において	-485
ソの文脈において	-486
フの文脈において	-487
ヲの文脈において	-488
なと関連付けられることがある	-489
トと関連付けられることがある	-490
モという概念は	-491
やという概念は	-492
ホの文脈において	-493
モの文脈において	-494
めという概念は	-495
トという概念は	-496
おという概念は	-497
オの文脈において	-498
ヤという概念は	-499
わと関連付けられることがある	-500
とという概念は	-501
きという概念は	-502
いという概念は	-503
アの文脈において	-504
えの文脈において	-505
かの文脈において	-506
ケという概念は	-507
ろの文脈において	-508
れという概念は	-509
ムという概念は	-510
たと関連付けられることがある	-511
メという概念は	-512
わの文脈において	-513
んの文脈において	-514
くと関連付けられることがある	-515
あという概念は	-516
スと関連付けられることがある	-517
けと関連付けられることがある	-518
リという概念は	-519
めの文脈において	-520
ろと関連付けられることがある	-521
せという概念は	-522
ヒの文脈において	-523
ムの文脈において	-524
テという概念は	-525
おと関連付けられることがある	-526
えと関連付けられることがある	-527
よの文脈において	-528
との文脈において	-529
ヨと関連付けられることがある	-530
クの文脈において	-531
ると関連付けられることがある	-532
けという概念は	-533
とと関連付けられることがある	-534
うと関連付けられることがある	-535
のと関連付けられることがある	-536
おの文脈において	-537
めと関連付けられることがある	-538
けの文脈において	-539
ハと関連付けられることがある	-540
りと関連付けられることがある	-541
ねの文脈において	-542
るという概念は	-543
メと関連付けられることがある	-544
ラという概念は	-545
はと関連付けられることがある	-546
れの文脈において	-547
いの文脈において	-548
テと関連付けられることがある	-549
いと関連付けられることがある	-550
なの文脈において	-551
のの文脈において	-552
の文脈におい	-553
テの文脈において	-554
りという概念は	-555
るの文脈において	-556
はの文脈において	-557
はという概念は	-558
りの文脈において	-559
の文脈においてい	-560
うの文脈において	-561
▁́	-562
∫∫	-563
▁̈	-564
▁゙	-565
...	-566
′′	-567
▁゚	-568
▁̄	-569
の文脈においてヒ	-570
の文脈においてお	-571
の文脈においてム	-572
の文脈においてう	-573
の文脈においてオ	-574
の文脈においてひ	-575
の文脈においてぬ	-576
の文脈においてめ	-577
の文脈においてそ	-578
の文脈においてよ	-579
の文脈においてま	-580
の文脈においてら	-581
の文脈においてす	-582
の文脈においてて	-583
の文脈においてネ	-584
の文脈においてわ	-585
の文脈においてク	-586
の文脈においてヌ	-587
の文脈においてち	-588
の文脈においてろ	-589
の文脈においてユ	-590
の文脈においてノ	-591
の文脈においてと	-592
の文脈においてナ	-593
の文脈においてる	-594
の文脈においてロ	-595
の文脈においてサ	-596
の文脈においてレ	-597
の文脈においてふ	-598
の文脈においてき	-599
の文脈においてけ	-600
の文脈においてホ	-601
の文脈においてフ	-602
の文脈においてヘ	-603
の文脈においてモ	-604
の文脈においては	-605
の文脈においてコ	-606
の文脈においてを	-607
の文脈においてウ	-608
の文脈においてワ	-609
の文脈においてこ	-610
の文脈においても	-611
の文脈においてや	-612
の文脈においてチ	-613
の文脈においてみ	-614
の文脈においてん	-615
の文脈においてゆ	-616
の文脈においての	-617
の文脈においてく	-618
の文脈においてソ	-619
の文脈においてり	-620
の文脈においてツ	-621
の文脈においてほ	-622
の文脈においてル	-623
の文脈においてヨ	-624
の文脈においてな	-625
の文脈においてテ	-626
の文脈においてン	-627
の文脈においてカ	-628
の文脈においてヲ	-629
の文脈においてエ	-630
の文脈においてへ	-631
の文脈においてキ	-632
の文脈においてえ	-633
の文脈においてマ	-634
の文脈においてミ	-635
の文脈においてむ	-636
の文脈においてセ	-637
の文脈においてリ	-638
の文脈においてせ	-639
の文脈においてケ	-640
の文脈においてか	-641
の文脈においてニ	-642
の文脈においてた	-643
の文脈においてに	-644
の文脈においてラ	-645
の文脈においてト	-646
の文脈においてア	-647
の文脈においてス	-648
の文脈においてヤ	-649
の文脈においてタ	-650
の文脈においてあ	-651
の文脈においてシ	-652
の文脈においてメ	-653
の文脈においてし	-654
の文脈においてね	-655
の文脈においてイ	-656
の文脈においてハ	-657
の文脈においてつ	-658
の文脈においてさ	-659
の文脈においてれ	-660
こね	-661
アヒ	-662
つも	-663
ホヒ	-664
ホメ	-665
えと	-666
すり	-667
スナ	-668
ちは	-669
ふほ	-670
オユ	-671
ラフ	-672
ムケ	-673
セシ	-674
らか	-675
ソネ	-676
キリ	-677
コワ	-678
むき	-679
ヲヨ	-680
ねね	-681
わぬ	-682
エレ	-683
ミチ	-684
すく	-685
へけ	-686
めな	-687
コリ	-688
たん	-689
まお	-690
らの	-691
うぬ	-692
オヤ	-693
ノニ	-694
ハナ	-695
ふゆ	-696
マト	-697
みお	-698
キヤ	-699
ろゆ	-700
せけ	-701
むひ	-702
サナ	-703
タナ	-704
ノヨ	-705
をけ	-706
むく	-707
カカ	-708
ラク	-709
ヲナ	-710
こけ	-711
コン	-712
ハヌ	-713
ヘヤ	-714
ルシ	-715
ほけ	-716
オヌ	-717
オリ	-718
わは	-719
コツ	-720
スフ	-721
ネヒ	-722
しと	-723
つく	-724
ウフ	-725
ほひ	-726
アア	-727
イヒ	-728
ソニ	-729
よも	-730
モツ	-731
ロツ	-732
こひ	-733
すん	-734
へる	-735
むと	-736
ふみ	-737
サメ	-738
へや	-739
イテ	-740
ウヨ	-741
ねり	-742
エヤ	-743
オメ	-744
つめ	-745
むん	-746
イナ	-747
えか	-748
キワ	-749
たは	-750
にう	-751
をく	-752
キト	-753
サケ	-754
マユ	-755
つひ	-756
つゆ	-757
ネワ	-758
たぬ	-759
むは	-760
よん	-761
コチ	-762
ルワ	-763
ヲシ	-764
すか	-765
てぬ	-766
てひ	-767
まく	-768
よぬ	-769
わお	-770
セツ	-771
すぬ	-772
てか	-773
てん	-774
まか	-775
まん	-776
レリ	-777
ロン	-778
ろや	-779
しき	-780
そは	-781
そや	-782
エシ	-783
エユ	-784
コヨ	-785
タテ	-786
ホユ	-787
ヲワ	-788
あお	-789
あせ	-790
あひ	-791
さき	-792
つせ	-793
らお	-794
マナ	-795
ロリ	-796
こは	-797
をや	-798
らと	-799
イク	-800
ミメ	-801
えや	-802
にけ	-803
ろく	-804
アト	-805
オク	-806
ムフ	-807
ムワ	-808
ムヘ	-809
そみ	-810
ほお	-811
をき	-812
エテ	-813
モケ	-814
ヲン	-815
あも	-816
そけ	-817
たひ	-818
へみ	-819
アワ	-820
ウメ	-821
ソフ	-822
えな	-823
たも	-824
ちる	-825
イヌ	-826
ルヤ	-827
たけ	-828
ウツ	-829
ハニ	-830
ムカ	-831
ヲメ	-832
すお	-833
ちか	-834
らせ	-835
をる	-836
ハユ	-837
マケ	-838
えは	-839
こく	-840
こせ	-841
ても	-842
よく	-843
ろお	-844
スユ	-845
にり	-846
マワ	-847
ミワ	-848
モト	-849
ヲヒ	-850
ヲユ	-851
こお	-852
イユ	-853
ラヒ	-854
えも	-855
すの	-856
すみ	-857
そき	-858
へせ	-859
イワ	-860
ハヘ	-861
マク	-862
ムネ	-863
すや	-864
ふと	-865
らり	-866
さゆ	-867
そひ	-868
ちれ	-869
ほう	-870
まめ	-871
イケ	-872
コケ	-873
タケ	-874
ラネ	-875
ロク	-876
ヲフ	-877
ちゆ	-878
むけ	-879
らう	-880
モユ	-881
えう	-882
する	-883
たの	-884
てり	-885
コシ	-886
ハチ	-887
えけ	-888
ふの	-889
よな	-890
キユ	-891
ルリ	-892
させ	-893
キヘ	-894
ソク	-895
ノユ	-896
ハク	-897
モク	-898
たゆ	-899
へき	-900
らけ	-901
サセ	-902
サヤ	-903
スニ	-904
スン	-905
あけ	-906
あと	-907
さの	-908
つは	-909
らる	-910
オト	-911
キヒ	-912
ソテ	-913
タヨ	-914
タワ	-915
マニ	-916
ミヤ	-917
ちき	-918
アケ	-919
コヤ	-920
スト	-921
ミン	-922
たな	-923
ふひ	-924
よと	-925
ろし	-926
わと	-927
ウセ	-928
こる	-929
そく	-930
たる	-931
ちけ	-932
ねせ	-933
イメ	-934
レテ	-935
あみ	-936
そん	-937
ねけ	-938
ほり	-939
らな	-940
ろな	-941
をぬ	-942
ウヌ	-943
エト	-944
キセ	-945
すは	-946
ふか	-947
ふく	-948
をひ	-949
イチ	-950
イト	-951
エチ	-952
オン	-953
スク	-954
ソユ	-955
ホヨ	-956
たや	-957
へり	-958
ろん	-959
ノメ	-960
ハフ	-961
ホケ	-962
ラシ	-963
ヲカ	-964
ヲト	-965
あん	-966
さく	-967
まぬ	-968
エヨ	-969
サヌ	-970
タシ	-971
ノヌ	-972
ノリ	-973
ホテ	-974
ミク	-975
レン	-976
ロヒ	-977
えく	-978
さは	-979
それ	-980
つな	-981
むな	-982
ろり	-983
エツ	-984
オフ	-985
モチ	-986
モメ	-987
ラヌ	-988
ルメ	-989
ロト	-990
ヲヘ	-991
あの	-992
さぬ	-993
ねひ	-994
へん	-995
まい	-996
エヌ	-997
キヌ	-998
サシ	-999
サト	-1000
えゆ	-1001
ムチ	-1002
ムン	-1003
レメ	-1004
にや	-1005
ねぬ	-1006
らみ	-1007
ろる	-1008
をも	-1009
タユ	-1010
ミヒ	-1011
ムト	-1012
モヨ	-1013
へお	-1014
へぬ	-1015
へひ	-1016
ほめ	-1017
まな	-1018
わく	-1019
マフ	-1020
ミユ	-1021
ムニ	-1022
ムユ	-1023
ルケ	-1024
ロニ	-1025
ロヤ	-1026
えめ	-1027
ちな	-1028
ろき	-1029
わか	-1030
アシ	-1031
アヨ	-1032
サカ	-1033
サフ	-1034
ハカ	-1035
ラチ	-1036
ラユ	-1037
ルテ	-1038
ロメ	-1039
ヲニ	-1040
えぬ	-1041
らき	-1042
エワ	-1043
サワ	-1044
タチ	-1045
ノト	-1046
ノネ	-1047
ムツ	-1048
ルヌ	-1049
ロヨ	-1050
こり	-1051
てう	-1052
てと	-1053
よは	-1054
ハツ	-1055
ミヘ	-1056
モヒ	-1057
ルク	-1058
あな	-1059
さる	-1060
さん	-1061
そと	-1062
そも	-1063
ちと	-1064
オシ	-1065
オツ	-1066
ソヤ	-1067
ラワ	-1068
ルニ	-1069
むる	-1070
をは	-1071
ウン	-1072
エメ	-1073
キシ	-1074
ノク	-1075
マヒ	-1076
モシ	-1077
ラメ	-1078
こぬ	-1079
まゆ	-1080
オニ	-1081
コヒ	-1082
ソカ	-1083
ソヨ	-1084
タヤ	-1085
ハト	-1086
ハヨ	-1087
ムヒ	-1088
ルチ	-1089
そせ	-1090
ちの	-1091
ての	-1092
ふり	-1093
ふん	-1094
ほる	-1095
らん	-1096
ろぬ	-1097
わひ	-1098
イリ	-1099
スネ	-1100
ソメ	-1101
タカ	-1102
ノカ	-1103
こめ	-1104
ちも	-1105
まし	-1106
らも	-1107
らや	-1108
ろひ	-1109
ウニ	-1110
コカ	-1111
コセ	-1112
スヤ	-1113
ノフ	-1114
ミカ	-1115
ラニ	-1116
さめ	-1117
すと	-1118
たり	-1119
まも	-1120
より	-1121
アリ	-1122
ウヤ	-1123
ウユ	-1124
コヌ	-1125
スチ	-1126
タク	-1127
ノケ	-1128
すめ	-1129
にく	-1130
むり	-1131
をみ	-1132
ソヌ	-1133
えみ	-1134
こみ	-1135
すゆ	-1136
そる	-1137
つの	-1138
てな	-1139
にみ	-1140
ねき	-1141
ふお	-1142
まは	-1143
よせ	-1144
アカ	-1145
スケ	-1146
ソツ	-1147
ノセ	-1148
ハシ	-1149
ちく	-1150
にめ	-1151
まの	-1152
まる	-1153
わけ	-1154
スリ	-1155
タツ	-1156
ハリ	-1157
マシ	-1158
ムヨ	-1159
える	-1160
ねう	-1161
へく	-1162
ろみ	-1163
キン	-1164
ノシ	-1165
ムシ	-1166
ムテ	-1167
レヌ	-1168
ヲヌ	-1169
そい	-1170
たう	-1171
ちお	-1172
つう	-1173
にい	-1174
ふる	-1175
わる	-1176
オナ	-1177
コメ	-1178
ハヤ	-1179
ロナ	-1180
ヲク	-1181
わみ	-1182
をな	-1183
ウテ	-1184
ホヌ	-1185
ホヘ	-1186
この	-1187
つき	-1188
てる	-1189
にも	-1190
ねと	-1191
へか	-1192
アユ	-1193
オネ	-1194
サテ	-1195
ソヒ	-1196
ノヘ	-1197
ミフ	-1198
ルナ	-1199
ロテ	-1200
あゆ	-1201
すき	-1202
そな	-1203
つと	-1204
ほい	-1205
むめ	-1206
コナ	-1207
スヨ	-1208
ソト	-1209
タン	-1210
ホナ	-1211
ルネ	-1212
こう	-1213
さお	-1214
さや	-1215
へい	-1216
よや	-1217
ソナ	-1218
タリ	-1219
ムメ	-1220
レヨ	-1221
すれ	-1222
ほや	-1223
むお	-1224
むの	-1225
らひ	-1226
アテ	-1227
イツ	-1228
ウワ	-1229
エン	-1230
コネ	-1231
ラヤ	-1232
ロカ	-1233
つい	-1234
つお	-1235
むも	-1236
ウク	-1237
ウチ	-1238
ウリ	-1239
オカ	-1240
コク	-1241
サク	-1242
ラケ	-1243
レツ	-1244
さか	-1245
さけ	-1246
ほな	-1247
らい	-1248
ろの	-1249
ろは	-1250
コト	-1251
ソワ	-1252
タト	-1253
ノナ	-1254
ホリ	-1255
モナ	-1256
モフ	-1257
すい	-1258
すせ	-1259
たせ	-1260
つか	-1261
ふい	-1262
へめ	-1263
へも	-1264
ほは	-1265
まき	-1266
よう	-1267
エネ	-1268
サツ	-1269
ソケ	-1270
ホヤ	-1271
さと	-1272
すも	-1273
そう	-1274
ちう	-1275
への	-1276
わり	-1277
をん	-1278
ホト	-1279
モテ	-1280
モヌ	-1281
あか	-1282
すう	-1283
にひ	-1284
にれ	-1285
ふめ	-1286
ふや	-1287
ろけ	-1288
ハネ	-1289
ムリ	-1290
ラト	-1291
ロシ	-1292
あき	-1293
えせ	-1294
ちみ	-1295
ふせ	-1296
よけ	-1297
ろめ	-1298
ウナ	-1299
サチ	-1300
ソリ	-1301
ハン	-1302
ラヨ	-1303
ては	-1304
にの	-1305
ほゆ	-1306
をお	-1307
キニ	-1308
サリ	-1309
スメ	-1310
スワ	-1311
タセ	-1312
あぬ	-1313
ふけ	-1314
わも	-1315
エニ	-1316
ミテ	-1317
ムヌ	-1318
モニ	-1319
ラテ	-1320
ロワ	-1321
あく	-1322
わし	-1323
キネ	-1324
キメ	-1325
レワ	-1326
ロヘ	-1327
へは	-1328
ほぬ	-1329
むか	-1330
をり	-1331
ヲケ	-1332
ヲツ	-1333
ヲネ	-1334
あは	-1335
えお	-1336
むゆ	-1337
をの	-1338
アネ	-1339
イフ	-1340
イヨ	-1341
ウヒ	-1342
ラリ	-1343
ルツ	-1344
ロフ	-1345
さみ	-1346
そお	-1347
にゆ	-1348
にる	-1349
ほん	-1350
まけ	-1351
ろか	-1352
ろと	-1353
イヘ	-1354
エリ	-1355
スシ	-1356
さし	-1357
すけ	-1358
ちや	-1359
まひ	-1360
むや	-1361
わい	-1362
ウト	-1363
オテ	-1364
ミリ	-1365
ラン	-1366
レク	-1367
えの	-1368
さひ	-1369
たし	-1370
ろも	-1371
わゆ	-1372
をと	-1373
イヤ	-1374
ノヒ	-1375
レフ	-1376
ふう	-1377
ふも	-1378
ソシ	-1379
ノテ	-1380
ハテ	-1381
ホネ	-1382
てき	-1383
ねお	-1384
ふぬ	-1385
へゆ	-1386
よひ	-1387
スヘ	-1388
えひ	-1389
ちひ	-1390
ねの	-1391
わな	-1392
わや	-1393
アチ	-1394
キツ	-1395
スツ	-1396
ノヤ	-1397
ヲヤ	-1398
むう	-1399
よお	-1400
エク	-1401
エセ	-1402
ノン	-1403
ホニ	-1404
モワ	-1405
レユ	-1406
ロチ	-1407
てく	-1408
ねな	-1409
へと	-1410
むみ	-1411
らゆ	-1412
わめ	-1413
アヘ	-1414
ルン	-1415
こき	-1416
つり	-1417
てめ	-1418
ふき	-1419
わせ	-1420
ホク	-1421
マチ	-1422
ミナ	-1423
レニ	-1424
ロネ	-1425
えし	-1426
つん	-1427
ほも	-1428
むぬ	-1429
をか	-1430
イカ	-1431
サユ	-1432
マテ	-1433
ミシ	-1434
ラカ	-1435
ヲテ	-1436
あい	-1437
こも	-1438
さう	-1439
ふな	-1440
よい	-1441
よみ	-1442
をう	-1443
アヤ	-1444
タニ	-1445
タヒ	-1446
ホシ	-1447
こゆ	-1448
さも	-1449
てせ	-1450
ねい	-1451
らく	-1452
らは	-1453
わの	-1454
アツ	-1455
キチ	-1456
ルヒ	-1457
えい	-1458
ちい	-1459
ほと	-1460
まと	-1461
まみ	-1462
らめ	-1463
オワ	-1464
ハメ	-1465
ホセ	-1466
マヌ	-1467
マリ	-1468
ルユ	-1469
ヲチ	-1470
ウシ	-1471
オチ	-1472
モン	-1473
レヤ	-1474
にか	-1475
よし	-1476
エフ	-1477
タヘ	-1478
ノツ	-1479
ホツ	-1480
たき	-1481
ねゆ	-1482
へな	-1483
ウケ	-1484
エヒ	-1485
オセ	-1486
キナ	-1487
ソセ	-1488
レチ	-1489
あや	-1490
ちり	-1491
よか	-1492
ろう	-1493
をれ	-1494
コニ	-1495
サネ	-1496
レヒ	-1497
えん	-1498
つや	-1499
てや	-1500
まや	-1501
むれ	-1502
キフ	-1503
ハケ	-1504
マヨ	-1505
モネ	-1506
ラナ	-1507
ルセ	-1508
えり	-1509
こな	-1510
すひ	-1511
ねは	-1512
よき	-1513
キテ	-1514
スセ	-1515
タフ	-1516
ミト	-1517
あし	-1518
ちせ	-1519
よゆ	-1520
ろせ	-1521
ハワ	-1522
マツ	-1523
マヘ	-1524
ラヘ	-1525
ルト	-1526
ルフ	-1527
にな	-1528
ねん	-1529
ふは	-1530
あめ	-1531
ねく	-1532
モヘ	-1533
レシ	-1534
にと	-1535
ねみ	-1536
ルヨ	-1537
さい	-1538
てお	-1539
ホワ	-1540
ミヌ	-1541
レト	-1542
そめ	-1543
そゆ	-1544
むい	-1545
わう	-1546
アク	-1547
ハヒ	-1548
ルカ	-1549
レネ	-1550
ロユ	-1551
えき	-1552
さな	-1553
そり	-1554
にき	-1555
にし	-1556
ほの	-1557
まれ	-1558
むせ	-1559
わき	-1560
わん	-1561
ソヘ	-1562
ホフ	-1563
マカ	-1564
これ	-1565
アニ	-1566
ホチ	-1567
すな	-1568
てゆ	-1569
ねや	-1570
ほき	-1571
ほせ	-1572
まう	-1573
よれ	-1574
をめ	-1575
コフ	-1576
サニ	-1577
スヌ	-1578
あれ	-1579
ちん	-1580
アヌ	-1581
サヒ	-1582
サヨ	-1583
ラツ	-1584
にぬ	-1585
へし	-1586
キケ	-1587
モカ	-1588
ラセ	-1589
こい	-1590
すし	-1591
ほれ	-1592
キカ	-1593
さり	-1594
そぬ	-1595
たか	-1596
オヘ	-1597
サン	-1598
タヌ	-1599
らぬ	-1600
アナ	-1601
キヨ	-1602
コヘ	-1603
ミツ	-1604
ミニ	-1605
ムヤ	-1606
レカ	-1607
にん	-1608
オケ	-1609
ねか	-1610
イネ	-1611
イン	-1612
ウネ	-1613
レケ	-1614
レナ	-1615
たと	-1616
よの	-1617
タメ	-1618
ノチ	-1619
マン	-1620
ちめ	-1621
よめ	-1622
コテ	-1623
つぬ	-1624
サヘ	-1625
スヒ	-1626
えれ	-1627
ソン	-1628
てけ	-1629
をゆ	-1630
ノワ	-1631
マメ	-1632
ロヌ	-1633
をし	-1634
アメ	-1635
ウカ	-1636
マネ	-1637
ムナ	-1638
ロケ	-1639
つる	-1640
ほか	-1641
られ	-1642
ミケ	-1643
そか	-1644
ちぬ	-1645
ほく	-1646
コユ	-1647
こや	-1648
たお	-1649
イシ	-1650
てれ	-1651
オヒ	-1652
ミネ	-1653
モリ	-1654
たく	-1655
てみ	-1656
アフ	-1657
へう	-1658
をい	-1659
ねれ	-1660
オヨ	-1661
ムク	-1662
モヤ	-1663
ルヘ	-1664
エヘ	-1665
こん	-1666
へれ	-1667
アン	-1668
ホカ	-1669
たい	-1670
ねる	-1671
スカ	-1672
よる	-1673
をせ	-1674
レセ	-1675
にせ	-1676
ヲリ	-1677
ウヘ	-1678
ホン	-1679
ねめ	-1680
ねも	-1681
ませ	-1682
エナ	-1683
こか	-1684
イニ	-1685
つみ	-1686
つれ	-1687
ほみ	-1688
イセ	-1689
たれ	-1690
ムセ	-1691
あう	-1692
ヲセ	-1693
われ	-1694
エカ	-1695
ソチ	-1696
レヘ	-1697
キク	-1698
ハセ	-1699
ミヨ	-1700
マヤ	-1701
そし	-1702
タネ	-1703
こし	-1704
たみ	-1705
エケ	-1706
てし	-1707
マセ	-1708
アセ	-1709
らし	-1710
ロセ	-1711
ミセ	-1712
モセ	-1713
ねし	-1714
ちし	-1715
つし	-1716
むし	-1717
ろい	-1718
ふし	-1719
ろれ	-1720
ほし	-1721
ふれ	-1722
ゆは	-1723
イオ	-1724
ぬひ	-1725
キコ	-1726
もけ	-1727
トク	-1728
ヘリ	-1729
ヌユ	-1730
れり	-1731
ムラ	-1732
ロサ	-1733
ひお	-1734
キヲ	-1735
せり	-1736
にす	-1737
なか	-1738
ソコ	-1739
ニン	-1740
ロミ	-1741
ヌヒ	-1742
めと	-1743
てす	-1744
のう	-1745
やは	-1746
のん	-1747
るり	-1748
ケフ	-1749
スル	-1750
せく	-1751
ニメ	-1752
チメ	-1753
ホサ	-1754
みう	-1755
タウ	-1756
トユ	-1757
もと	-1758
のゆ	-1759
ソノ	-1760
テヨ	-1761
チフ	-1762
ナク	-1763
モマ	-1764
こま	-1765
のと	-1766
キサ	-1767
たえ	-1768
ひん	-1769
もお	-1770
イミ	-1771
にち	-1772
ケシ	-1773
きか	-1774
ほま	-1775
みり	-1776
ヌフ	-1777
みぬ	-1778
みは	-1779
ケリ	-1780
ソハ	-1781
レミ	-1782
ひく	-1783
やい	-1784
やと	-1785
エハ	-1786
キオ	-1787
テリ	-1788
ナヨ	-1789
ナン	-1790
ロス	-1791
チク	-1792
へす	-1793
もん	-1794
ケワ	-1795
れぬ	-1796
セヨ	-1797
ナヒ	-1798
ネシ	-1799
ヲラ	-1800
しる	-1801
テヤ	-1802
けは	-1803
そむ	-1804
イア	-1805
トシ	-1806
ヲマ	-1807
あわ	-1808
のい	-1809
ひゆ	-1810
ウコ	-1811
ヌヨ	-1812
ルラ	-1813
ふつ	-1814
ほす	-1815
みか	-1816
もる	-1817
れう	-1818
イサ	-1819
ノス	-1820
ムマ	-1821
ロラ	-1822
のは	-1823
ツリ	-1824
ホオ	-1825
ユメ	-1826
なぬ	-1827
ケヒ	-1828
しり	-1829
せは	-1830
なん	-1831
めき	-1832
キハ	-1833
せぬ	-1834
ひり	-1835
もは	-1836
やお	-1837
ソミ	-1838
ソモ	-1839
ニシ	-1840
ンリ	-1841
さた	-1842
トヒ	-1843
ほえ	-1844
まま	-1845
めは	-1846
カフ	-1847
トヨ	-1848
ネク	-1849
ネヤ	-1850
しお	-1851
のか	-1852
ツヨ	-1853
もく	-1854
タマ	-1855
テメ	-1856
ホハ	-1857
せき	-1858
エミ	-1859
チヒ	-1860
ノサ	-1861
しん	-1862
やか	-1863
チヨ	-1864
テフ	-1865
ホウ	-1866
せる	-1867
ひは	-1868
をた	-1869
セワ	-1870
にむ	-1871
もり	-1872
ゆく	-1873
ホア	-1874
あら	-1875
こつ	-1876
へへ	-1877
よよ	-1878
をわ	-1879
ソマ	-1880
めぬ	-1881
れん	-1882
せん	-1883
ヲモ	-1884
さえ	-1885
さろ	-1886
しか	-1887
のお	-1888
キミ	-1889
テワ	-1890
トワ	-1891
ナユ	-1892
しは	-1893
せか	-1894
てえ	-1895
もう	-1896
ツメ	-1897
ホル	-1898
ヲサ	-1899
やう	-1900
ゆと	-1901
れお	-1902
タサ	-1903
レマ	-1904
のけ	-1905
ひぬ	-1906
もぬ	-1907
やき	-1908
ナメ	-1909
ロマ	-1910
ひけ	-1911
タオ	-1912
ヌカ	-1913
ネリ	-1914
ホス	-1915
こわ	-1916
せう	-1917
なり	-1918
にら	-1919
ゆん	-1920
ヘン	-1921
あえ	-1922
そち	-1923
れと	-1924
ソム	-1925
チカ	-1926
ヲア	-1927
にふ	-1928
エコ	-1929
セリ	-1930
ニヒ	-1931
めお	-1932
やん	-1933
キラ	-1934
ツン	-1935
ヘワ	-1936
テユ	-1937
ニク	-1938
ヌク	-1939
ヌヤ	-1940
こむ	-1941
しう	-1942
みる	-1943
ゆり	-1944
セヤ	-1945
チユ	-1946
ヌワ	-1947
しぬ	-1948
めか	-1949
める	-1950
ウモ	-1951
チリ	-1952
さね	-1953
ゆう	-1954
ニワ	-1955
にて	-1956
のく	-1957
ひる	-1958
やけ	-1959
ヲム	-1960
につ	-1961
よえ	-1962
イモ	-1963
キル	-1964
ケカ	-1965
ツフ	-1966
ニカ	-1967
ネン	-1968
ノラ	-1969
ホラ	-1970
ロム	-1971
こふ	-1972
へろ	-1973
ヌリ	-1974
そえ	-1975
ひう	-1976
ネメ	-1977
のり	-1978
のる	-1979
キス	-1980
セカ	-1981
ホモ	-1982
レラ	-1983
しけ	-1984
をら	-1985
ソサ	-1986
ソル	-1987
タコ	-1988
タム	-1989
チシ	-1990
ネヨ	-1991
ノマ	-1992
ヘク	-1993
れい	-1994
イウ	-1995
エマ	-1996
ソラ	-1997
なと	-1998
ツユ	-1999
さち	-2000
もか	-2001
ナフ	-2002
ノモ	-2003
ほら	-2004
ゆけ	-2005
をす	-2006
キウ	-2007
ケク	-2008
セン	-2009
チヤ	-2010
ツク	-2011
にえ	-2012
みと	-2013
めく	-2014
やる	-2015
タミ	-2016
ヘヒ	-2017
レル	-2018
こて	-2019
にろ	-2020
めけ	-2021
ソオ	-2022
タモ	-2023
ゆお	-2024
セフ	-2025
レオ	-2026
せお	-2027
ひと	-2028
めん	-2029
エサ	-2030
トヤ	-2031
ナシ	-2032
しい	-2033
そて	-2034
めり	-2035
やぬ	-2036
をつ	-2037
ノル	-2038
レハ	-2039
ロモ	-2040
こえ	-2041
せと	-2042
へて	-2043
みく	-2044
ニヤ	-2045
ヘヨ	-2046
ヲウ	-2047
ない	-2048
むす	-2049
タル	-2050
ヌン	-2051
ヘユ	-2052
さつ	-2053
へね	-2054
みん	-2055
タラ	-2056
チワ	-2057
テカ	-2058
トカ	-2059
レコ	-2060
みき	-2061
エス	-2062
ヘメ	-2063
ああ	-2064
ひい	-2065
ほろ	-2066
やり	-2067
をえ	-2068
ケヨ	-2069
ニヨ	-2070
ロル	-2071
さら	-2072
そら	-2073
れき	-2074
タス	-2075
そま	-2076
たろ	-2077
へふ	-2078
よわ	-2079
エア	-2080
へち	-2081
れけ	-2082
ツカ	-2083
テヒ	-2084
テン	-2085
ヲミ	-2086
しく	-2087
にま	-2088
ゆか	-2089
イハ	-2090
イラ	-2091
キア	-2092
キマ	-2093
セメ	-2094
ヌメ	-2095
ロオ	-2096
ロハ	-2097
せい	-2098
たす	-2099
へわ	-2100
やく	-2101
タア	-2102
ヘフ	-2103
へま	-2104
イコ	-2105
トメ	-2106
ナワ	-2107
ノア	-2108
ヘシ	-2109
ひか	-2110
もい	-2111
もな	-2112
をち	-2113
エラ	-2114
エル	-2115
セヒ	-2116
ニリ	-2117
みい	-2118
れか	-2119
イル	-2120
レム	-2121
ゆき	-2122
ネユ	-2123
ノム	-2124
ホム	-2125
こら	-2126
ソス	-2127
さす	-2128
たね	-2129
セク	-2130
にわ	-2131
ゆぬ	-2132
ソウ	-2133
レア	-2134
そす	-2135
そろ	-2136
よろ	-2137
ケメ	-2138
ホコ	-2139
ひき	-2140
れく	-2141
ケン	-2142
にね	-2143
セユ	-2144
チン	-2145
ツヒ	-2146
トン	-2147
ホマ	-2148
そね	-2149
よつ	-2150
テシ	-2151
ナヤ	-2152
ふら	-2153
れな	-2154
ツヤ	-2155
ホミ	-2156
たら	-2157
のき	-2158
ゆい	-2159
をま	-2160
エモ	-2161
キム	-2162
ナリ	-2163
ひな	-2164
めい	-2165
をむ	-2166
イム	-2167
タハ	-2168
ニフ	-2169
ノミ	-2170
こち	-2171
ふろ	-2172
ヘカ	-2173
たて	-2174
よま	-2175
をて	-2176
イマ	-2177
レモ	-2178
ヲル	-2179
そつ	-2180
たむ	-2181
のぬ	-2182
ほわ	-2183
ナカ	-2184
あて	-2185
へつ	-2186
ソア	-2187
テク	-2188
ヲオ	-2189
ふま	-2190
ヌシ	-2191
ネカ	-2192
ノコ	-2193
ノハ	-2194
ノオ	-2195
みけ	-2196
ふわ	-2197
もき	-2198
さま	-2199
ロコ	-2200
エウ	-2201
ニユ	-2202
こす	-2203
ケユ	-2204
をろ	-2205
レウ	-2206
あむ	-2207
そわ	-2208
よね	-2209
さわ	-2210
へえ	-2211
みな	-2212
よむ	-2213
ヲス	-2214
ロウ	-2215
イス	-2216
ケヤ	-2217
よす	-2218
ミマ	-2219
さむ	-2220
ノウ	-2221
あね	-2222
ほつ	-2223
へら	-2224
ヲハ	-2225
ふて	-2226
さて	-2227
トリ	-2228
ロア	-2229
せな	-2230
よら	-2231
エオ	-2232
トフ	-2233
ヲコ	-2234
レサ	-2235
たわ	-2236
エム	-2237
たま	-2238
ふね	-2239
キモ	-2240
あろ	-2241
のな	-2242
たち	-2243
ふえ	-2244
ほね	-2245
よて	-2246
ツシ	-2247
あつ	-2248
めう	-2249
ツワ	-2250
レス	-2251
あま	-2252
ふす	-2253
るか	-2254
あち	-2255
へむ	-2256
ころ	-2257
あす	-2258
るく	-2259
ほち	-2260
るう	-2261
おお	-2262
ほて	-2263
ゆな	-2264
ふち	-2265
ふむ	-2266
よち	-2267
をね	-2268
コマ	-2269
きく	-2270
んん	-2271
クメ	-2272
ネフ	-2273
ヒヨ	-2274
コサ	-2275
きは	-2276
やな	-2277
とい	-2278
スス	-2279
ユヨ	-2280
ワメ	-2281
ミサ	-2282
りか	-2283
ほむ	-2284
るぬ	-2285
ウル	-2286
とか	-2287
とは	-2288
モル	-2289
たつ	-2290
けか	-2291
ウラ	-2292
シク	-2293
きお	-2294
くい	-2295
トト	-2296
ニヌ	-2297
んう	-2298
ウア	-2299
オス	-2300
ウハ	-2301
ユワ	-2302
ロホ	-2303
オハ	-2304
シン	-2305
テケ	-2306
えす	-2307
オミ	-2308
コラ	-2309
とう	-2310
ニケ	-2311
ヤヒ	-2312
ムサ	-2313
モラ	-2314
チケ	-2315
ナケ	-2316
ヤフ	-2317
とぬ	-2318
ナネ	-2319
きい	-2320
もゆ	-2321
コハ	-2322
ヘヘ	-2323
ムハ	-2324
くぬ	-2325
やせ	-2326
らね	-2327
クン	-2328
セト	-2329
ユリ	-2330
しめ	-2331
るお	-2332
んお	-2333
チネ	-2334
るは	-2335
チテ	-2336
んは	-2337
そさ	-2338
なけ	-2339
りう	-2340
アス	-2341
オル	-2342
シリ	-2343
ミル	-2344
くけ	-2345
ちわ	-2346
クリ	-2347
あさ	-2348
んい	-2349
シワ	-2350
タレ	-2351
ヨン	-2352
るい	-2353
ユヒ	-2354
やみ	-2355
ソロ	-2356
ララ	-2357
きぬ	-2358
こへ	-2359
つて	-2360
つら	-2361
ちま	-2362
むら	-2363
セケ	-2364
ムス	-2365
れみ	-2366
をを	-2367
くう	-2368
ウマ	-2369
ササ	-2370
ヲエ	-2371
んり	-2372
ソイ	-2373
トテ	-2374
ヤメ	-2375
ろま	-2376
コル	-2377
セヘ	-2378
ソタ	-2379
ツツ	-2380
ヌテ	-2381
せゆ	-2382
とけ	-2383
ムミ	-2384
るけ	-2385
キキ	-2386
ムア	-2387
ヤリ	-2388
コア	-2389
シメ	-2390
もの	-2391
んか	-2392
クワ	-2393
きり	-2394
くお	-2395
しの	-2396
てわ	-2397
もひ	-2398
サハ	-2399
たほ	-2400
やめ	-2401
ノノ	-2402
ロロ	-2403
カメ	-2404
そほ	-2405
ろち	-2406
こに	-2407
せみ	-2408
なう	-2409
むえ	-2410
もめ	-2411
よに	-2412
ろわ	-2413
オア	-2414
チニ	-2415
ヒヒ	-2416
くは	-2417
そに	-2418
トヘ	-2419
ヌナ	-2420
ヤン	-2421
レタ	-2422
ヲタ	-2423
つち	-2424
れゆ	-2425
ウミ	-2426
オマ	-2427
ムル	-2428
モハ	-2429
やの	-2430
ウス	-2431
ヤヨ	-2432
あほ	-2433
すす	-2434
つま	-2435
サマ	-2436
トケ	-2437
エホ	-2438
セネ	-2439
おは	-2440
つえ	-2441
むね	-2442
あふ	-2443
あへ	-2444
てち	-2445
むわ	-2446
トツ	-2447
れひ	-2448
んけ	-2449
ヒン	-2450
せめ	-2451
たふ	-2452
チツ	-2453
フリ	-2454
せひ	-2455
もみ	-2456
きう	-2457
ヌヌ	-2458
ヘケ	-2459
ヨヨ	-2460
こさ	-2461
てま	-2462
サア	-2463
スハ	-2464
スマ	-2465
モア	-2466
ロタ	-2467
カワ	-2468
キタ	-2469
セナ	-2470
ソホ	-2471
こを	-2472
ぬは	-2473
ると	-2474
トネ	-2475
ノレ	-2476
セテ	-2477
ニツ	-2478
りい	-2479
コオ	-2480
ヲイ	-2481
つね	-2482
てら	-2483
さほ	-2484
しや	-2485
せの	-2486
れめ	-2487
フン	-2488
そよ	-2489
きけ	-2490
しゆ	-2491
つす	-2492
れや	-2493
ろえ	-2494
メメ	-2495
モミ	-2496
エイ	-2497
ニテ	-2498
ユン	-2499
こよ	-2500
しみ	-2501
むま	-2502
りお	-2503
りけ	-2504
カン	-2505
クヒ	-2506
ラル	-2507
らえ	-2508
キホ	-2509
とと	-2510
ろす	-2511
ニネ	-2512
ワリ	-2513
つわ	-2514
ニナ	-2515
ユシ	-2516
ぬお	-2517
ろね	-2518
ムオ	-2519
キレ	-2520
クヨ	-2521
ソエ	-2522
ニヘ	-2523
ラマ	-2524
かか	-2525
キロ	-2526
しひ	-2527
そた	-2528
らわ	-2529
ヒリ	-2530
モオ	-2531
あに	-2532
れの	-2533
イイ	-2534
サミ	-2535
ヌケ	-2536
フヨ	-2537
メン	-2538
ちえ	-2539
へほ	-2540
ソレ	-2541
きき	-2542
こほ	-2543
ネテ	-2544
モス	-2545
ワワ	-2546
ヲホ	-2547
ちね	-2548
へよ	-2549
カリ	-2550
キノ	-2551
メヨ	-2552
ヲレ	-2553
なは	-2554
やひ	-2555
るん	-2556
ウサ	-2557
ハル	-2558
つむ	-2559
みみ	-2560
やゆ	-2561
ヌヘ	-2562
ます	-2563
チナ	-2564
くく	-2565
へに	-2566
エタ	-2567
そを	-2568
とお	-2569
ヤヤ	-2570
ささ	-2571
そふ	-2572
なお	-2573
カヨ	-2574
チト	-2575
てね	-2576
コス	-2577
キイ	-2578
コム	-2579
もも	-2580
ネケ	-2581
ヒワ	-2582
ヲノ	-2583
うお	-2584
かけ	-2585
しせ	-2586
ツテ	-2587
ミミ	-2588
あた	-2589
をに	-2590
カク	-2591
ユク	-2592
ゆの	-2593
ゆめ	-2594
らす	-2595
りは	-2596
ツケ	-2597
フシ	-2598
ナナ	-2599
ハマ	-2600
アマ	-2601
イレ	-2602
フワ	-2603
きん	-2604
ちす	-2605
ぬけ	-2606
ユヤ	-2607
イホ	-2608
えわ	-2609
もせ	-2610
ろむ	-2611
をよ	-2612
ヘテ	-2613
をふ	-2614
セヌ	-2615
フヒ	-2616
メワ	-2617
かい	-2618
ろて	-2619
こた	-2620
コウ	-2621
そへ	-2622
ぬう	-2623
りん	-2624
ミス	-2625
かは	-2626
キエ	-2627
コモ	-2628
あよ	-2629
らま	-2630
れせ	-2631
サス	-2632
トヌ	-2633
けけ	-2634
をほ	-2635
ムム	-2636
さに	-2637
ホホ	-2638
ラス	-2639
ラハ	-2640
リリ	-2641
ロノ	-2642
みめ	-2643
シヨ	-2644
ツナ	-2645
トナ	-2646
のの	-2647
はは	-2648
るな	-2649
▁°	-2650
チチ	-2651
てて	-2652
ねま	-2653
カヒ	-2654
サル	-2655
ツネ	-2656
かう	-2657
きな	-2658
ぬい	-2659
れれ	-2660
ほほ	-2661
ひめ	-2662
むむ	-2663
コミ	-2664
ロソ	-2665
えま	-2666
くな	-2667
チヘ	-2668
さよ	-2669
ふよ	-2670
ハア	-2671
きと	-2672
にに	-2673
テテ	-2674
メシ	-2675
くり	-2676
くん	-2677
モモ	-2678
ユフ	-2679
くと	-2680
しれ	-2681
タノ	-2682
ヒシ	-2683
ホレ	-2684
ろら	-2685
ヤシ	-2686
カケ	-2687
クク	-2688
マル	-2689
うい	-2690
たよ	-2691
ゆゆ	-2692
オム	-2693
ちら	-2694
イノ	-2695
ラア	-2696
かと	-2697
けい	-2698
ひみ	-2699
タロ	-2700
そあ	-2701
カシ	-2702
そこ	-2703
めめ	-2704
チヌ	-2705
ヘネ	-2706
わま	-2707
リン	-2708
おい	-2709
ぬん	-2710
やや	-2711
ヲソ	-2712
キソ	-2713
セニ	-2714
ラミ	-2715
ヲロ	-2716
せせ	-2717
エエ	-2718
ねち	-2719
ユユ	-2720
るの	-2721
ラモ	-2722
ワヨ	-2723
さへ	-2724
たに	-2725
イロ	-2726
ワン	-2727
ねえ	-2728
オオ	-2729
ツヌ	-2730
りり	-2731
セチ	-2732
ヒク	-2733
テネ	-2734
ハミ	-2735
レレ	-2736
うう	-2737
かぬ	-2738
むち	-2739
わす	-2740
ママ	-2741
ひや	-2742
らち	-2743
タホ	-2744
ヤク	-2745
くき	-2746
ろろ	-2747
フフ	-2748
るき	-2749
コホ	-2750
ハス	-2751
メヒ	-2752
ヲヲ	-2753
あそ	-2754
えち	-2755
さふ	-2756
みや	-2757
りな	-2758
るめ	-2759
ねす	-2760
らて	-2761
エノ	-2762
ニト	-2763
メリ	-2764
もし	-2765
をへ	-2766
ツセ	-2767
つほ	-2768
わら	-2769
ヨリ	-2770
うは	-2771
ウオ	-2772
マミ	-2773
むて	-2774
ウム	-2775
けお	-2776
アル	-2777
エロ	-2778
カユ	-2779
ヌネ	-2780
くめ	-2781
ぬぬ	-2782
ツニ	-2783
メフ	-2784
あこ	-2785
のひ	-2786
わち	-2787
ツヘ	-2788
ヤケ	-2789
つよ	-2790
はい	-2791
をこ	-2792
ソソ	-2793
ゆひ	-2794
シシ	-2795
モコ	-2796
レホ	-2797
ええ	-2798
たさ	-2799
をそ	-2800
ラサ	-2801
けう	-2802
とん	-2803
によ	-2804
のや	-2805
もや	-2806
スミ	-2807
セル	-2808
トチ	-2809
のみ	-2810
タイ	-2811
ヤワ	-2812
ンヨ	-2813
アミ	-2814
ナテ	-2815
くか	-2816
るみ	-2817
カテ	-2818
へそ	-2819
ナヘ	-2820
レノ	-2821
つろ	-2822
タエ	-2823
まち	-2824
をさ	-2825
クシ	-2826
ケケ	-2827
ナヌ	-2828
ラオ	-2829
ねわ	-2830
サモ	-2831
ウウ	-2832
ヘニ	-2833
しし	-2834
とり	-2835
のめ	-2836
ほよ	-2837
ハハ	-2838
ふた	-2839
ゆせ	-2840
トセ	-2841
マア	-2842
なな	-2843
へさ	-2844
ネネ	-2845
ムコ	-2846
ンン	-2847
すわ	-2848
ねて	-2849
ねら	-2850
モウ	-2851
ワフ	-2852
ねろ	-2853
ゆも	-2854
をあ	-2855
カヤ	-2856
ナニ	-2857
えら	-2858
おぬ	-2859
きめ	-2860
レロ	-2861
えむ	-2862
おう	-2863
ふさ	-2864
れも	-2865
ケヌ	-2866
マス	-2867
にた	-2868
メク	-2869
リフ	-2870
ルル	-2871
ゆる	-2872
モム	-2873
ぬり	-2874
へあ	-2875
まら	-2876
サオ	-2877
んと	-2878
はけ	-2879
ひせ	-2880
まわ	-2881
むろ	-2882
んめ	-2883
ソヲ	-2884
ホノ	-2885
ンク	-2886
おり	-2887
かり	-2888
こあ	-2889
コノ	-2890
つつ	-2891
へた	-2892
ツチ	-2893
マハ	-2894
メユ	-2895
モサ	-2896
しも	-2897
そそ	-2898
レエ	-2899
くる	-2900
にほ	-2901
ホエ	-2902
ヤユ	-2903
アサ	-2904
トニ	-2905
ネヌ	-2906
やれ	-2907
ヒカ	-2908
ヤカ	-2909
はぬ	-2910
まて	-2911
ヘヌ	-2912
ホロ	-2913
ルス	-2914
ルミ	-2915
のも	-2916
ナセ	-2917
リヨ	-2918
リワ	-2919
ネニ	-2920
へこ	-2921
モノ	-2922
えて	-2923
んき	-2924
ハオ	-2925
うけ	-2926
むた	-2927
ゆみ	-2928
コイ	-2929
レイ	-2930
しす	-2931
にさ	-2932
むつ	-2933
ヲキ	-2934
おか	-2935
ちち	-2936
やも	-2937
ヘチ	-2938
ホソ	-2939
ラノ	-2940
ロイ	-2941
ナチ	-2942
ンフ	-2943
けり	-2944
せも	-2945
よほ	-2946
マオ	-2947
ヨシ	-2948
ねほ	-2949
れす	-2950
んみ	-2951
タソ	-2952
ヒメ	-2953
ユテ	-2954
ふふ	-2955
ウノ	-2956
ユケ	-2957
ルア	-2958
レヲ	-2959
ンワ	-2960
おな	-2961
ハム	-2962
リク	-2963
のせ	-2964
はと	-2965
ナト	-2966
ヒテ	-2967
ヘツ	-2968
けぬ	-2969
ちて	-2970
タヲ	-2971
ヌニ	-2972
フク	-2973
ホイ	-2974
ロエ	-2975
くひ	-2976
ミオ	-2977
▁今日はい	-2978
けと	-2979
ここ	-2980
わえ	-2981
ロヲ	-2982
ちよ	-2983
アオ	-2984
リケ	-2985
ンシ	-2986
たた	-2987
まえ	-2988
ろほ	-2989
ココ	-2990
タキ	-2991
くし	-2992
にへ	-2993
ナツ	-2994
いい	-2995
うり	-2996
おと	-2997
くも	-2998
ハサ	-2999
かな	-3000
むよ	-3001
ゆれ	-3002
らら	-3003
るひ	-3004
カヌ	-3005
エキ	-3006
セセ	-3007
ハラ	-3008
ぬと	-3009
ふを	-3010
めみ	-3011
ろつ	-3012
ムモ	-3013
レソ	-3014
ヒヤ	-3015
きひ	-3016
ヨク	-3017
かん	-3018
めひ	-3019
ろこ	-3020
ネヘ	-3021
ミア	-3022
ワク	-3023
ろよ	-3024
わわ	-3025
サラ	-3026
チセ	-3027
はお	-3028
シフ	-3029
あを	-3030
うと	-3031
のれ	-3032
るゆ	-3033
ウタ	-3034
スオ	-3035
ネト	-3036
ふへ	-3037
きみ	-3038
ムイ	-3039
ロキ	-3040
こそ	-3041
ふそ	-3042
まね	-3043
カニ	-3044
テツ	-3045
ヒフ	-3046
ふに	-3047
ウレ	-3048
エヲ	-3049
スア	-3050
うな	-3051
むへ	-3052
むほ	-3053
テヌ	-3054
ネツ	-3055
ルマ	-3056
せし	-3057
てつ	-3058
はな	-3059
カヘ	-3060
うか	-3061
リシ	-3062
ルオ	-3063
さあ	-3064
ぬみ	-3065
はり	-3066
わよ	-3067
すら	-3068
れし	-3069
エソ	-3070
ハモ	-3071
フユ	-3072
すえ	-3073
すち	-3074
たを	-3075
ヒユ	-3076
ヨメ	-3077
たあ	-3078
ホヲ	-3079
ムウ	-3080
ムノ	-3081
ワユ	-3082
きる	-3083
たへ	-3084
ねつ	-3085
まほ	-3086
んぬ	-3087
イキ	-3088
ヌト	-3089
ヨユ	-3090
おけ	-3091
んな	-3092
イヲ	-3093
ニチ	-3094
ハノ	-3095
ヨケ	-3096
レキ	-3097
ンメ	-3098
ルサ	-3099
スサ	-3100
テセ	-3101
ホキ	-3102
みひ	-3103
イソ	-3104
ニセ	-3105
ラコ	-3106
ちつ	-3107
はか	-3108
ゆし	-3109
ネナ	-3110
ぬか	-3111
やし	-3112
わね	-3113
テナ	-3114
テヘ	-3115
マサ	-3116
すね	-3117
すよ	-3118
てろ	-3119
まつ	-3120
アノ	-3121
フメ	-3122
ホタ	-3123
ヤヘ	-3124
さそ	-3125
ふあ	-3126
めも	-3127
ヨワ	-3128
きも	-3129
たそ	-3130
リメ	-3131
ロレ	-3132
まよ	-3133
りと	-3134
ヌチ	-3135
みし	-3136
オサ	-3137
クユ	-3138
にあ	-3139
めせ	-3140
ソキ	-3141
を感じ	-3142
きの	-3143
ひも	-3144
んく	-3145
こ感じ	-3146
シヤ	-3147
シユ	-3148
テニ	-3149
マコ	-3150
ルモ	-3151
ワカ	-3152
きゆ	-3153
るる	-3154
ハコ	-3155
ほさ	-3156
りぬ	-3157
ネチ	-3158
ルム	-3159
すむ	-3160
へを	-3161
めの	-3162
わむ	-3163
みゆ	-3164
ネセ	-3165
マモ	-3166
ヨヒ	-3167
オラ	-3168
ヤチ	-3169
ヤナ	-3170
ヨフ	-3171
きし	-3172
まろ	-3173
えつ	-3174
おん	-3175
くれ	-3176
たこ	-3177
わほ	-3178
スラ	-3179
ノキ	-3180
えね	-3181
カト	-3182
スム	-3183
ヌツ	-3184
ミラ	-3185
ちろ	-3186
にを	-3187
イエ	-3188
サコ	-3189
にこ	-3190
ケツ	-3191
マウ	-3192
ミウ	-3193
ンヒ	-3194
テチ	-3195
ニニ	-3196
ノソ	-3197
マム	-3198
ケヘ	-3199
ワシ	-3200
すて	-3201
せや	-3202
せれ	-3203
ひひ	-3204
ケチ	-3205
ケト	-3206
リユ	-3207
はう	-3208
らむ	-3209
わつ	-3210
んる	-3211
アモ	-3212
カセ	-3213
テト	-3214
ヤセ	-3215
えろ	-3216
さを	-3217
まむ	-3218
クフ	-3219
ミム	-3220
かお	-3221
けな	-3222
とな	-3223
ぬな	-3224
ほあ	-3225
スモ	-3226
ハウ	-3227
ンユ	-3228
しら	-3229
ふこ	-3230
スコ	-3231
ヒト	-3232
フツ	-3233
ミノ	-3234
にそ	-3235
はる	-3236
ルハ	-3237
くゆ	-3238
みの	-3239
めや	-3240
わて	-3241
わろ	-3242
イタ	-3243
ヒネ	-3244
ミモ	-3245
くの	-3246
ミハ	-3247
ラレ	-3248
きせ	-3249
ケセ	-3250
ヘト	-3251
すつ	-3252
めし	-3253
らよ	-3254
カチ	-3255
クヤ	-3256
オコ	-3257
タタ	-3258
さこ	-3259
ゆや	-3260
らろ	-3261
りみ	-3262
カツ	-3263
けみ	-3264
すほ	-3265
ちほ	-3266
ヌセ	-3267
うる	-3268
てよ	-3269
ねむ	-3270
マノ	-3271
えを	-3272
すろ	-3273
らほ	-3274
アハ	-3275
ヨヤ	-3276
ラウ	-3277
くせ	-3278
ねよ	-3279
んゆ	-3280
アム	-3281
スノ	-3282
ヘナ	-3283
マソ	-3284
おひ	-3285
けの	-3286
はも	-3287
ラム	-3288
リヒ	-3289
くみ	-3290
まふ	-3291
ケニ	-3292
サウ	-3293
ルコ	-3294
ワヒ	-3295
いと	-3296
おの	-3297
てふ	-3298
ラホ	-3299
ける	-3300
かめ	-3301
てほ	-3302
アコ	-3303
れち	-3304
サノ	-3305
リテ	-3306
ンネ	-3307
ワヤ	-3308
てむ	-3309
ひし	-3310
アウ	-3311
えよ	-3312
おめ	-3313
きや	-3314
ひの	-3315
モソ	-3316
くや	-3317
はみ	-3318
スソ	-3319
ミコ	-3320
てへ	-3321
りき	-3322
アレ	-3323
ツト	-3324
りる	-3325
シヒ	-3326
マロ	-3327
メケ	-3328
リヘ	-3329
ルウ	-3330
▁今日はな	-3331
つそ	-3332
れむ	-3333
ミエ	-3334
ぬの	-3335
るや	-3336
オウ	-3337
クチ	-3338
クネ	-3339
スイ	-3340
フケ	-3341
めゆ	-3342
カネ	-3343
クヘ	-3344
シニ	-3345
けせ	-3346
サム	-3347
いか	-3348
つへ	-3349
ねふ	-3350
ろふ	-3351
わへ	-3352
オイ	-3353
オノ	-3354
フヤ	-3355
ンヤ	-3356
けも	-3357
ほを	-3358
モロ	-3359
ヨヘ	-3360
ろを	-3361
オホ	-3362
サヲ	-3363
ハホ	-3364
モレ	-3365
ルレ	-3366
おも	-3367
ちむ	-3368
とき	-3369
りや	-3370
ノロ	-3371
マホ	-3372
そ感じ	-3373
はん	-3374
わに	-3375
ケネ	-3376
スヲ	-3377
メヤ	-3378
ヨテ	-3379
ヨナ	-3380
ヨニ	-3381
リヤ	-3382
アエ	-3383
クセ	-3384
ハタ	-3385
ハヲ	-3386
フネ	-3387
モキ	-3388
ンカ	-3389
ンチ	-3390
た感じ	-3391
つに	-3392
ケナ	-3393
サキ	-3394
ユチ	-3395
かみ	-3396
けや	-3397
けん	-3398
ねへ	-3399
るせ	-3400
スホ	-3401
リツ	-3402
リナ	-3403
ワヌ	-3404
おし	-3405
おみ	-3406
けゆ	-3407
れら	-3408
オレ	-3409
オヲ	-3410
ヨカ	-3411
ヨネ	-3412
ラヲ	-3413
うん	-3414
すま	-3415
ちそ	-3416
はき	-3417
よを	-3418
りの	-3419
るも	-3420
クナ	-3421
ノエ	-3422
ハキ	-3423
ミロ	-3424
ント	-3425
コロ	-3426
モエ	-3427
ライ	-3428
ラロ	-3429
ルイ	-3430
とや	-3431
スウ	-3432
ノヲ	-3433
ヒヌ	-3434
ンニ	-3435
おゆ	-3436
とみ	-3437
なの	-3438
ぬき	-3439
ほへ	-3440
りし	-3441
わを	-3442
ヘセ	-3443
モタ	-3444
リネ	-3445
ワテ	-3446
かせ	-3447
はの	-3448
ノイ	-3449
ムロ	-3450
メテ	-3451
ンテ	-3452
ンヌ	-3453
ちを	-3454
ろへ	-3455
わそ	-3456
シト	-3457
フチ	-3458
マイ	-3459
マレ	-3460
ルソ	-3461
らふ	-3462
アイ	-3463
アソ	-3464
クツ	-3465
クテ	-3466
えさ	-3467
えた	-3468
けき	-3469
とも	-3470
なみ	-3471
コタ	-3472
コレ	-3473
サレ	-3474
ハイ	-3475
ミタ	-3476
ヨチ	-3477
つた	-3478
ほそ	-3479
まあ	-3480
まへ	-3481
ろに	-3482
オタ	-3483
スタ	-3484
ムレ	-3485
ユカ	-3486
ユセ	-3487
ラソ	-3488
リセ	-3489
うき	-3490
けく	-3491
つこ	-3492
とめ	-3493
ほこ	-3494
むあ	-3495
スエ	-3496
つあ	-3497
てた	-3498
てに	-3499
なせ	-3500
わあ	-3501
シケ	-3502
フナ	-3503
ミレ	-3504
ムキ	-3505
メチ	-3506
ラエ	-3507
ンヘ	-3508
えあ	-3509
おる	-3510
なる	-3511
ぬし	-3512
まこ	-3513
わこ	-3514
わさ	-3515
ウロ	-3516
サイ	-3517
シヘ	-3518
ミソ	-3519
ユツ	-3520
ルエ	-3521
ワネ	-3522
いん	-3523
えふ	-3524
えへ	-3525
かひ	-3526
ちた	-3527
つふ	-3528
なき	-3529
なひ	-3530
はめ	-3531
れよ	-3532
アヲ	-3533
ウソ	-3534
クヌ	-3535
ムソ	-3536
ヨヌ	-3537
ルノ	-3538
けめ	-3539
つさ	-3540
とる	-3541
ぬめ	-3542
ウヲ	-3543
サホ	-3544
サロ	-3545
ユナ	-3546
ユヘ	-3547
むを	-3548
よさ	-3549
りゆ	-3550
ミイ	-3551
ミヲ	-3552
メツ	-3553
メヌ	-3554
ヨセ	-3555
ンツ	-3556
けし	-3557
すふ	-3558
ねに	-3559
はひ	-3560
りく	-3561
クト	-3562
ユネ	-3563
リト	-3564
うみ	-3565
なめ	-3566
ほに	-3567
ほふ	-3568
まに	-3569
サタ	-3570
フヌ	-3571
ミキ	-3572
ユヌ	-3573
リカ	-3574
ワケ	-3575
ワセ	-3576
ワヘ	-3577
おせ	-3578
ぬや	-3579
のし	-3580
らを	-3581
コヲ	-3582
ヒツ	-3583
ムホ	-3584
すに	-3585
なも	-3586
はし	-3587
んせ	-3588
コエ	-3589
スレ	-3590
ぬく	-3591
ろあ	-3592
ろさ	-3593
オロ	-3594
ハエ	-3595
フヘ	-3596
メセ	-3597
メネ	-3598
おく	-3599
ぬせ	-3600
りめ	-3601
わた	-3602
ハロ	-3603
フセ	-3604
フテ	-3605
ミホ	-3606
モイ	-3607
うゆ	-3608
ぬも	-3609
ほた	-3610
んれ	-3611
ウホ	-3612
ヒセ	-3613
メト	-3614
ルキ	-3615
かく	-3616
すそ	-3617
とゆ	-3618
むこ	-3619
よこ	-3620
オソ	-3621
モヲ	-3622
かき	-3623
かの	-3624
けひ	-3625
との	-3626
まを	-3627
んし	-3628
オキ	-3629
ンナ	-3630
うめ	-3631
かも	-3632
また	-3633
りせ	-3634
アキ	-3635
クカ	-3636
シチ	-3637
モホ	-3638
ヤニ	-3639
ワト	-3640
ワナ	-3641
えそ	-3642
えに	-3643
おれ	-3644
すへ	-3645
ねた	-3646
はゆ	-3647
ノタ	-3648
メナ	-3649
メニ	-3650
ヤト	-3651
ヤヌ	-3652
ユニ	-3653
ヨツ	-3654
リヌ	-3655
ルヲ	-3656
ワチ	-3657
ちあ	-3658
ちへ	-3659
てを	-3660
よふ	-3661
らに	-3662
らへ	-3663
クケ	-3664
クニ	-3665
シセ	-3666
シツ	-3667
ヒチ	-3668
フト	-3669
はく	-3670
アホ	-3671
コソ	-3672
シカ	-3673
メヘ	-3674
ラキ	-3675
えこ	-3676
かや	-3677
ちさ	-3678
ちふ	-3679
とせ	-3680
ぬゆ	-3681
ねこ	-3682
みせ	-3683
らた	-3684
らつ	-3685
ヒケ	-3686
むそ	-3687
よそ	-3688
スキ	-3689
ヒナ	-3690
ヤネ	-3691
うも	-3692
おき	-3693
すあ	-3694
すを	-3695
ぬる	-3696
みも	-3697
よあ	-3698
りれ	-3699
ろそ	-3700
ウイ	-3701
ウキ	-3702
シテ	-3703
シナ	-3704
ヨト	-3705
すた	-3706
なく	-3707
ねあ	-3708
わふ	-3709
アタ	-3710
オエ	-3711
ムタ	-3712
ユト	-3713
てそ	-3714
はせ	-3715
まさ	-3716
りも	-3717
シヌ	-3718
ハレ	-3719
ムエ	-3720
てあ	-3721
むさ	-3722
スロ	-3723
フカ	-3724
ヤテ	-3725
ルタ	-3726
ろた	-3727
シネ	-3728
ヒニ	-3729
メカ	-3730
ヤツ	-3731
リチ	-3732
ルロ	-3733
かし	-3734
むふ	-3735
ヒヘ	-3736
えほ	-3737
てさ	-3738
なし	-3739
ひれ	-3740
らこ	-3741
リニ	-3742
ンケ	-3743
つを	-3744
んも	-3745
ウエ	-3746
フニ	-3747
んひ	-3748
コキ	-3749
マタ	-3750
かる	-3751
むに	-3752
らさ	-3753
ルホ	-3754
いや	-3755
うや	-3756
アロ	-3757
サソ	-3758
マキ	-3759
うの	-3760
すさ	-3761
ちに	-3762
まそ	-3763
よへ	-3764
マラ	-3765
ムヲ	-3766
けれ	-3767
てこ	-3768
とひ	-3769
みれ	-3770
よた	-3771
うく	-3772
りひ	-3773
▁囹	-3774
ちこ	-3775
ねさ	-3776
らそ	-3777
カナ	-3778
マエ	-3779
ンセ	-3780
▁姦	-3781
▁萄	-3782
なゆ	-3783
めれ	-3784
るし	-3785
ノホ	-3786
▁Λ	-3787
▁┿	-3788
▁芍	-3789
▁鯰	-3790
いき	-3791
はれ	-3792
▁隷	-3793
▁埠	-3794
▁椄	-3795
▁癧	-3796
▁詼	-3797
かゆ	-3798
▁廓	-3799
▁慥	-3800
▁挽	-3801
▁癩	-3802
▁耐	-3803
▁襁	-3804
▁蹂	-3805
うひ	-3806
ねそ	-3807
はや	-3808
んの	-3809
マヲ	-3810
▁撲	-3811
▁模	-3812
▁苻	-3813
▁諱	-3814
サエ	-3815
ハソ	-3816
ラタ	-3817
▁─	-3818
▁借	-3819
▁副	-3820
▁屶	-3821
▁岫	-3822
▁并	-3823
▁社	-3824
▁纖	-3825
▁遣	-3826
ケテ	-3827
▁尭	-3828
▁屏	-3829
▁庠	-3830
▁椁	-3831
▁浹	-3832
▁犀	-3833
▁皖	-3834
▁禀	-3835
▁郢	-3836
▁醇	-3837
▁∪	-3838
▁・	-3839
▁疣	-3840
▁紊	-3841
▁裴	-3842
▁遷	-3843
▁銕	-3844
▁錘	-3845
うし	-3846
とし	-3847
オモ	-3848
ワツ	-3849
ワニ	-3850
▁引	-3851
▁揀	-3852
▁橿	-3853
▁淇	-3854
▁軒	-3855
すこ	-3856
とく	-3857
ねを	-3858
▁で	-3859
▁丹	-3860
▁山	-3861
▁廚	-3862
▁枩	-3863
▁淮	-3864
▁瓠	-3865
ぬれ	-3866
▁∫∫	-3867
▁}	-3868
▁呎	-3869
▁廱	-3870
▁架	-3871
▁柘	-3872
▁機	-3873
▁眼	-3874
▁腸	-3875
▁膕	-3876
▁葉	-3877
▁袖	-3878
▁轢	-3879
▁頭	-3880
うせ	-3881
おや	-3882
▁峰	-3883
▁弾	-3884
▁拔	-3885
▁測	-3886
▁灼	-3887
▁皃	-3888
▁粋	-3889
▁翰	-3890
▁補	-3891
▁親	-3892
▁講	-3893
▁赧	-3894
▁躓	-3895
▁醢	-3896
▁釉	-3897
▁闇	-3898
▁麓	-3899
いひ	-3900
▁っ	-3901
▁恭	-3902
▁桁	-3903
▁棊	-3904
▁窓	-3905
▁紂	-3906
▁色	-3907
▁鶏	-3908
とれ	-3909
▁9	-3910
▁供	-3911
▁吝	-3912
▁椋	-3913
▁浜	-3914
▁籐	-3915
▁莨	-3916
▁薔	-3917
▁誥	-3918
▁輜	-3919
▁釿	-3920
きれ	-3921
▁÷	-3922
▁師	-3923
▁愼	-3924
▁抻	-3925
▁指	-3926
▁撻	-3927
▁璢	-3928
▁酊	-3929
▁鱇	-3930
いめ	-3931
▁∀	-3932
▁仄	-3933
▁厦	-3934
▁廛	-3935
▁懺	-3936
▁掃	-3937
▁斈	-3938
▁日	-3939
▁曽	-3940
▁栃	-3941
▁栞	-3942
▁殲	-3943
▁痒	-3944
▁翫	-3945
▁脣	-3946
▁蚩	-3947
▁襴	-3948
▁詮	-3949
▁錬	-3950
▁魎	-3951
▁魯	-3952
▁鷓	-3953
▁齦	-3954
るれ	-3955
アラ	-3956
▁仰	-3957
▁垠	-3958
▁姉	-3959
▁嶝	-3960
▁悚	-3961
▁想	-3962
▁捷	-3963
▁档	-3964
▁梟	-3965
▁濆	-3966
▁濫	-3967
▁篶	-3968
▁籠	-3969
▁綾	-3970
▁老	-3971
▁蒟	-3972
▁謁	-3973
▁財	-3974
▁蹌	-3975
▁餉	-3976
▁髫	-3977
いせ	-3978
▁Х	-3979
▁й	-3980
▁候	-3981
▁催	-3982
▁凋	-3983
▁利	-3984
▁吉	-3985
▁咎	-3986
▁嗜	-3987
▁地	-3988
▁彪	-3989
▁戞	-3990
▁抑	-3991
▁曙	-3992
▁曾	-3993
▁汾	-3994
▁畏	-3995
▁畔	-3996
▁砿	-3997
▁箙	-3998
▁籀	-3999
▁肘	-4000
▁臑	-4001
▁苅	-4002
▁蜍	-4003
▁輳	-4004
▁配	-4005
▁頴	-4006
んや	-4007
▁ど	-4008
▁乃	-4009
▁係	-4010
▁俘	-4011
▁俺	-4012
▁僚	-4013
▁允	-4014
▁圄	-4015
▁坿	-4016
▁奐	-4017
▁女	-4018
▁奸	-4019
▁悁	-4020
▁扼	-4021
▁撩	-4022
▁敲	-4023
▁殳	-4024
▁為	-4025
▁燃	-4026
▁狂	-4027
▁珎	-4028
▁穗	-4029
▁箘	-4030
▁糖	-4031
▁肩	-4032
▁芯	-4033
▁蜥	-4034
▁詐	-4035
▁諭	-4036
▁針	-4037
▁閹	-4038
▁非	-4039
▁餐	-4040
▁髟	-4041
▁鳩	-4042
▁鴃	-4043
いは	-4044
なや	-4045
もれ	-4046
▁况	-4047
▁割	-4048
▁啻	-4049
▁埀	-4050
▁幸	-4051
▁擂	-4052
▁欅	-4053
▁睾	-4054
▁脛	-4055
▁膓	-4056
▁舫	-4057
▁薙	-4058
▁蠑	-4059
▁誚	-4060
▁賎	-4061
▁鈔	-4062
▁鏥	-4063
▁閼	-4064
▁靫	-4065
▁鮖	-4066
うれ	-4067
▁偲	-4068
▁囈	-4069
▁太	-4070
▁拑	-4071
▁梠	-4072
▁浮	-4073
▁渉	-4074
▁箋	-4075
▁籵	-4076
▁葯	-4077
▁蛍	-4078
▁蝉	-4079
▁蠢	-4080
▁袗	-4081
▁裔	-4082
▁褫	-4083
▁谷	-4084
▁軼	-4085
▁靜	-4086
▁頓	-4087
▁鴎	-4088
いお	-4089
▁B	-4090
▁τ	-4091
▁傑	-4092
▁儘	-4093
▁叛	-4094
▁噪	-4095
▁塩	-4096
▁墜	-4097
▁壤	-4098
▁奇	-4099
▁官	-4100
▁怠	-4101
▁恃	-4102
▁戉	-4103
▁旃	-4104
▁汀	-4105
▁洫	-4106
▁消	-4107
▁湫	-4108
▁燈	-4109
▁町	-4110
▁痞	-4111
▁癇	-4112
▁絮	-4113
▁緘	-4114
▁纏	-4115
▁聘	-4116
▁薩	-4117
▁褌	-4118
▁豊	-4119
▁貧	-4120
▁賻	-4121
▁躄	-4122
▁軅	-4123
▁逝	-4124
▁鍠	-4125
▁韭	-4126
▁鬆	-4127
▁魃	-4128
▁齧	-4129
いく	-4130
らあ	-4131
▁b	-4132
▁Φ	-4133
▁Ψ	-4134
▁ω	-4135
▁┨	-4136
▁◯	-4137
▁介	-4138
▁从	-4139
▁俎	-4140
▁倖	-4141
▁嗄	-4142
▁嘖	-4143
▁器	-4144
▁寶	-4145
▁復	-4146
▁敦	-4147
▁暴	-4148
▁柞	-4149
▁洽	-4150
▁燵	-4151
▁燿	-4152
▁牌	-4153
▁猷	-4154
▁痢	-4155
▁耒	-4156
▁聊	-4157
▁脹	-4158
▁荼	-4159
▁蝋	-4160
▁襦	-4161
▁襾	-4162
▁認	-4163
▁諄	-4164
▁謹	-4165
▁賊	-4166
▁贅	-4167
▁跚	-4168
▁蹊	-4169
▁載	-4170
▁鍾	-4171
▁餌	-4172
▁騷	-4173
▁Τ	-4174
▁二	-4175
▁亶	-4176
▁伸	-4177
▁冦	-4178
▁医	-4179
▁咒	-4180
▁唹	-4181
▁啄	-4182
▁囁	-4183
▁埜	-4184
▁峨	-4185
▁悶	-4186
▁擁	-4187
▁期	-4188
▁枷	-4189
▁檠	-4190
▁溷	-4191
▁猯	-4192
▁筌	-4193
▁筏	-4194
▁経	-4195
▁聒	-4196
▁聞	-4197
▁致	-4198
▁蒭	-4199
▁虞	-4200
▁蟷	-4201
▁蠱	-4202
▁貲	-4203
▁贋	-4204
▁辭	-4205
▁重	-4206
▁銀	-4207
▁集	-4208
▁雇	-4209
▁霏	-4210
▁餾	-4211
▁騁	-4212
▁鰆	-4213
▁鴕	-4214
▁麝	-4215
いけ	-4216
よ感じ	-4217
▁7	-4218
▁>	-4219
▁λ	-4220
▁Ь	-4221
▁丈	-4222
▁傀	-4223
▁兮	-4224
▁冥	-4225
▁姆	-4226
▁寤	-4227
▁岔	-4228
▁弛	-4229
▁恬	-4230
▁扉	-4231
▁旗	-4232
▁杆	-4233
▁淬	-4234
▁玻	-4235
▁疚	-4236
▁秕	-4237
▁窄	-4238
▁竃	-4239
▁緬	-4240
▁羈	-4241
▁習	-4242
▁荏	-4243
▁蘋	-4244
▁蛩	-4245
▁衢	-4246
▁説	-4247
▁通	-4248
▁鈷	-4249
▁鑞	-4250
▁餤	-4251
▁骭	-4252
いり	-4253
▁∠	-4254
▁▼	-4255
▁〆	-4256
▁ざ	-4257
▁嚶	-4258
▁嚼	-4259
▁囲	-4260
▁娘	-4261
▁嬢	-4262
▁寒	-4263
▁屋	-4264
▁崑	-4265
▁幽	-4266
▁批	-4267
▁支	-4268
▁朸	-4269
▁棍	-4270
▁概	-4271
▁樫	-4272
▁櫓	-4273
▁歓	-4274
▁滓	-4275
▁滿	-4276
▁瀬	-4277
▁爼	-4278
▁琵	-4279
▁空	-4280
▁簒	-4281
▁糘	-4282
▁舊	-4283
▁萪	-4284
▁蒐	-4285
▁袂	-4286
▁詣	-4287
▁諌	-4288
▁運	-4289
▁陬	-4290
▁雫	-4291
▁飄	-4292
▁∂	-4293
▁┌	-4294
▁乎	-4295
▁凭	-4296
▁剩	-4297
▁吽	-4298
▁囂	-4299
▁圓	-4300
▁容	-4301
▁寸	-4302
▁布	-4303
▁廾	-4304
▁意	-4305
▁挾	-4306
▁擢	-4307
▁昇	-4308
▁暼	-4309
▁栲	-4310
▁梁	-4311
▁梃	-4312
▁殄	-4313
▁泯	-4314
▁煕	-4315
▁猛	-4316
▁琶	-4317
▁璃	-4318
▁盗	-4319
▁睦	-4320
▁矍	-4321
▁碗	-4322
▁碼	-4323
▁科	-4324
▁箇	-4325
▁箒	-4326
▁篷	-4327
▁絡	-4328
▁繭	-4329
▁腓	-4330
▁苙	-4331
▁荀	-4332
▁荊	-4333
▁荷	-4334
▁蓿	-4335
▁衡	-4336
▁袵	-4337
▁裃	-4338
▁覽	-4339
▁謂	-4340
▁讎	-4341
▁輓	-4342
▁逖	-4343
▁霧	-4344
▁鞄	-4345
▁鞨	-4346
▁韋	-4347
▁馭	-4348
▁驩	-4349
▁魁	-4350
▁鴆	-4351
▁鷆	-4352
▁‘	-4353
▁ぎ	-4354
▁伊	-4355
▁優	-4356
▁其	-4357
▁冴	-4358
▁動	-4359
▁匍	-4360
▁咄	-4361
▁哥	-4362
▁喬	-4363
▁外	-4364
▁奠	-4365
▁嬪	-4366
▁孫	-4367
▁守	-4368
▁巓	-4369
▁弖	-4370
▁慶	-4371
▁揆	-4372
▁插	-4373
▁新	-4374
▁旁	-4375
▁晒	-4376
▁晟	-4377
▁暎	-4378
▁案	-4379
▁樸	-4380
▁欲	-4381
▁淕	-4382
▁淹	-4383
▁溏	-4384
▁漁	-4385
▁澀	-4386
▁濱	-4387
▁燗	-4388
▁爬	-4389
▁牘	-4390
▁犂	-4391
▁獣	-4392
▁瓮	-4393
▁甥	-4394
▁疔	-4395
▁磧	-4396
▁筅	-4397
▁糠	-4398
▁絢	-4399
▁翕	-4400
▁莫	-4401
▁蘗	-4402
▁蘯	-4403
▁蜈	-4404
▁蠕	-4405
▁裡	-4406
▁褝	-4407
▁覘	-4408
▁訓	-4409
▁賁	-4410
▁釖	-4411
▁鉱	-4412
▁銭	-4413
▁錢	-4414
▁閣	-4415
▁障	-4416
▁馗	-4417
▁鰾	-4418
いな	-4419
エだけど頑張る	-4420
▁Ο	-4421
▁в	-4422
▁∨	-4423
▁∴	-4424
▁ぅ	-4425
▁僊	-4426
▁僻	-4427
▁冶	-4428
▁勾	-4429
▁叡	-4430
▁垰	-4431
▁城	-4432
▁墅	-4433
▁墫	-4434
▁夷	-4435
▁姚	-4436
▁寵	-4437
▁帳	-4438
▁弼	-4439
▁快	-4440
▁息	-4441
▁擴	-4442
▁攤	-4443
▁断	-4444
▁更	-4445
▁柮	-4446
▁汝	-4447
▁浅	-4448
▁涅	-4449
▁溌	-4450
▁溢	-4451
▁澁	-4452
▁烹	-4453
▁牀	-4454
▁猪	-4455
▁琅	-4456
▁畠	-4457
▁異	-4458
▁盻	-4459
▁看	-4460
▁秋	-4461
▁穐	-4462
▁竒	-4463
▁笶	-4464
▁粛	-4465
▁精	-4466
▁絹	-4467
▁緻	-4468
▁繝	-4469
▁罟	-4470
▁罷	-4471
▁翁	-4472
▁若	-4473
▁苴	-4474
▁蕉	-4475
▁薬	-4476
▁螻	-4477
▁訟	-4478
▁訣	-4479
▁誣	-4480
▁諜	-4481
▁謫	-4482
▁譫	-4483
▁貽	-4484
▁躬	-4485
▁軌	-4486
▁輪	-4487
▁釐	-4488
▁鈎	-4489
▁鉐	-4490
▁顔	-4491
▁c	-4492
▁Й	-4493
▁ぐ	-4494
▁べ	-4495
▁ゐ	-4496
▁ジ	-4497
▁ド	-4498
▁仟	-4499
▁傾	-4500
▁僭	-4501
▁儉	-4502
▁博	-4503
▁召	-4504
▁呻	-4505
▁咼	-4506
▁嚀	-4507
▁埴	-4508
▁堕	-4509
▁奪	-4510
▁婉	-4511
▁婢	-4512
▁富	-4513
▁店	-4514
▁延	-4515
▁待	-4516
▁怡	-4517
▁懌	-4518
▁戦	-4519
▁挙	-4520
▁挺	-4521
▁掩	-4522
▁撥	-4523
▁攪	-4524
▁敝	-4525
▁斡	-4526
▁旡	-4527
▁既	-4528
▁映	-4529
▁晏	-4530
▁暑	-4531
▁曚	-4532
▁林	-4533
▁桑	-4534
▁樗	-4535
▁欝	-4536
▁此	-4537
▁洶	-4538
▁涙	-4539
▁漾	-4540
▁狷	-4541
▁疵	-4542
▁瘉	-4543
▁睫	-4544
▁祁	-4545
▁神	-4546
▁祟	-4547
▁稠	-4548
▁竈	-4549
▁簣	-4550
▁簫	-4551
▁粤	-4552
▁絃	-4553
▁組	-4554
▁結	-4555
▁繿	-4556
▁罨	-4557
▁翔	-4558
▁脇	-4559
▁興	-4560
▁艤	-4561
▁蒼	-4562
▁藹	-4563
▁蝪	-4564
▁蟯	-4565
▁蠏	-4566
▁血	-4567
▁覺	-4568
▁試	-4569
▁讐	-4570
▁跏	-4571
▁蹕	-4572
▁躔	-4573
▁遭	-4574
▁鑓	-4575
▁霖	-4576
▁霜	-4577
▁馳	-4578
▁鮑	-4579
▁鶤	-4580
▁麸	-4581
いみ	-4582
▁г	-4583
▁※	-4584
▁├	-4585
▁ズ	-4586
▁万	-4587
▁佑	-4588
▁侠	-4589
▁俣	-4590
▁修	-4591
▁偃	-4592
▁僖	-4593
▁儷	-4594
▁兌	-4595
▁勦	-4596
▁卆	-4597
▁咾	-4598
▁哲	-4599
▁喇	-4600
▁嗾	-4601
▁嘲	-4602
▁塒	-4603
▁孳	-4604
▁宮	-4605
▁寂	-4606
▁寅	-4607
▁導	-4608
▁徃	-4609
▁懸	-4610
▁房	-4611
▁拝	-4612
▁振	-4613
▁擱	-4614
▁斉	-4615
▁旱	-4616
▁有	-4617
▁枅	-4618
▁桃	-4619
▁棟	-4620
▁欠	-4621
▁次	-4622
▁歟	-4623
▁毅	-4624
▁泳	-4625
▁海	-4626
▁滂	-4627
▁澹	-4628
▁瀟	-4629
▁獅	-4630
▁獺	-4631
▁甃	-4632
▁瘠	-4633
▁盞	-4634
▁瞭	-4635
▁磬	-4636
▁礑	-4637
▁箚	-4638
▁籾	-4639
▁粭	-4640
▁綽	-4641
▁編	-4642
▁纂	-4643
▁臚	-4644
▁船	-4645
▁莊	-4646
▁薺	-4647
▁衄	-4648
▁記	-4649
▁誅	-4650
▁責	-4651
▁貳	-4652
▁賀	-4653
▁賄	-4654
▁転	-4655
▁辰	-4656
▁雍	-4657
▁霓	-4658
▁韓	-4659
▁鰉	-4660
▁鹿	-4661
▁齷	-4662
タだけど頑張る	-4663
▁Ξ	-4664
▁И	-4665
▁ゴ	-4666
▁便	-4667
▁倍	-4668
▁傚	-4669
▁僣	-4670
▁兄	-4671
▁兇	-4672
▁光	-4673
▁兜	-4674
▁冊	-4675
▁冲	-4676
▁决	-4677
▁劒	-4678
▁匸	-4679
▁卜	-4680
▁咀	-4681
▁哉	-4682
▁問	-4683
▁喋	-4684
▁嚥	-4685
▁堡	-4686
▁壇	-4687
▁壟	-4688
▁奬	-4689
▁孛	-4690
▁孤	-4691
▁往	-4692
▁怕	-4693
▁急	-4694
▁悳	-4695
▁摸	-4696
▁擔	-4697
▁斷	-4698
▁楳	-4699
▁樒	-4700
▁欧	-4701
▁毬	-4702
▁沼	-4703
▁涕	-4704
▁澑	-4705
▁澡	-4706
▁烙	-4707
▁狃	-4708
▁瑟	-4709
▁生	-4710
▁畤	-4711
▁疎	-4712
▁癢	-4713
▁碕	-4714
▁磑	-4715
▁磽	-4716
▁祓	-4717
▁祚	-4718
▁福	-4719
▁箪	-4720
▁篋	-4721
▁糊	-4722
▁紋	-4723
▁紵	-4724
▁纈	-4725
▁翳	-4726
▁肭	-4727
▁般	-4728
▁葦	-4729
▁蔔	-4730
▁薈	-4731
▁蛯	-4732
▁蝟	-4733
▁蝴	-4734
▁蟐	-4735
▁袱	-4736
▁誄	-4737
▁諛	-4738
▁踈	-4739
▁逼	-4740
▁違	-4741
▁遽	-4742
▁邁	-4743
▁酥	-4744
▁鑵	-4745
▁陝	-4746
▁陰	-4747
▁霸	-4748
▁須	-4749
▁駒	-4750
▁鬥	-4751
▁鯡	-4752
▁麩	-4753
▁黄	-4754
▁y	-4755
▁Χ	-4756
▁≠	-4757
▁《	-4758
▁だ	-4759
▁ピ	-4760
▁佰	-4761
▁佶	-4762
▁侘	-4763
▁刃	-4764
▁匠	-4765
▁受	-4766
▁垓	-4767
▁塗	-4768
▁夥	-4769
▁奎	-4770
▁妹	-4771
▁岱	-4772
▁嶂	-4773
▁廖	-4774
▁形	-4775
▁彼	-4776
▁忽	-4777
▁戚	-4778
▁扣	-4779
▁捨	-4780
▁摂	-4781
▁晴	-4782
▁暮	-4783
▁杠	-4784
▁桙	-4785
▁椣	-4786
▁樹	-4787
▁殪	-4788
▁汁	-4789
▁洞	-4790
▁潼	-4791
▁澪	-4792
▁濾	-4793
▁燦	-4794
▁牆	-4795
▁甄	-4796
▁甍	-4797
▁略	-4798
▁畷	-4799
▁痂	-4800
▁皹	-4801
▁盛	-4802
▁瞥	-4803
▁矗	-4804
▁禦	-4805
▁禧	-4806
▁秀	-4807
▁窟	-4808
▁粉	-4809
▁粨	-4810
▁織	-4811
▁翼	-4812
▁腦	-4813
▁臍	-4814
▁芒	-4815
▁茫	-4816
▁萵	-4817
▁著	-4818
▁覃	-4819
▁訐	-4820
▁訛	-4821
▁訪	-4822
▁躋	-4823
▁迸	-4824
▁醋	-4825
▁鈑	-4826
▁閠	-4827
▁震	-4828
▁驗	-4829
▁鮗	-4830
いし	-4831
いぬ	-4832
▁Ν	-4833
▁К	-4834
▁у	-4835
▁┼	-4836
▁ゞ	-4837
▁ザ	-4838
▁プ	-4839
▁伯	-4840
▁個	-4841
▁倶	-4842
▁元	-4843
▁六	-4844
▁冑	-4845
▁刎	-4846
▁勤	-4847
▁勳	-4848
▁吏	-4849
▁呑	-4850
▁喚	-4851
▁喟	-4852
▁囮	-4853
▁塵	-4854
▁奧	-4855
▁岡	-4856
▁帰	-4857
▁幃	-4858
▁幟	-4859
▁庇	-4860
▁廡	-4861
▁彫	-4862
▁徑	-4863
▁忘	-4864
▁怩	-4865
▁惚	-4866
▁慢	-4867
▁捫	-4868
▁掴	-4869
▁播	-4870
▁攻	-4871
▁敏	-4872
▁木	-4873
▁杓	-4874
▁桶	-4875
▁棕	-4876
▁椅	-4877
▁椪	-4878
▁楔	-4879
▁榧	-4880
▁槁	-4881
▁櫟	-4882
▁欹	-4883
▁氤	-4884
▁洗	-4885
▁渚	-4886
▁滯	-4887
▁漠	-4888
▁燒	-4889
▁狎	-4890
▁猥	-4891
▁瑣	-4892
▁瑤	-4893
▁璧	-4894
▁産	-4895
▁盪	-4896
▁目	-4897
▁省	-4898
▁着	-4899
▁礫	-4900
▁禿	-4901
▁稽	-4902
▁籌	-4903
▁粒	-4904
▁純	-4905
▁紫	-4906
▁繦	-4907
▁翆	-4908
▁耻	-4909
▁腹	-4910
▁茹	-4911
▁荐	-4912
▁蕾	-4913
▁衷	-4914
▁襟	-4915
▁覊	-4916
▁詬	-4917
▁謐	-4918
▁讖	-4919
▁逅	-4920
▁遏	-4921
▁酳	-4922
▁醉	-4923
▁醤	-4924
▁鉅	-4925
▁阪	-4926
▁露	-4927
▁靡	-4928
▁韲	-4929
▁願	-4930
▁馨	-4931
▁髭	-4932
▁鯱	-4933
▁鷲	-4934
▁麭	-4935
▁默	-4936
▁<	-4937
▁≡	-4938
▁予	-4939
▁休	-4940
▁伽	-4941
▁俥	-4942
▁僧	-4943
▁儿	-4944
▁刑	-4945
▁剪	-4946
▁區	-4947
▁周	-4948
▁圷	-4949
▁圻	-4950
▁坏	-4951
▁培	-4952
▁壮	-4953
▁奏	-4954
▁嬰	-4955
▁尋	-4956
▁嶷	-4957
▁帚	-4958
▁幾	-4959
▁廼	-4960
▁弭	-4961
▁徴	-4962
▁悉	-4963
▁慘	-4964
▁憤	-4965
▁戰	-4966
▁擺	-4967
▁昃	-4968
▁晧	-4969
▁朧	-4970
▁柴	-4971
▁栩	-4972
▁棚	-4973
▁歹	-4974
▁洩	-4975
▁浸	-4976
▁潅	-4977
▁犯	-4978
▁狛	-4979
▁珠	-4980
▁皸	-4981
▁瞑	-4982
▁礁	-4983
▁税	-4984
▁簗	-4985
▁籔	-4986
▁經	-4987
▁耘	-4988
▁耨	-4989
▁舉	-4990
▁菟	-4991
▁萠	-4992
▁萬	-4993
▁葺	-4994
▁蒻	-4995
▁蓆	-4996
▁蚯	-4997
▁蝗	-4998
▁蝦	-4999
▁衣	-5000
▁褐	-5001
▁褪	-5002
▁襪	-5003
▁見	-5004
▁討	-5005
▁變	-5006
▁豚	-5007
▁貿	-5008
▁躪	-5009
▁軣	-5010
▁造	-5011
▁道	-5012
▁遞	-5013
▁銹	-5014
▁鍖	-5015
▁陶	-5016
▁静	-5017
▁順	-5018
▁顧	-5019
▁養	-5020
▁馬	-5021
▁鬨	-5022
▁鸚	-5023
▁麋	-5024
いの	-5025
▁%	-5026
▁p	-5027
▁|	-5028
▁θ	-5029
▁φ	-5030
▁А	-5031
▁З	-5032
▁┃	-5033
▁デ	-5034
▁乏	-5035
▁代	-5036
▁余	-5037
▁侮	-5038
▁促	-5039
▁俑	-5040
▁倆	-5041
▁偸	-5042
▁匈	-5043
▁午	-5044
▁危	-5045
▁咐	-5046
▁囎	-5047
▁国	-5048
▁堂	-5049
▁媛	-5050
▁嫉	-5051
▁孚	-5052
▁學	-5053
▁宰	-5054
▁専	-5055
▁屁	-5056
▁屈	-5057
▁庭	-5058
▁彁	-5059
▁恋	-5060
▁恷	-5061
▁悠	-5062
▁悩	-5063
▁戈	-5064
▁扞	-5065
▁拆	-5066
▁拏	-5067
▁捻	-5068
▁改	-5069
▁昨	-5070
▁暁	-5071
▁暇	-5072
▁杷	-5073
▁栢	-5074
▁榿	-5075
▁橘	-5076
▁殿	-5077
▁氛	-5078
▁汳	-5079
▁沽	-5080
▁溂	-5081
▁漱	-5082
▁澆	-5083
▁甌	-5084
▁畳	-5085
▁癖	-5086
▁砕	-5087
▁秒	-5088
▁究	-5089
▁筥	-5090
▁筰	-5091
▁糜	-5092
▁紘	-5093
▁素	-5094
▁綸	-5095
▁羞	-5096
▁翠	-5097
▁者	-5098
▁臼	-5099
▁舌	-5100
▁艶	-5101
▁菊	-5102
▁蘓	-5103
▁術	-5104
▁衲	-5105
▁襞	-5106
▁襠	-5107
▁觧	-5108
▁訖	-5109
▁超	-5110
▁較	-5111
▁轎	-5112
▁轤	-5113
▁遠	-5114
▁鐐	-5115
▁鐵	-5116
▁除	-5117
▁難	-5118
▁霹	-5119
▁風	-5120
▁鯔	-5121
▁鯲	-5122
▁鷙	-5123
▁齢	-5124
▁齶	-5125
なれ	-5126
▁0	-5127
▁R	-5128
▁v	-5129
▁Ω	-5130
▁“	-5131
▁ぴ	-5132
▁ペ	-5133
▁ポ	-5134
▁个	-5135
▁俐	-5136
▁俸	-5137
▁写	-5138
▁冩	-5139
▁制	-5140
▁厄	-5141
▁喃	-5142
▁嗟	-5143
▁垈	-5144
▁埣	-5145
▁堋	-5146
▁堤	-5147
▁塑	-5148
▁壼	-5149
▁妙	-5150
▁妨	-5151
▁婀	-5152
▁嫐	-5153
▁嫩	-5154
▁嬉	-5155
▁少	-5156
▁尹	-5157
▁屡	-5158
▁府	-5159
▁彌	-5160
▁彭	-5161
▁徭	-5162
▁悴	-5163
▁慟	-5164
▁扛	-5165
▁抛	-5166
▁拓	-5167
▁捜	-5168
▁探	-5169
▁擲	-5170
▁擽	-5171
▁斤	-5172
▁斯	-5173
▁於	-5174
▁服	-5175
▁枠	-5176
▁栂	-5177
▁栴	-5178
▁桴	-5179
▁梺	-5180
▁樶	-5181
▁歛	-5182
▁殞	-5183
▁汞	-5184
▁沁	-5185
▁沍	-5186
▁浬	-5187
▁涸	-5188
▁淘	-5189
▁満	-5190
▁滷	-5191
▁濘	-5192
▁瀦	-5193
▁炊	-5194
▁烱	-5195
▁煮	-5196
▁疥	-5197
▁皈	-5198
▁盥	-5199
▁眉	-5200
▁碵	-5201
▁祠	-5202
▁禍	-5203
▁窘	-5204
▁筍	-5205
▁篥	-5206
▁絣	-5207
▁舘	-5208
▁苛	-5209
▁莱	-5210
▁葢	-5211
▁蒡	-5212
▁蝎	-5213
▁襷	-5214
▁解	-5215
▁訶	-5216
▁諧	-5217
▁謌	-5218
▁貮	-5219
▁轄	-5220
▁遥	-5221
▁采	-5222
▁鈞	-5223
▁錮	-5224
▁鍮	-5225
▁閑	-5226
▁闔	-5227
▁阨	-5228
▁險	-5229
▁霄	-5230
▁鞣	-5231
▁飼	-5232
▁鴛	-5233
▁麁	-5234
▁麌	-5235
▁齏	-5236
▁龠	-5237
いれ	-5238
ラだけど頑張る	-5239
▁F	-5240
▁¥	-5241
▁Κ	-5242
▁χ	-5243
▁Ч	-5244
▁р	-5245
▁‐	-5246
▁ヂ	-5247
▁僕	-5248
▁儒	-5249
▁儲	-5250
▁准	-5251
▁劔	-5252
▁劬	-5253
▁卒	-5254
▁卦	-5255
▁叱	-5256
▁吩	-5257
▁啝	-5258
▁坐	-5259
▁堽	-5260
▁塙	-5261
▁壁	-5262
▁壅	-5263
▁夘	-5264
▁嫌	-5265
▁寥	-5266
▁嶼	-5267
▁席	-5268
▁廁	-5269
▁弌	-5270
▁張	-5271
▁微	-5272
▁悍	-5273
▁抓	-5274
▁挿	-5275
▁排	-5276
▁摯	-5277
▁撚	-5278
▁曩	-5279
▁杁	-5280
▁梵	-5281
▁棣	-5282
▁椹	-5283
▁椽	-5284
▁権	-5285
▁橦	-5286
▁款	-5287
▁歌	-5288
▁歩	-5289
▁歸	-5290
▁殴	-5291
▁永	-5292
▁洛	-5293
▁淫	-5294
▁漢	-5295
▁澤	-5296
▁灘	-5297
▁熹	-5298
▁猜	-5299
▁獎	-5300
▁珊	-5301
▁珸	-5302
▁疋	-5303
▁疝	-5304
▁皮	-5305
▁盍	-5306
▁矇	-5307
▁竦	-5308
▁笠	-5309
▁篏	-5310
▁糺	-5311
▁総	-5312
▁縉	-5313
▁罎	-5314
▁羌	-5315
▁耿	-5316
▁肅	-5317
▁肪	-5318
▁脩	-5319
▁腋	-5320
▁膣	-5321
▁舵	-5322
▁蔑	-5323
▁薯	-5324
▁街	-5325
▁観	-5326
▁觀	-5327
▁觜	-5328
▁豕	-5329
▁跛	-5330
▁跡	-5331
▁透	-5332
▁途	-5333
▁適	-5334
▁都	-5335
▁釟	-5336
▁釵	-5337
▁鉈	-5338
▁闌	-5339
▁雌	-5340
▁預	-5341
▁頑	-5342
▁頗	-5343
▁駐	-5344
▁鬮	-5345
▁鯑	-5346
▁鰲	-5347
▁鱚	-5348
▁麒	-5349
▁齬	-5350
▁!	-5351
▁Q	-5352
▁f	-5353
▁х	-5354
▁∇	-5355
▁ブ	-5356
▁丁	-5357
▁亨	-5358
▁住	-5359
▁侃	-5360
▁俊	-5361
▁們	-5362
▁價	-5363
▁凵	-5364
▁勉	-5365
▁咆	-5366
▁唄	-5367
▁埆	-5368
▁央	-5369
▁妖	-5370
▁寃	-5371
▁尸	-5372
▁尼	-5373
▁徒	-5374
▁慰	-5375
▁慾	-5376
▁懋	-5377
▁拌	-5378
▁拘	-5379
▁捉	-5380
▁掉	-5381
▁掵	-5382
▁掾	-5383
▁搦	-5384
▁攅	-5385
▁斧	-5386
▁旒	-5387
▁旙	-5388
▁曵	-5389
▁枯	-5390
▁桔	-5391
▁梧	-5392
▁梨	-5393
▁椴	-5394
▁業	-5395
▁槨	-5396
▁橸	-5397
▁歎	-5398
▁沈	-5399
▁治	-5400
▁派	-5401
▁涜	-5402
▁渙	-5403
▁潤	-5404
▁濂	-5405
▁煌	-5406
▁熾	-5407
▁狢	-5408
▁狭	-5409
▁獄	-5410
▁率	-5411
▁璋	-5412
▁瓢	-5413
▁瓸	-5414
▁留	-5415
▁睹	-5416
▁砠	-5417
▁礦	-5418
▁祀	-5419
▁穆	-5420
▁窃	-5421
▁筑	-5422
▁篠	-5423
▁簔	-5424
▁絳	-5425
▁維	-5426
▁縅	-5427
▁聹	-5428
▁肌	-5429
▁胥	-5430
▁腆	-5431
▁臆	-5432
▁艸	-5433
▁茅	-5434
▁菘	-5435
▁虧	-5436
▁虹	-5437
▁蛇	-5438
▁蛟	-5439
▁蜆	-5440
▁蝨	-5441
▁訝	-5442
▁諍	-5443
▁諺	-5444
▁豫	-5445
▁豺	-5446
▁豼	-5447
▁貸	-5448
▁踰	-5449
▁躁	-5450
▁辣	-5451
▁辿	-5452
▁錨	-5453
▁鍛	-5454
▁鎮	-5455
▁鑰	-5456
▁阡	-5457
▁隱	-5458
▁雋	-5459
▁韵	-5460
▁頷	-5461
▁頸	-5462
▁餅	-5463
▁館	-5464
▁騅	-5465
▁驃	-5466
▁鮨	-5467
▁鱶	-5468
いも	-5469
サだけど頑張る	-5470
▁g	-5471
▁М	-5472
▁б	-5473
▁∫	-5474
▁ヰ	-5475
▁三	-5476
▁亡	-5477
▁儻	-5478
▁冂	-5479
▁則	-5480
▁劭	-5481
▁勵	-5482
▁匐	-5483
▁即	-5484
▁厰	-5485
▁叭	-5486
▁啣	-5487
▁啾	-5488
▁堝	-5489
▁堵	-5490
▁塾	-5491
▁壹	-5492
▁姨	-5493
▁娼	-5494
▁它	-5495
▁宅	-5496
▁定	-5497
▁尺	-5498
▁崩	-5499
▁巌	-5500
▁帙	-5501
▁幵	-5502
▁廷	-5503
▁悄	-5504
▁愛	-5505
▁憾	-5506
▁懶	-5507
▁拙	-5508
▁括	-5509
▁挧	-5510
▁掏	-5511
▁控	-5512
▁揣	-5513
▁攀	-5514
▁斂	-5515
▁昆	-5516
▁暹	-5517
▁曝	-5518
▁条	-5519
▁柢	-5520
▁梍	-5521
▁梏	-5522
▁歯	-5523
▁殃	-5524
▁殉	-5525
▁气	-5526
▁汚	-5527
▁汢	-5528
▁没	-5529
▁沫	-5530
▁沾	-5531
▁泌	-5532
▁泝	-5533
▁波	-5534
▁淙	-5535
▁溝	-5536
▁滝	-5537
▁熏	-5538
▁牡	-5539
▁犧	-5540
▁瓊	-5541
▁界	-5542
▁盃	-5543
▁眥	-5544
▁眩	-5545
▁瞬	-5546
▁砦	-5547
▁硬	-5548
▁礼	-5549
▁稍	-5550
▁窈	-5551
▁箱	-5552
▁節	-5553
▁籤	-5554
▁糲	-5555
▁緜	-5556
▁繹	-5557
▁罹	-5558
▁羂	-5559
▁職	-5560
▁腿	-5561
▁膳	-5562
▁臀	-5563
▁臉	-5564
▁至	-5565
▁菅	-5566
▁菠	-5567
▁菰	-5568
▁蒸	-5569
▁蔕	-5570
▁蕚	-5571
▁薮	-5572
▁蜴	-5573
▁蟒	-5574
▁襍	-5575
▁計	-5576
▁詭	-5577
▁該	-5578
▁誹	-5579
▁諂	-5580
▁謗	-5581
▁謝	-5582
▁讓	-5583
▁踏	-5584
▁躡	-5585
▁轗	-5586
▁迩	-5587
▁逎	-5588
▁邉	-5589
▁鄭	-5590
▁醂	-5591
▁錵	-5592
▁鏘	-5593
▁鑛	-5594
▁鑷	-5595
▁闘	-5596
▁阯	-5597
▁陞	-5598
▁靨	-5599
▁飮	-5600
▁餞	-5601
▁餬	-5602
▁駲	-5603
▁騙	-5604
▁鯒	-5605
▁鴇	-5606
▁鵬	-5607
いゆ	-5608
いる	-5609
▁Z	-5610
▁±	-5611
▁♯	-5612
▁パ	-5613
▁仕	-5614
▁倏	-5615
▁儼	-5616
▁共	-5617
▁冰	-5618
▁剿	-5619
▁労	-5620
▁卑	-5621
▁咽	-5622
▁哇	-5623
▁哮	-5624
▁喘	-5625
▁嘯	-5626
▁囿	-5627
▁埃	-5628
▁埋	-5629
▁夫	-5630
▁奩	-5631
▁察	-5632
▁寿	-5633
▁峠	-5634
▁帖	-5635
▁廩	-5636
▁弑	-5637
▁彈	-5638
▁彗	-5639
▁御	-5640
▁念	-5641
▁恟	-5642
▁悌	-5643
▁惜	-5644
▁愀	-5645
▁慝	-5646
▁折	-5647
▁捌	-5648
▁搆	-5649
▁搏	-5650
▁擒	-5651
▁无	-5652
▁昏	-5653
▁暃	-5654
▁曄	-5655
▁朞	-5656
▁杳	-5657
▁柤	-5658
▁棯	-5659
▁榴	-5660
▁檮	-5661
▁檸	-5662
▁渫	-5663
▁湟	-5664
▁潭	-5665
▁潮	-5666
▁潯	-5667
▁瀝	-5668
▁灰	-5669
▁炒	-5670
▁炮	-5671
▁營	-5672
▁犠	-5673
▁狐	-5674
▁猿	-5675
▁玄	-5676
▁瑞	-5677
▁甲	-5678
▁砲	-5679
▁禳	-5680
▁穡	-5681
▁穢	-5682
▁竄	-5683
▁筝	-5684
▁箆	-5685
▁籍	-5686
▁粍	-5687
▁糒	-5688
▁繚	-5689
▁缸	-5690
▁罔	-5691
▁罩	-5692
▁翡	-5693
▁肴	-5694
▁艫	-5695
▁芻	-5696
▁范	-5697
▁菩	-5698
▁蕘	-5699
▁藩	-5700
▁蘊	-5701
▁蘰	-5702
▁虐	-5703
▁蜒	-5704
▁螢	-5705
▁螳	-5706
▁螽	-5707
▁褞	-5708
▁詫	-5709
▁論	-5710
▁諦	-5711
▁豁	-5712
▁貞	-5713
▁賽	-5714
▁赳	-5715
▁趁	-5716
▁踪	-5717
▁蹶	-5718
▁蹼	-5719
▁軍	-5720
▁轣	-5721
▁近	-5722
▁這	-5723
▁酸	-5724
▁醒	-5725
▁鉉	-5726
▁錦	-5727
▁鏨	-5728
▁鐓	-5729
▁鑁	-5730
▁闃	-5731
▁鞜	-5732
▁頌	-5733
▁飆	-5734
▁餔	-5735
▁駑	-5736
▁鰹	-5737
▁鵈	-5738
かれ	-5739
つ感じ	-5740
▁*	-5741
▁d	-5742
▁i	-5743
▁k	-5744
▁u	-5745
▁Å	-5746
▁п	-5747
▁』	-5748
▁ず	-5749
▁且	-5750
▁以	-5751
▁來	-5752
▁傍	-5753
▁僅	-5754
▁僮	-5755
▁劍	-5756
▁化	-5757
▁北	-5758
▁卞	-5759
▁叢	-5760
▁吾	-5761
▁呀	-5762
▁喪	-5763
▁嗹	-5764
▁嘛	-5765
▁在	-5766
▁均	-5767
▁墟	-5768
▁好	-5769
▁娩	-5770
▁孑	-5771
▁尻	-5772
▁嶋	-5773
▁巧	-5774
▁巴	-5775
▁幔	-5776
▁廊	-5777
▁廨	-5778
▁怨	-5779
▁愴	-5780
▁扇	-5781
▁抄	-5782
▁挈	-5783
▁掀	-5784
▁教	-5785
▁曜	-5786
▁来	-5787
▁杭	-5788
▁柵	-5789
▁桟	-5790
▁棺	-5791
▁楷	-5792
▁槌	-5793
▁歇	-5794
▁氈	-5795
▁泥	-5796
▁洳	-5797
▁浙	-5798
▁潜	-5799
▁瀘	-5800
▁災	-5801
▁炉	-5802
▁熊	-5803
▁燼	-5804
▁牙	-5805
▁獗	-5806
▁珍	-5807
▁琲	-5808
▁畝	-5809
▁番	-5810
▁疑	-5811
▁痩	-5812
▁瘁	-5813
▁瘰	-5814
▁瘴	-5815
▁癬	-5816
▁盧	-5817
▁瞹	-5818
▁禅	-5819
▁禊	-5820
▁竡	-5821
▁籬	-5822
▁粮	-5823
▁綵	-5824
▁肝	-5825
▁育	-5826
▁脚	-5827
▁膾	-5828
▁臺	-5829
▁舎	-5830
▁艇	-5831
▁苫	-5832
▁莟	-5833
▁萓	-5834
▁蓐	-5835
▁蔗	-5836
▁蘚	-5837
▁虱	-5838
▁蚊	-5839
▁蚓	-5840
▁蛭	-5841
▁蜉	-5842
▁蜷	-5843
▁螫	-5844
▁蠎	-5845
▁裁	-5846
▁裟	-5847
▁褸	-5848
▁覦	-5849
▁許	-5850
▁譟	-5851
▁譬	-5852
▁跼	-5853
▁蹇	-5854
▁蹐	-5855
▁躰	-5856
▁迦	-5857
▁迫	-5858
▁遅	-5859
▁遊	-5860
▁郭	-5861
▁郵	-5862
▁釼	-5863
▁鉚	-5864
▁錐	-5865
▁錚	-5866
▁鐙	-5867
▁鐡	-5868
▁鑄	-5869
▁陦	-5870
▁隰	-5871
▁雑	-5872
▁顎	-5873
▁類	-5874
▁饅	-5875
▁饋	-5876
▁驀	-5877
▁驕	-5878
▁魅	-5879
▁魑	-5880
▁魚	-5881
▁鳴	-5882
▁黌	-5883
▁鼠	-5884
▁齠	-5885
▁L	-5886
▁l	-5887
▁κ	-5888
▁ξ	-5889
▁д	-5890
▁ж	-5891
▁с	-5892
▁┳	-5893
▁◇	-5894
▁♭	-5895
▁ぁ	-5896
▁ぉ	-5897
▁ゥ	-5898
▁ヅ	-5899
▁乱	-5900
▁亦	-5901
▁併	-5902
▁健	-5903
▁兔	-5904
▁冀	-5905
▁効	-5906
▁却	-5907
▁吭	-5908
▁呰	-5909
▁呼	-5910
▁唳	-5911
▁啅	-5912
▁啖	-5913
▁喝	-5914
▁喧	-5915
▁嚢	-5916
▁囃	-5917
▁囘	-5918
▁団	-5919
▁埒	-5920
▁堊	-5921
▁塊	-5922
▁塋	-5923
▁塲	-5924
▁墮	-5925
▁妄	-5926
▁姙	-5927
▁婁	-5928
▁婚	-5929
▁寧	-5930
▁岷	-5931
▁幣	-5932
▁怜	-5933
▁悃	-5934
▁悽	-5935
▁慓	-5936
▁懊	-5937
▁懐	-5938
▁懣	-5939
▁懼	-5940
▁挫	-5941
▁採	-5942
▁昜	-5943
▁星	-5944
▁暸	-5945
▁朮	-5946
▁板	-5947
▁桍	-5948
▁桷	-5949
▁梼	-5950
▁棡	-5951
▁槻	-5952
▁樓	-5953
▁樮	-5954
▁樵	-5955
▁歳	-5956
▁殫	-5957
▁毟	-5958
▁泪	-5959
▁浴	-5960
▁淌	-5961
▁漓	-5962
▁烈	-5963
▁焦	-5964
▁珱	-5965
▁瓏	-5966
▁畊	-5967
▁痺	-5968
▁癡	-5969
▁盂	-5970
▁眷	-5971
▁磨	-5972
▁礒	-5973
▁祈	-5974
▁程	-5975
▁穏	-5976
▁第	-5977
▁筧	-5978
▁筬	-5979
▁簑	-5980
▁簧	-5981
▁粽	-5982
▁紐	-5983
▁紕	-5984
▁級	-5985
▁罫	-5986
▁聾	-5987
▁臟	-5988
▁臣	-5989
▁荻	-5990
▁菴	-5991
▁蒿	-5992
▁蓉	-5993
▁蔀	-5994
▁薑	-5995
▁蚰	-5996
▁蜜	-5997
▁融	-5998
▁被	-5999
▁裏	-6000
▁襲	-6001
▁覿	-6002
▁診	-6003
▁趺	-6004
▁距	-6005
▁踐	-6006
▁蹴	-6007
▁軟	-6008
▁輊	-6009
▁逋	-6010
▁逞	-6011
▁遉	-6012
▁郎	-6013
▁鋸	-6014
▁鏤	-6015
▁鐔	-6016
▁闕	-6017
▁陏	-6018
▁隴	-6019
▁霍	-6020
▁霾	-6021
▁鞍	-6022
▁題	-6023
▁馥	-6024
▁駸	-6025
▁髪	-6026
▁鮴	-6027
▁麑	-6028
▁黛	-6029
▁黠	-6030
▁鼕	-6031
▁鼬	-6032
ひわ	-6033
▁今日はう	-6034
▁8	-6035
▁В	-6036
▁⊂	-6037
▁┫	-6038
▁▲	-6039
▁▽	-6040
▁〉	-6041
▁ゲ	-6042
▁与	-6043
▁亅	-6044
▁亞	-6045
▁佻	-6046
▁価	-6047
▁侭	-6048
▁俔	-6049
▁倫	-6050
▁假	-6051
▁停	-6052
▁免	-6053
▁冓	-6054
▁冕	-6055
▁別	-6056
▁勧	-6057
▁匆	-6058
▁単	-6059
▁卷	-6060
▁友	-6061
▁喀	-6062
▁喉	-6063
▁図	-6064
▁圏	-6065
▁堅	-6066
▁姶	-6067
▁娃	-6068
▁娚	-6069
▁娜	-6070
▁媽	-6071
▁嬾	-6072
▁孔	-6073
▁尖	-6074
▁尽	-6075
▁屓	-6076
▁崙	-6077
▁幅	-6078
▁广	-6079
▁庚	-6080
▁徳	-6081
▁忻	-6082
▁怫	-6083
▁悟	-6084
▁愬	-6085
▁慍	-6086
▁慎	-6087
▁慧	-6088
▁戍	-6089
▁扮	-6090
▁掖	-6091
▁掣	-6092
▁揄	-6093
▁摎	-6094
▁摶	-6095
▁攜	-6096
▁救	-6097
▁整	-6098
▁旌	-6099
▁朗	-6100
▁梦	-6101
▁梳	-6102
▁椿	-6103
▁楓	-6104
▁楽	-6105
▁槫	-6106
▁沢	-6107
▁洋	-6108
▁洵	-6109
▁淑	-6110
▁淤	-6111
▁渝	-6112
▁漣	-6113
▁潁	-6114
▁濬	-6115
▁灑	-6116
▁煎	-6117
▁煖	-6118
▁煩	-6119
▁熔	-6120
▁獨	-6121
▁用	-6122
▁申	-6123
▁畜	-6124
▁畸	-6125
▁痃	-6126
▁癪	-6127
▁直	-6128
▁瞻	-6129
▁稚	-6130
▁穣	-6131
▁穰	-6132
▁笑	-6133
▁筆	-6134
▁箴	-6135
▁綟	-6136
▁緞	-6137
▁縲	-6138
▁縵	-6139
▁繰	-6140
▁續	-6141
▁纓	-6142
▁罘	-6143
▁聟	-6144
▁胡	-6145
▁艢	-6146
▁艾	-6147
▁芹	-6148
▁葱	-6149
▁蓋	-6150
▁薛	-6151
▁薪	-6152
▁藉	-6153
▁蚋	-6154
▁蚤	-6155
▁蛛	-6156
▁蜀	-6157
▁蜿	-6158
▁蝕	-6159
▁蟹	-6160
▁袁	-6161
▁袙	-6162
▁袞	-6163
▁襄	-6164
▁諠	-6165
▁謳	-6166
▁豆	-6167
▁豬	-6168
▁費	-6169
▁贊	-6170
▁跿	-6171
▁踴	-6172
▁轡	-6173
▁辷	-6174
▁逕	-6175
▁遂	-6176
▁邱	-6177
▁鋼	-6178
▁鏖	-6179
▁鐇	-6180
▁鑢	-6181
▁閊	-6182
▁閏	-6183
▁陂	-6184
▁雅	-6185
▁雕	-6186
▁靹	-6187
▁鞴	-6188
▁韆	-6189
▁響	-6190
▁魘	-6191
▁鴾	-6192
▁鵑	-6193
▁鵜	-6194
▁鶇	-6195
▁麹	-6196
さ感じ	-6197
ろ感じ	-6198
▁今日はお	-6199
▁今日はき	-6200
ロだけど頑張る	-6201
▁(	-6202
▁/	-6203
▁Ι	-6204
▁Ё	-6205
▁о	-6206
▁―	-6207
▁⇔	-6208
▁┏	-6209
▁〈	-6210
▁》	-6211
▁丿	-6212
▁乾	-6213
▁仔	-6214
▁佗	-6215
▁侍	-6216
▁侶	-6217
▁倹	-6218
▁働	-6219
▁凹	-6220
▁切	-6221
▁劉	-6222
▁劑	-6223
▁加	-6224
▁匪	-6225
▁句	-6226
▁右	-6227
▁吼	-6228
▁喜	-6229
▁噎	-6230
▁墺	-6231
▁壕	-6232
▁壺	-6233
▁夬	-6234
▁妃	-6235
▁孅	-6236
▁寔	-6237
▁實	-6238
▁尤	-6239
▁屬	-6240
▁岨	-6241
▁岩	-6242
▁岾	-6243
▁帶	-6244
▁序	-6245
▁廬	-6246
▁愎	-6247
▁慴	-6248
▁憲	-6249
▁戌	-6250
▁戮	-6251
▁打	-6252
▁抗	-6253
▁挌	-6254
▁撃	-6255
▁暄	-6256
▁朶	-6257
▁柏	-6258
▁柝	-6259
▁柾	-6260
▁桿	-6261
▁梔	-6262
▁楪	-6263
▁榮	-6264
▁樟	-6265
▁橙	-6266
▁檗	-6267
▁櫨	-6268
▁殕	-6269
▁洒	-6270
▁浤	-6271
▁淵	-6272
▁混	-6273
▁溺	-6274
▁潘	-6275
▁潦	-6276
▁澣	-6277
▁濔	-6278
▁烽	-6279
▁焚	-6280
▁燧	-6281
▁狄	-6282
▁狩	-6283
▁獸	-6284
▁甬	-6285
▁瘧	-6286
▁皿	-6287
▁相	-6288
▁瞞	-6289
▁硴	-6290
▁禺	-6291
▁稟	-6292
▁稾	-6293
▁窶	-6294
▁箏	-6295
▁箔	-6296
▁篩	-6297
▁篭	-6298
▁粐	-6299
▁粕	-6300
▁糅	-6301
▁紹	-6302
▁綫	-6303
▁繕	-6304
▁罠	-6305
▁美	-6306
▁羝	-6307
▁而	-6308
▁耳	-6309
▁肆	-6310
▁肯	-6311
▁胞	-6312
▁與	-6313
▁茵	-6314
▁蓴	-6315
▁蔵	-6316
▁蕨	-6317
▁蕷	-6318
▁薹	-6319
▁藁	-6320
▁藥	-6321
▁藪	-6322
▁蚕	-6323
▁蜻	-6324
▁衙	-6325
▁袤	-6326
▁裲	-6327
▁褥	-6328
▁西	-6329
▁謄	-6330
▁躅	-6331
▁輒	-6332
▁逶	-6333
▁釈	-6334
▁錫	-6335
▁鑠	-6336
▁闡	-6337
▁陲	-6338
▁霪	-6339
▁音	-6340
▁頏	-6341
▁飴	-6342
▁骼	-6343
▁鮪	-6344
▁鯛	-6345
▁鴟	-6346
▁鴣	-6347
▁鶻	-6348
▁鷄	-6349
▁齡	-6350
▁齣	-6351
せね	-6352
キだけど頑張る	-6353
▁X	-6354
▁Т	-6355
▁Ф	-6356
▁−	-6357
▁∩	-6358
▁╋	-6359
▁ぽ	-6360
▁ィ	-6361
▁人	-6362
▁仲	-6363
▁伐	-6364
▁侈	-6365
▁侏	-6366
▁兎	-6367
▁兢	-6368
▁全	-6369
▁占	-6370
▁叙	-6371
▁叟	-6372
▁嗚	-6373
▁嘸	-6374
▁塀	-6375
▁妬	-6376
▁婆	-6377
▁嫺	-6378
▁嬌	-6379
▁孀	-6380
▁孵	-6381
▁寞	-6382
▁岼	-6383
▁嵐	-6384
▁嶐	-6385
▁工	-6386
▁帷	-6387
▁廉	-6388
▁弍	-6389
▁弱	-6390
▁強	-6391
▁徇	-6392
▁徙	-6393
▁忍	-6394
▁怐	-6395
▁悋	-6396
▁悔	-6397
▁悖	-6398
▁惡	-6399
▁惷	-6400
▁懲	-6401
▁掟	-6402
▁搖	-6403
▁搾	-6404
▁效	-6405
▁旦	-6406
▁昭	-6407
▁札	-6408
▁枳	-6409
▁棒	-6410
▁棲	-6411
▁楊	-6412
▁楞	-6413
▁楡	-6414
▁槇	-6415
▁樋	-6416
▁檍	-6417
▁櫂	-6418
▁正	-6419
▁残	-6420
▁殯	-6421
▁汎	-6422
▁汰	-6423
▁洪	-6424
▁渋	-6425
▁渠	-6426
▁溜	-6427
▁溲	-6428
▁潴	-6429
▁澱	-6430
▁澳	-6431
▁濯	-6432
▁瀰	-6433
▁瀲	-6434
▁烏	-6435
▁焙	-6436
▁瑩	-6437
▁登	-6438
▁瞎	-6439
▁私	-6440
▁稷	-6441
▁窩	-6442
▁簪	-6443
▁紡	-6444
▁絨	-6445
▁繽	-6446
▁置	-6447
▁羚	-6448
▁羸	-6449
▁羽	-6450
▁耄	-6451
▁肄	-6452
▁胄	-6453
▁腐	-6454
▁腥	-6455
▁茗	-6456
▁葩	-6457
▁蔓	-6458
▁虍	-6459
▁虜	-6460
▁蜊	-6461
▁蝌	-6462
▁蝠	-6463
▁螟	-6464
▁袈	-6465
▁裼	-6466
▁訂	-6467
▁詈	-6468
▁誑	-6469
▁跋	-6470
▁跪	-6471
▁践	-6472
▁躙	-6473
▁送	-6474
▁達	-6475
▁遶	-6476
▁酔	-6477
▁酵	-6478
▁酷	-6479
▁醜	-6480
▁醯	-6481
▁銓	-6482
▁錻	-6483
▁鍜	-6484
▁鐫	-6485
▁隍	-6486
▁鞆	-6487
▁飲	-6488
▁餘	-6489
▁駅	-6490
▁駝	-6491
▁魍	-6492
▁鰊	-6493
▁鱆	-6494
▁鱧	-6495
▁鵄	-6496
▁鶸	-6497
▁鷂	-6498
▁黹	-6499
▁&	-6500
▁,	-6501
▁6	-6502
▁:	-6503
▁J	-6504
▁P	-6505
▁w	-6506
▁Γ	-6507
▁Θ	-6508
▁μ	-6509
▁υ	-6510
▁Е	-6511
▁Р	-6512
▁м	-6513
▁┤	-6514
▁〓	-6515
▁ダ	-6516
▁ュ	-6517
▁丶	-6518
▁乳	-6519
▁任	-6520
▁会	-6521
▁倅	-6522
▁側	-6523
▁僉	-6524
▁像	-6525
▁刻	-6526
▁剽	-6527
▁努	-6528
▁卩	-6529
▁厮	-6530
▁吃	-6531
▁呶	-6532
▁咨	-6533
▁咯	-6534
▁哘	-6535
▁唇	-6536
▁堆	-6537
▁壯	-6538
▁宇	-6539
▁射	-6540
▁專	-6541
▁屑	-6542
▁屠	-6543
▁崗	-6544
▁嵒	-6545
▁州	-6546
▁巡	-6547
▁巽	-6548
▁廠	-6549
▁恆	-6550
▁恨	-6551
▁慂	-6552
▁憂	-6553
▁憙	-6554
▁抔	-6555
▁抜	-6556
▁拈	-6557
▁拭	-6558
▁揃	-6559
▁握	-6560
▁搨	-6561
▁撮	-6562
▁擾	-6563
▁攬	-6564
▁敖	-6565
▁敬	-6566
▁昔	-6567
▁晶	-6568
▁暝	-6569
▁書	-6570
▁李	-6571
▁松	-6572
▁柳	-6573
▁桧	-6574
▁棄	-6575
▁椏	-6576
▁榎	-6577
▁榻	-6578
▁樅	-6579
▁橢	-6580
▁檐	-6581
▁泓	-6582
▁洲	-6583
▁浄	-6584
▁渥	-6585
▁滉	-6586
▁滸	-6587
▁漫	-6588
▁瀉	-6589
▁火	-6590
▁炎	-6591
▁烟	-6592
▁煙	-6593
▁熨	-6594
▁燮	-6595
▁物	-6596
▁玖	-6597
▁琉	-6598
▁琴	-6599
▁瓷	-6600
▁甘	-6601
▁甼	-6602
▁痿	-6603
▁的	-6604
▁皆	-6605
▁眛	-6606
▁磚	-6607
▁礬	-6608
▁禪	-6609
▁秘	-6610
▁稿	-6611
▁笵	-6612
▁管	-6613
▁範	-6614
▁紿	-6615
▁絶	-6616
▁綣	-6617
▁線	-6618
▁緡	-6619
▁緤	-6620
▁艀	-6621
▁芽	-6622
▁苒	-6623
▁莽	-6624
▁菲	-6625
▁葎	-6626
▁蕩	-6627
▁蕭	-6628
▁薇	-6629
▁藏	-6630
▁蘇	-6631
▁蘭	-6632
▁蟾	-6633
▁衿	-6634
▁袷	-6635
▁裾	-6636
▁褊	-6637
▁視	-6638
▁詒	-6639
▁諢	-6640
▁謎	-6641
▁謬	-6642
▁貍	-6643
▁貼	-6644
▁賤	-6645
▁身	-6646
▁躱	-6647
▁軈	-6648
▁軽	-6649
▁轜	-6650
▁進	-6651
▁遁	-6652
▁過	-6653
▁遖	-6654
▁郷	-6655
▁鈿	-6656
▁銷	-6657
▁鑒	-6658
▁隠	-6659
▁霆	-6660
▁霞	-6661
▁駘	-6662
▁駱	-6663
▁駻	-6664
▁驂	-6665
▁驤	-6666
▁髑	-6667
▁鮠	-6668
▁鱈	-6669
▁鱗	-6670
▁鳥	-6671
▁鳶	-6672
▁鵆	-6673
▁鷺	-6674
▁黔	-6675
トム	-6676
ヲだけど頑張る	-6677
▁‖	-6678
▁←	-6679
▁△	-6680
▁◆	-6681
▁○	-6682
▁げ	-6683
▁ゎ	-6684
▁ゝ	-6685
▁ガ	-6686
▁丗	-6687
▁並	-6688
▁乘	-6689
▁亭	-6690
▁佯	-6691
▁債	-6692
▁儚	-6693
▁兆	-6694
▁児	-6695
▁冫	-6696
▁凝	-6697
▁刄	-6698
▁勝	-6699
▁勞	-6700
▁半	-6701
▁卻	-6702
▁參	-6703
▁各	-6704
▁吸	-6705
▁哢	-6706
▁唖	-6707
▁噤	-6708
▁噴	-6709
▁噺	-6710
▁嚊	-6711
▁固	-6712
▁垢	-6713
▁壻	-6714
▁威	-6715
▁字	-6716
▁害	-6717
▁寰	-6718
▁対	-6719
▁尉	-6720
▁尾	-6721
▁峡	-6722
▁崟	-6723
▁幇	-6724
▁幌	-6725
▁年	-6726
▁庁	-6727
▁廳	-6728
▁彊	-6729
▁性	-6730
▁或	-6731
▁拳	-6732
▁掻	-6733
▁旛	-6734
▁昿	-6735
▁最	-6736
▁末	-6737
▁柁	-6738
▁柚	-6739
▁梯	-6740
▁棧	-6741
▁椙	-6742
▁楹	-6743
▁槐	-6744
▁槿	-6745
▁樺	-6746
▁檣	-6747
▁櫚	-6748
▁櫞	-6749
▁櫻	-6750
▁武	-6751
▁殍	-6752
▁毒	-6753
▁毫	-6754
▁毳	-6755
▁沃	-6756
▁況	-6757
▁泄	-6758
▁泙	-6759
▁淆	-6760
▁湯	-6761
▁準	-6762
▁溽	-6763
▁滔	-6764
▁滕	-6765
▁澂	-6766
▁激	-6767
▁燬	-6768
▁爰	-6769
▁版	-6770
▁牝	-6771
▁猴	-6772
▁珮	-6773
▁甫	-6774
▁痘	-6775
▁癆	-6776
▁癈	-6777
▁監	-6778
▁瞼	-6779
▁碍	-6780
▁碯	-6781
▁磔	-6782
▁祷	-6783
▁穫	-6784
▁簓	-6785
▁終	-6786
▁綉	-6787
▁纒	-6788
▁羆	-6789
▁羇	-6790
▁肋	-6791
▁腟	-6792
▁腱	-6793
▁臈	-6794
▁臧	-6795
▁艪	-6796
▁茄	-6797
▁萋	-6798
▁蕗	-6799
▁蘿	-6800
▁蛞	-6801
▁螯	-6802
▁衵	-6803
▁衾	-6804
▁袰	-6805
▁裕	-6806
▁覗	-6807
▁覧	-6808
▁訌	-6809
▁詔	-6810
▁諞	-6811
▁謔	-6812
▁謚	-6813
▁豈	-6814
▁貉	-6815
▁貝	-6816
▁賈	-6817
▁賍	-6818
▁賦	-6819
▁贇	-6820
▁赫	-6821
▁踟	-6822
▁蹠	-6823
▁輾	-6824
▁辱	-6825
▁農	-6826
▁迄	-6827
▁迚	-6828
▁遘	-6829
▁邨	-6830
▁邪	-6831
▁金	-6832
▁鈩	-6833
▁鐘	-6834
▁閧	-6835
▁際	-6836
▁雎	-6837
▁霤	-6838
▁霽	-6839
▁鞋	-6840
▁韮	-6841
▁韻	-6842
▁頁	-6843
▁頡	-6844
▁顰	-6845
▁馘	-6846
▁馴	-6847
▁高	-6848
▁鬣	-6849
▁鮃	-6850
▁鴦	-6851
▁鴫	-6852
▁鷹	-6853
▁龕	-6854
▁?	-6855
▁E	-6856
▁Μ	-6857
▁σ	-6858
▁е	-6859
▁т	-6860
▁ъ	-6861
▁”	-6862
▁ぃ	-6863
▁ぷ	-6864
▁主	-6865
▁乂	-6866
▁仭	-6867
▁佝	-6868
▁倨	-6869
▁儡	-6870
▁兪	-6871
▁典	-6872
▁冉	-6873
▁冨	-6874
▁冽	-6875
▁剱	-6876
▁匯	-6877
▁匹	-6878
▁卯	-6879
▁号	-6880
▁味	-6881
▁啌	-6882
▁嗔	-6883
▁域	-6884
▁埼	-6885
▁塹	-6886
▁墓	-6887
▁墸	-6888
▁天	-6889
▁失	-6890
▁妍	-6891
▁姐	-6892
▁姓	-6893
▁寢	-6894
▁尓	-6895
▁崘	-6896
▁巖	-6897
▁川	-6898
▁希	-6899
▁帑	-6900
▁廣	-6901
▁彿	-6902
▁忰	-6903
▁恢	-6904
▁惑	-6905
▁惹	-6906
▁惻	-6907
▁愡	-6908
▁慄	-6909
▁慌	-6910
▁払	-6911
▁把	-6912
▁捐	-6913
▁捗	-6914
▁掠	-6915
▁揚	-6916
▁撼	-6917
▁擧	-6918
▁攴	-6919
▁文	-6920
▁斑	-6921
▁杜	-6922
▁柬	-6923
▁株	-6924
▁梅	-6925
▁椢	-6926
▁椦	-6927
▁榊	-6928
▁槊	-6929
▁構	-6930
▁櫺	-6931
▁沐	-6932
▁洙	-6933
▁港	-6934
▁湎	-6935
▁湖	-6936
▁滞	-6937
▁滲	-6938
▁漑	-6939
▁灯	-6940
▁無	-6941
▁熄	-6942
▁爐	-6943
▁猟	-6944
▁獻	-6945
▁玳	-6946
▁瓔	-6947
▁甸	-6948
▁瞠	-6949
▁矣	-6950
▁砥	-6951
▁破	-6952
▁碆	-6953
▁童	-6954
▁築	-6955
▁簟	-6956
▁簸	-6957
▁籖	-6958
▁粁	-6959
▁粱	-6960
▁粳	-6961
▁糟	-6962
▁索	-6963
▁紲	-6964
▁絛	-6965
▁統	-6966
▁綻	-6967
▁緯	-6968
▁罪	-6969
▁肺	-6970
▁胃	-6971
▁脊	-6972
▁膸	-6973
▁臂	-6974
▁臨	-6975
▁舶	-6976
▁艦	-6977
▁芙	-6978
▁莉	-6979
▁萃	-6980
▁萍	-6981
▁萩	-6982
▁蓊	-6983
▁蔭	-6984
▁藜	-6985
▁虫	-6986
▁蠧	-6987
▁行	-6988
▁装	-6989
▁觚	-6990
▁譏	-6991
▁象	-6992
▁贏	-6993
▁贔	-6994
▁踉	-6995
▁轟	-6996
▁迪	-6997
▁迭	-6998
▁退	-6999
▁逮	-7000
▁遨	-7001
▁避	-7002
▁邇	-7003
▁釀	-7004
▁鉗	-7005
▁銖	-7006
▁銚	-7007
▁長	-7008
▁間	-7009
▁陋	-7010
▁雉	-7011
▁雨	-7012
▁雰	-7013
▁靴	-7014
▁飭	-7015
▁饕	-7016
▁鵠	-7017
▁鵯	-7018
▁鸞	-7019
▁麾	-7020
▁黴	-7021
ゆち	-7022
リマ	-7023
▁今日はと	-7024
アだけど頑張る	-7025
▁1	-7026
▁G	-7027
▁s	-7028
▁ν	-7029
▁щ	-7030
▁ю	-7031
▁‰	-7032
▁∧	-7033
▁ぞ	-7034
▁ォ	-7035
▁上	-7036
▁九	-7037
▁争	-7038
▁偈	-7039
▁冬	-7040
▁凩	-7041
▁刊	-7042
▁劾	-7043
▁勗	-7044
▁匣	-7045
▁印	-7046
▁原	-7047
▁厥	-7048
▁叮	-7049
▁叺	-7050
▁名	-7051
▁啓	-7052
▁回	-7053
▁因	-7054
▁堙	-7055
▁堪	-7056
▁夢	-7057
▁婿	-7058
▁嫡	-7059
▁宦	-7060
▁寇	-7061
▁尠	-7062
▁尿	-7063
▁岶	-7064
▁嶇	-7065
▁嶢	-7066
▁幗	-7067
▁廟	-7068
▁彙	-7069
▁影	-7070
▁忝	-7071
▁恪	-7072
▁悗	-7073
▁悧	-7074
▁愃	-7075
▁愕	-7076
▁愨	-7077
▁慈	-7078
▁慕	-7079
▁憺	-7080
▁戻	-7081
▁挂	-7082
▁捏	-7083
▁捕	-7084
▁据	-7085
▁擠	-7086
▁數	-7087
▁旋	-7088
▁昊	-7089
▁晞	-7090
▁景	-7091
▁曉	-7092
▁朕	-7093
▁未	-7094
▁村	-7095
▁柎	-7096
▁棹	-7097
▁槞	-7098
▁橡	-7099
▁欄	-7100
▁欺	-7101
▁止	-7102
▁殀	-7103
▁殱	-7104
▁毓	-7105
▁河	-7106
▁注	-7107
▁淞	-7108
▁渇	-7109
▁渊	-7110
▁煦	-7111
▁爿	-7112
▁牢	-7113
▁王	-7114
▁瑛	-7115
▁疊	-7116
▁瘻	-7117
▁睇	-7118
▁硲	-7119
▁礎	-7120
▁祺	-7121
▁禄	-7122
▁秤	-7123
▁竓	-7124
▁竟	-7125
▁筈	-7126
▁篆	-7127
▁粘	-7128
▁紀	-7129
▁絅	-7130
▁絖	-7131
▁綿	-7132
▁緩	-7133
▁繋	-7134
▁繙	-7135
▁胱	-7136
▁腺	-7137
▁臠	-7138
▁臻	-7139
▁舖	-7140
▁苑	-7141
▁莠	-7142
▁菓	-7143
▁落	-7144
▁蒙	-7145
▁蕋	-7146
▁蘆	-7147
▁蟋	-7148
▁蠣	-7149
▁蠻	-7150
▁袮	-7151
▁裝	-7152
▁裸	-7153
▁覓	-7154
▁諫	-7155
▁諮	-7156
▁謡	-7157
▁貪	-7158
▁賃	-7159
▁賓	-7160
▁賛	-7161
▁跳	-7162
▁蹲	-7163
▁逃	-7164
▁遙	-7165
▁還	-7166
▁鄰	-7167
▁釜	-7168
▁銘	-7169
▁鎚	-7170
▁鏈	-7171
▁鑑	-7172
▁限	-7173
▁陥	-7174
▁隋	-7175
▁雙	-7176
▁需	-7177
▁霎	-7178
▁靉	-7179
▁頤	-7180
▁頻	-7181
▁顋	-7182
▁験	-7183
▁驛	-7184
▁髮	-7185
▁髻	-7186
▁魔	-7187
▁鮎	-7188
▁麕	-7189
▁黍	-7190
▁黯	-7191
みえ	-7192
もら	-7193
ゆす	-7194
▁今日はの	-7195
▁=	-7196
▁W	-7197
▁Ρ	-7198
▁Б	-7199
▁л	-7200
▁∈	-7201
▁⌒	-7202
▁│	-7203
▁┸	-7204
▁ゼ	-7205
▁ベ	-7206
▁ヴ	-7207
▁丙	-7208
▁云	-7209
▁亢	-7210
▁佇	-7211
▁倚	-7212
▁偐	-7213
▁做	-7214
▁冠	-7215
▁凅	-7216
▁凾	-7217
▁刷	-7218
▁券	-7219
▁勢	-7220
▁協	-7221
▁反	-7222
▁吟	-7223
▁吹	-7224
▁啗	-7225
▁喊	-7226
▁嘉	-7227
▁嚇	-7228
▁圧	-7229
▁坤	-7230
▁坩	-7231
▁垉	-7232
▁場	-7233
▁奥	-7234
▁姻	-7235
▁嫋	-7236
▁宀	-7237
▁宍	-7238
▁屎	-7239
▁履	-7240
▁峭	-7241
▁崔	-7242
▁巛	-7243
▁巨	-7244
▁廝	-7245
▁廿	-7246
▁弗	-7247
▁彬	-7248
▁彳	-7249
▁徨	-7250
▁忿	-7251
▁悵	-7252
▁惟	-7253
▁感	-7254
▁慣	-7255
▁戎	-7256
▁戸	-7257
▁拠	-7258
▁揉	-7259
▁搴	-7260
▁撫	-7261
▁攷	-7262
▁政	-7263
▁晁	-7264
▁時	-7265
▁晢	-7266
▁曰	-7267
▁朿	-7268
▁柿	-7269
▁楼	-7270
▁槍	-7271
▁櫁	-7272
▁欖	-7273
▁殤	-7274
▁沖	-7275
▁沚	-7276
▁泉	-7277
▁涓	-7278
▁淦	-7279
▁湛	-7280
▁滑	-7281
▁滾	-7282
▁瀏	-7283
▁珀	-7284
▁瓧	-7285
▁畚	-7286
▁畛	-7287
▁畿	-7288
▁疹	-7289
▁痍	-7290
▁癲	-7291
▁発	-7292
▁皀	-7293
▁益	-7294
▁硼	-7295
▁祉	-7296
▁稈	-7297
▁突	-7298
▁笘	-7299
▁笥	-7300
▁筴	-7301
▁練	-7302
▁縊	-7303
▁縋	-7304
▁縛	-7305
▁纔	-7306
▁能	-7307
▁膿	-7308
▁舒	-7309
▁舜	-7310
▁芦	-7311
▁花	-7312
▁苡	-7313
▁萇	-7314
▁萼	-7315
▁葮	-7316
▁蠡	-7317
▁褓	-7318
▁証	-7319
▁語	-7320
▁諸	-7321
▁謇	-7322
▁貨	-7323
▁買	-7324
▁賺	-7325
▁赭	-7326
▁輹	-7327
▁遍	-7328
▁遼	-7329
▁邊	-7330
▁邏	-7331
▁鄲	-7332
▁酌	-7333
▁醪	-7334
▁銜	-7335
▁鎌	-7336
▁霈	-7337
▁靺	-7338
▁韈	-7339
▁頼	-7340
▁髄	-7341
▁髢	-7342
▁鮓	-7343
▁鮟	-7344
▁鮮	-7345
▁鯨	-7346
▁鰔	-7347
ナル	-7348
ヘタ	-7349
リノ	-7350
▁今日はか	-7351
▁D	-7352
▁e	-7353
▁n	-7354
▁О	-7355
▁н	-7356
▁┬	-7357
▁々	-7358
▁【	-7359
▁〔	-7360
▁ぱ	-7361
▁ぺ	-7362
▁ァ	-7363
▁ョ	-7364
▁ヽ	-7365
▁亂	-7366
▁亊	-7367
▁京	-7368
▁仍	-7369
▁仙	-7370
▁仝	-7371
▁仞	-7372
▁伏	-7373
▁侫	-7374
▁俳	-7375
▁億	-7376
▁冒	-7377
▁分	-7378
▁刋	-7379
▁刔	-7380
▁刪	-7381
▁剌	-7382
▁勸	-7383
▁去	-7384
▁双	-7385
▁咤	-7386
▁哦	-7387
▁啜	-7388
▁喙	-7389
▁囀	-7390
▁圸	-7391
▁妓	-7392
▁妣	-7393
▁宜	-7394
▁宣	-7395
▁室	-7396
▁小	-7397
▁尚	-7398
▁屮	-7399
▁帥	-7400
▁幎	-7401
▁床	-7402
▁度	-7403
▁弩	-7404
▁後	-7405
▁怒	-7406
▁怯	-7407
▁愆	-7408
▁愚	-7409
▁憩	-7410
▁戝	-7411
▁戟	-7412
▁持	-7413
▁描	-7414
▁提	-7415
▁搜	-7416
▁搬	-7417
▁料	-7418
▁旨	-7419
▁春	-7420
▁智	-7421
▁朖	-7422
▁杣	-7423
▁枝	-7424
▁柱	-7425
▁椚	-7426
▁楙	-7427
▁榠	-7428
▁櫑	-7429
▁殘	-7430
▁沂	-7431
▁沙	-7432
▁泊	-7433
▁洟	-7434
▁津	-7435
▁浪	-7436
▁涎	-7437
▁液	-7438
▁淀	-7439
▁減	-7440
▁湾	-7441
▁溘	-7442
▁溯	-7443
▁濃	-7444
▁燉	-7445
▁燭	-7446
▁爨	-7447
▁犹	-7448
▁狸	-7449
▁献	-7450
▁獪	-7451
▁獵	-7452
▁珥	-7453
▁環	-7454
▁甜	-7455
▁痛	-7456
▁皎	-7457
▁盲	-7458
▁碧	-7459
▁磅	-7460
▁禁	-7461
▁秣	-7462
▁穴	-7463
▁窰	-7464
▁竹	-7465
▁篤	-7466
▁米	-7467
▁糧	-7468
▁紅	-7469
▁綴	-7470
▁繁	-7471
▁繼	-7472
▁羃	-7473
▁翩	-7474
▁脈	-7475
▁膨	-7476
▁膺	-7477
▁舐	-7478
▁芭	-7479
▁芸	-7480
▁苓	-7481
▁莪	-7482
▁蒂	-7483
▁蓼	-7484
▁蔦	-7485
▁薫	-7486
▁藐	-7487
▁螂	-7488
▁衍	-7489
▁表	-7490
▁裂	-7491
▁裙	-7492
▁褂	-7493
▁覯	-7494
▁託	-7495
▁設	-7496
▁訴	-7497
▁豢	-7498
▁豹	-7499
▁貢	-7500
▁資	-7501
▁跣	-7502
▁躑	-7503
▁軛	-7504
▁辯	-7505
▁郡	-7506
▁酢	-7507
▁量	-7508
▁鈴	-7509
▁鉢	-7510
▁銃	-7511
▁鋲	-7512
▁鍵	-7513
▁鑼	-7514
▁鑿	-7515
▁閃	-7516
▁閇	-7517
▁陣	-7518
▁靦	-7519
▁靱	-7520
▁顆	-7521
▁餃	-7522
▁餒	-7523
▁餽	-7524
▁駈	-7525
▁驪	-7526
▁骸	-7527
▁髣	-7528
▁鮒	-7529
▁鯉	-7530
▁鯤	-7531
▁鳧	-7532
▁鴬	-7533
▁麻	-7534
▁黨	-7535
▁鼡	-7536
セオ	-7537
チモ	-7538
ツモ	-7539
ソだけど頑張る	-7540
▁M	-7541
▁^	-7542
▁r	-7543
▁x	-7544
▁×	-7545
▁Β	-7546
▁ο	-7547
▁С	-7548
▁Ц	-7549
▁ч	-7550
▁⊥	-7551
▁ぢ	-7552
▁ビ	-7553
▁乍	-7554
▁乢	-7555
▁仗	-7556
▁伜	-7557
▁作	-7558
▁使	-7559
▁侑	-7560
▁依	-7561
▁俶	-7562
▁倩	-7563
▁偉	-7564
▁兼	-7565
▁内	-7566
▁冤	-7567
▁凄	-7568
▁凰	-7569
▁刹	-7570
▁創	-7571
▁勠	-7572
▁勣	-7573
▁勿	-7574
▁参	-7575
▁及	-7576
▁叨	-7577
▁后	-7578
▁君	-7579
▁咸	-7580
▁唏	-7581
▁営	-7582
▁土	-7583
▁圦	-7584
▁塁	-7585
▁声	-7586
▁夲	-7587
▁奉	-7588
▁奔	-7589
▁套	-7590
▁委	-7591
▁姪	-7592
▁姫	-7593
▁孟	-7594
▁寫	-7595
▁尊	-7596
▁屯	-7597
▁岑	-7598
▁岸	-7599
▁崛	-7600
▁嵳	-7601
▁嶮	-7602
▁巵	-7603
▁常	-7604
▁幢	-7605
▁庄	-7606
▁弐	-7607
▁很	-7608
▁忤	-7609
▁慇	-7610
▁憐	-7611
▁所	-7612
▁找	-7613
▁拵	-7614
▁拾	-7615
▁拿	-7616
▁捩	-7617
▁搗	-7618
▁撓	-7619
▁故	-7620
▁斎	-7621
▁斥	-7622
▁晤	-7623
▁曲	-7624
▁朝	-7625
▁本	-7626
▁杤	-7627
▁柔	-7628
▁梱	-7629
▁椨	-7630
▁椰	-7631
▁榱	-7632
▁様	-7633
▁槝	-7634
▁殖	-7635
▁江	-7636
▁澗	-7637
▁濤	-7638
▁濺	-7639
▁瀑	-7640
▁瀕	-7641
▁瀧	-7642
▁烋	-7643
▁猊	-7644
▁猗	-7645
▁琳	-7646
▁瑕	-7647
▁疇	-7648
▁癌	-7649
▁癒	-7650
▁癘	-7651
▁矯	-7652
▁砌	-7653
▁碣	-7654
▁禮	-7655
▁禹	-7656
▁種	-7657
▁穽	-7658
▁竏	-7659
▁端	-7660
▁笏	-7661
▁筋	-7662
▁箸	-7663
▁粂	-7664
▁粡	-7665
▁締	-7666
▁翻	-7667
▁胎	-7668
▁胯	-7669
▁腰	-7670
▁膀	-7671
▁膜	-7672
▁膩	-7673
▁舂	-7674
▁舳	-7675
▁茆	-7676
▁葛	-7677
▁蓄	-7678
▁蔘	-7679
▁薊	-7680
▁蘖	-7681
▁蚶	-7682
▁蛹	-7683
▁蝓	-7684
▁蝣	-7685
▁袢	-7686
▁話	-7687
▁諷	-7688
▁謀	-7689
▁謙	-7690
▁謠	-7691
▁譁	-7692
▁讒	-7693
▁赦	-7694
▁跌	-7695
▁躯	-7696
▁車	-7697
▁輔	-7698
▁辧	-7699
▁迷	-7700
▁逾	-7701
▁邵	-7702
▁酉	-7703
▁鉋	-7704
▁隙	-7705
▁韜	-7706
▁項	-7707
▁頽	-7708
▁額	-7709
▁騫	-7710
▁髓	-7711
▁鬘	-7712
▁鰍	-7713
▁鰛	-7714
▁鵙	-7715
▁鵤	-7716
▁鶴	-7717
▁黻	-7718
ネモ	-7719
ふ感じ	-7720
ほ感じ	-7721
▁今日はぬ	-7722
▁Δ	-7723
▁Ш	-7724
▁⊆	-7725
▁┥	-7726
▁┷	-7727
▁「	-7728
▁ャ	-7729
▁七	-7730
▁价	-7731
▁佼	-7732
▁侵	-7733
▁俤	-7734
▁儺	-7735
▁先	-7736
▁克	-7737
▁冢	-7738
▁凶	-7739
▁剣	-7740
▁劣	-7741
▁勁	-7742
▁厠	-7743
▁吮	-7744
▁呱	-7745
▁咲	-7746
▁嗤	-7747
▁嘔	-7748
▁塰	-7749
▁壑	-7750
▁夾	-7751
▁娉	-7752
▁媼	-7753
▁媾	-7754
▁嬋	-7755
▁嬬	-7756
▁宵	-7757
▁將	-7758
▁層	-7759
▁岐	-7760
▁帝	-7761
▁康	-7762
▁廂	-7763
▁弁	-7764
▁弧	-7765
▁径	-7766
▁律	-7767
▁忌	-7768
▁怦	-7769
▁恥	-7770
▁愿	-7771
▁慙	-7772
▁應	-7773
▁戒	-7774
▁掫	-7775
▁旭	-7776
▁暉	-7777
▁柧	-7778
▁柯	-7779
▁栓	-7780
▁栫	-7781
▁桜	-7782
▁梛	-7783
▁椀	-7784
▁檪	-7785
▁浚	-7786
▁淺	-7787
▁溟	-7788
▁漬	-7789
▁濟	-7790
▁瀋	-7791
▁煬	-7792
▁状	-7793
▁狆	-7794
▁瑚	-7795
▁甚	-7796
▁男	-7797
▁疱	-7798
▁痣	-7799
▁盾	-7800
▁矜	-7801
▁砺	-7802
▁磊	-7803
▁窕	-7804
▁笊	-7805
▁筐	-7806
▁簽	-7807
▁糀	-7808
▁縟	-7809
▁縫	-7810
▁繖	-7811
▁纐	-7812
▁罕	-7813
▁翅	-7814
▁聚	-7815
▁胝	-7816
▁胸	-7817
▁脆	-7818
▁航	-7819
▁艨	-7820
▁芫	-7821
▁苟	-7822
▁葫	-7823
▁蓍	-7824
▁蓬	-7825
▁藾	-7826
▁蛎	-7827
▁複	-7828
▁觸	-7829
▁誦	-7830
▁譜	-7831
▁跟	-7832
▁踞	-7833
▁躊	-7834
▁軸	-7835
▁軾	-7836
▁輦	-7837
▁輯	-7838
▁輸	-7839
▁輿	-7840
▁辞	-7841
▁追	-7842
▁遑	-7843
▁遮	-7844
▁鄂	-7845
▁鄙	-7846
▁酋	-7847
▁銅	-7848
▁鍍	-7849
▁閘	-7850
▁閲	-7851
▁階	-7852
▁隸	-7853
▁雹	-7854
▁靆	-7855
▁飛	-7856
▁飢	-7857
▁餝	-7858
▁餮	-7859
▁饉	-7860
▁駛	-7861
▁魴	-7862
▁鰕	-7863
▁鰥	-7864
▁鴉	-7865
▁鵐	-7866
▁鶉	-7867
▁鶯	-7868
▁鷁	-7869
▁鷏	-7870
▁麟	-7871
▁麿	-7872
▁鼇	-7873
▁齟	-7874
▁今日はけ	-7875
ホだけど頑張る	-7876
▁5	-7877
▁¶	-7878
▁Η	-7879
▁к	-7880
▁∋	-7881
▁∝	-7882
▁┘	-7883
▁〃	-7884
▁ぇ	-7885
▁丐	-7886
▁中	-7887
▁亘	-7888
▁佛	-7889
▁俾	-7890
▁偶	-7891
▁傳	-7892
▁兀	-7893
▁円	-7894
▁刳	-7895
▁刺	-7896
▁削	-7897
▁剖	-7898
▁剴	-7899
▁劼	-7900
▁匝	-7901
▁咫	-7902
▁哀	-7903
▁唆	-7904
▁唱	-7905
▁啀	-7906
▁嚔	-7907
▁囚	-7908
▁妛	-7909
▁宏	-7910
▁封	-7911
▁崢	-7912
▁左	-7913
▁帛	-7914
▁庶	-7915
▁怖	-7916
▁慵	-7917
▁憊	-7918
▁憎	-7919
▁懃	-7920
▁懾	-7921
▁戯	-7922
▁扶	-7923
▁抉	-7924
▁担	-7925
▁挟	-7926
▁揩	-7927
▁擦	-7928
▁斟	-7929
▁旄	-7930
▁旻	-7931
▁曁	-7932
▁梹	-7933
▁椎	-7934
▁椡	-7935
▁極	-7936
▁樔	-7937
▁樽	-7938
▁欷	-7939
▁殼	-7940
▁毀	-7941
▁氾	-7942
▁沺	-7943
▁泣	-7944
▁潺	-7945
▁瀞	-7946
▁灌	-7947
▁照	-7948
▁燎	-7949
▁瓩	-7950
▁疏	-7951
▁癰	-7952
▁盜	-7953
▁眄	-7954
▁知	-7955
▁碎	-7956
▁碑	-7957
▁磆	-7958
▁祝	-7959
▁禰	-7960
▁秬	-7961
▁稀	-7962
▁竇	-7963
▁竭	-7964
▁籏	-7965
▁糢	-7966
▁糶	-7967
▁糸	-7968
▁紜	-7969
▁縄	-7970
▁罵	-7971
▁肓	-7972
▁股	-7973
▁臘	-7974
▁芋	-7975
▁芳	-7976
▁苧	-7977
▁苳	-7978
▁茖	-7979
▁葭	-7980
▁葵	-7981
▁蕕	-7982
▁蛙	-7983
▁蛮	-7984
▁袿	-7985
▁裹	-7986
▁訊	-7987
▁誉	-7988
▁談	-7989
▁警	-7990
▁貌	-7991
▁蹙	-7992
▁躍	-7993
▁辨	-7994
▁迯	-7995
▁酎	-7996
▁錣	-7997
▁鐃	-7998
▁闥	-7999
▁雖	-8000
▁靈	-8001
▁面	-8002
▁革	-8003
▁領	-8004
▁頬	-8005
▁顏	-8006
▁颪	-8007
▁駢	-8008
▁髯	-8009
▁鬧	-8010
▁鯊	-8011
▁鯏	-8012
▁鰈	-8013
▁鰒	-8014
▁鴻	-8015
▁鵡	-8016
▁鷸	-8017
みろ	-8018
マだけど頑張る	-8019
▁)	-8020
▁m	-8021
▁γ	-8022
▁ζ	-8023
▁э	-8024
▁‡	-8025
▁∞	-8026
▁ゅ	-8027
▁丱	-8028
▁乕	-8029
▁乗	-8030
▁亥	-8031
▁亰	-8032
▁仂	-8033
▁他	-8034
▁何	-8035
▁倭	-8036
▁備	-8037
▁八	-8038
▁兵	-8039
▁剤	-8040
▁劫	-8041
▁匕	-8042
▁匳	-8043
▁升	-8044
▁含	-8045
▁告	-8046
▁哂	-8047
▁嚮	-8048
▁圍	-8049
▁墹	-8050
▁壘	-8051
▁売	-8052
▁夕	-8053
▁夭	-8054
▁奘	-8055
▁娑	-8056
▁娟	-8057
▁娥	-8058
▁嫦	-8059
▁宴	-8060
▁審	-8061
▁届	-8062
▁巣	-8063
▁広	-8064
▁徊	-8065
▁必	-8066
▁怙	-8067
▁怪	-8068
▁惨	-8069
▁憑	-8070
▁憚	-8071
▁懆	-8072
▁戴	-8073
▁才	-8074
▁扎	-8075
▁擇	-8076
▁暦	-8077
▁月	-8078
▁杏	-8079
▁杰	-8080
▁杵	-8081
▁栗	-8082
▁梢	-8083
▁棆	-8084
▁椛	-8085
▁検	-8086
▁楚	-8087
▁楴	-8088
▁樞	-8089
▁樢	-8090
▁檎	-8091
▁歔	-8092
▁氣	-8093
▁汐	-8094
▁法	-8095
▁湿	-8096
▁溥	-8097
▁潸	-8098
▁瀁	-8099
▁爛	-8100
▁爭	-8101
▁爺	-8102
▁狗	-8103
▁狙	-8104
▁珪	-8105
▁田	-8106
▁画	-8107
▁畢	-8108
▁畫	-8109
▁疼	-8110
▁痳	-8111
▁瘡	-8112
▁碾	-8113
▁祕	-8114
▁祗	-8115
▁称	-8116
▁移	-8117
▁窿	-8118
▁笛	-8119
▁箜	-8120
▁箭	-8121
▁篌	-8122
▁粗	-8123
▁粹	-8124
▁綱	-8125
▁緕	-8126
▁緝	-8127
▁縱	-8128
▁臙	-8129
▁芝	-8130
▁茨	-8131
▁茶	-8132
▁荅	-8133
▁荘	-8134
▁蓚	-8135
▁蛸	-8136
▁蟄	-8137
▁衆	-8138
▁襃	-8139
▁覆	-8140
▁詁	-8141
▁詆	-8142
▁誼	-8143
▁諾	-8144
▁謖	-8145
▁豪	-8146
▁贄	-8147
▁贈	-8148
▁贓	-8149
▁酖	-8150
▁鉦	-8151
▁錙	-8152
▁録	-8153
▁鍋	-8154
▁鏡	-8155
▁鑽	-8156
▁閂	-8157
▁開	-8158
▁阮	-8159
▁隈	-8160
▁隶	-8161
▁韃	-8162
▁顕	-8163
▁飾	-8164
▁髱	-8165
▁鰻	-8166
▁鱒	-8167
▁鹽	-8168
▁鼈	-8169
ニウ	-8170
ヘム	-8171
え感じ	-8172
▁¢	-8173
▁¬	-8174
▁ε	-8175
▁ρ	-8176
▁Ъ	-8177
▁⊃	-8178
▁┣	-8179
▁■	-8180
▁也	-8181
▁信	-8182
▁倉	-8183
▁偬	-8184
▁儁	-8185
▁刮	-8186
▁剃	-8187
▁剔	-8188
▁勘	-8189
▁厂	-8190
▁史	-8191
▁同	-8192
▁吠	-8193
▁呆	-8194
▁員	-8195
▁善	-8196
▁嘆	-8197
▁嚆	-8198
▁嚠	-8199
▁壊	-8200
▁壜	-8201
▁壽	-8202
▁夸	-8203
▁如	-8204
▁姑	-8205
▁婪	-8206
▁学	-8207
▁孩	-8208
▁宥	-8209
▁宸	-8210
▁寝	-8211
▁已	-8212
▁弃	-8213
▁弄	-8214
▁恩	-8215
▁恫	-8216
▁惴	-8217
▁憫	-8218
▁戊	-8219
▁拂	-8220
▁挑	-8221
▁掌	-8222
▁掘	-8223
▁措	-8224
▁搶	-8225
▁摧	-8226
▁攘	-8227
▁斃	-8228
▁曇	-8229
▁束	-8230
▁枋	-8231
▁栖	-8232
▁棠	-8233
▁椒	-8234
▁槎	-8235
▁檜	-8236
▁殺	-8237
▁氏	-8238
▁汕	-8239
▁洌	-8240
▁淪	-8241
▁清	-8242
▁濁	-8243
▁濠	-8244
▁烝	-8245
▁焔	-8246
▁燠	-8247
▁珂	-8248
▁珈	-8249
▁班	-8250
▁瑪	-8251
▁當	-8252
▁疉	-8253
▁疽	-8254
▁痰	-8255
▁痴	-8256
▁痾	-8257
▁瘟	-8258
▁盖	-8259
▁盟	-8260
▁禎	-8261
▁禝	-8262
▁竜	-8263
▁笂	-8264
▁符	-8265
▁糞	-8266
▁緲	-8267
▁總	-8268
▁羊	-8269
▁羮	-8270
▁耕	-8271
▁聲	-8272
▁肱	-8273
▁胙	-8274
▁脱	-8275
▁膠	-8276
▁膵	-8277
▁苗	-8278
▁萢	-8279
▁蔬	-8280
▁蕣	-8281
▁薤	-8282
▁蚌	-8283
▁蛄	-8284
▁蛉	-8285
▁蜚	-8286
▁蟶	-8287
▁袍	-8288
▁角	-8289
▁觝	-8290
▁訃	-8291
▁諳	-8292
▁豎	-8293
▁豐	-8294
▁貔	-8295
▁貴	-8296
▁賠	-8297
▁賢	-8298
▁赤	-8299
▁遒	-8300
▁部	-8301
▁鋒	-8302
▁鍼	-8303
▁鎖	-8304
▁鎹	-8305
▁閔	-8306
▁随	-8307
▁雷	-8308
▁靭	-8309
▁鞅	-8310
▁颯	-8311
▁髴	-8312
▁魄	-8313
▁鰡	-8314
▁鳫	-8315
▁鴈	-8316
▁鵺	-8317
▁鷯	-8318
みす	-8319
やに	-8320
トル	-8321
ナモ	-8322
て感じ	-8323
▁o	-8324
▁Υ	-8325
▁α	-8326
▁δ	-8327
▁ь	-8328
▁↓	-8329
▁∃	-8330
▁≪	-8331
▁┰	-8332
▁ご	-8333
▁ゾ	-8334
▁ボ	-8335
▁亠	-8336
▁付	-8337
▁低	-8338
▁侯	-8339
▁僂	-8340
▁僥	-8341
▁凪	-8342
▁刈	-8343
▁听	-8344
▁咳	-8345
▁噌	-8346
▁嚏	-8347
▁囓	-8348
▁圀	-8349
▁圭	-8350
▁垪	-8351
▁堀	-8352
▁塘	-8353
▁塢	-8354
▁奮	-8355
▁寄	-8356
▁峪	-8357
▁嵜	-8358
▁嵩	-8359
▁嶽	-8360
▁市	-8361
▁廐	-8362
▁彜	-8363
▁恁	-8364
▁恵	-8365
▁悛	-8366
▁惘	-8367
▁惧	-8368
▁懇	-8369
▁懷	-8370
▁戀	-8371
▁抬	-8372
▁拐	-8373
▁拡	-8374
▁捍	-8375
▁捺	-8376
▁搭	-8377
▁撤	-8378
▁擡	-8379
▁敗	-8380
▁敞	-8381
▁敷	-8382
▁斌	-8383
▁族	-8384
▁昌	-8385
▁晋	-8386
▁杪	-8387
▁柑	-8388
▁桓	-8389
▁梭	-8390
▁榾	-8391
▁樣	-8392
▁檻	-8393
▁池	-8394
▁流	-8395
▁溪	-8396
▁滄	-8397
▁灣	-8398
▁然	-8399
▁牛	-8400
▁特	-8401
▁犬	-8402
▁狠	-8403
▁狡	-8404
▁猖	-8405
▁玲	-8406
▁瑶	-8407
▁瓦	-8408
▁甦	-8409
▁畋	-8410
▁疲	-8411
▁皙	-8412
▁皷	-8413
▁盆	-8414
▁眤	-8415
▁眦	-8416
▁督	-8417
▁瞽	-8418
▁碚	-8419
▁磁	-8420
▁票	-8421
▁章	-8422
▁答	-8423
▁算	-8424
▁糎	-8425
▁紗	-8426
▁紮	-8427
▁絎	-8428
▁緊	-8429
▁缶	-8430
▁翹	-8431
▁耶	-8432
▁臾	-8433
▁艝	-8434
▁艷	-8435
▁茂	-8436
▁茘	-8437
▁茴	-8438
▁菷	-8439
▁蓙	-8440
▁蕀	-8441
▁蕊	-8442
▁藻	-8443
▁蟀	-8444
▁蟲	-8445
▁蠖	-8446
▁裳	-8447
▁覡	-8448
▁訳	-8449
▁誘	-8450
▁讀	-8451
▁讃	-8452
▁賑	-8453
▁蹟	-8454
▁迎	-8455
▁邸	-8456
▁釶	-8457
▁鋩	-8458
▁錯	-8459
▁鐚	-8460
▁離	-8461
▁霊	-8462
▁鞭	-8463
▁頒	-8464
▁飽	-8465
▁駆	-8466
▁髏	-8467
▁鬩	-8468
▁鶫	-8469
▁麥	-8470
▁鼻	-8471
しむ	-8472
やね	-8473
やら	-8474
セア	-8475
▁$	-8476
▁3	-8477
▁O	-8478
▁t	-8479
▁У	-8480
▁ц	-8481
▁†	-8482
▁≦	-8483
▁━	-8484
▁└	-8485
▁□	-8486
▁♂	-8487
▁。	-8488
▁〇	-8489
▁ぜ	-8490
▁バ	-8491
▁久	-8492
▁事	-8493
▁仏	-8494
▁儔	-8495
▁凜	-8496
▁力	-8497
▁叶	-8498
▁哄	-8499
▁喰	-8500
▁圃	-8501
▁園	-8502
▁坊	-8503
▁坪	-8504
▁垤	-8505
▁奕	-8506
▁奨	-8507
▁姥	-8508
▁孜	-8509
▁密	-8510
▁将	-8511
▁就	-8512
▁屍	-8513
▁峇	-8514
▁嶄	-8515
▁己	-8516
▁平	-8517
▁弦	-8518
▁弸	-8519
▁從	-8520
▁恣	-8521
▁惠	-8522
▁愉	-8523
▁慫	-8524
▁懽	-8525
▁投	-8526
▁抱	-8527
▁押	-8528
▁揮	-8529
▁摺	-8530
▁擅	-8531
▁攸	-8532
▁敕	-8533
▁斛	-8534
▁晦	-8535
▁普	-8536
▁杲	-8537
▁析	-8538
▁果	-8539
▁枹	-8540
▁染	-8541
▁格	-8542
▁框	-8543
▁棗	-8544
▁楝	-8545
▁槙	-8546
▁槭	-8547
▁檳	-8548
▁死	-8549
▁油	-8550
▁泅	-8551
▁湊	-8552
▁湍	-8553
▁湲	-8554
▁源	-8555
▁焼	-8556
▁煥	-8557
▁爾	-8558
▁牴	-8559
▁犲	-8560
▁獰	-8561
▁理	-8562
▁琥	-8563
▁瑠	-8564
▁甑	-8565
▁疾	-8566
▁癜	-8567
▁白	-8568
▁眈	-8569
▁県	-8570
▁睨	-8571
▁瞳	-8572
▁石	-8573
▁硯	-8574
▁確	-8575
▁示	-8576
▁穩	-8577
▁窺	-8578
▁竰	-8579
▁筱	-8580
▁箍	-8581
▁篁	-8582
▁糴	-8583
▁絵	-8584
▁網	-8585
▁縷	-8586
▁羯	-8587
▁耽	-8588
▁背	-8589
▁脾	-8590
▁膃	-8591
▁苹	-8592
▁茎	-8593
▁荵	-8594
▁萸	-8595
▁葹	-8596
▁蓑	-8597
▁蔡	-8598
▁蕪	-8599
▁處	-8600
▁蚪	-8601
▁蝙	-8602
▁覈	-8603
▁触	-8604
▁誇	-8605
▁誠	-8606
▁誤	-8607
▁誨	-8608
▁請	-8609
▁諏	-8610
▁議	-8611
▁讌	-8612
▁贐	-8613
▁跖	-8614
▁辟	-8615
▁込	-8616
▁迂	-8617
▁返	-8618
▁迹	-8619
▁逆	-8620
▁逗	-8621
▁速	-8622
▁邑	-8623
▁鉄	-8624
▁鉾	-8625
▁閤	-8626
▁閾	-8627
▁闊	-8628
▁陵	-8629
▁隧	-8630
▁雄	-8631
▁霑	-8632
▁靂	-8633
▁青	-8634
▁鞦	-8635
▁韶	-8636
▁頚	-8637
▁饐	-8638
▁香	-8639
▁鯖	-8640
▁鷽	-8641
▁麈	-8642
▁麪	-8643
かち	-8644
テル	-8645
ニル	-8646
フマ	-8647
▁..	-8648
▁今日はん	-8649
▁@	-8650
▁h	-8651
▁Ζ	-8652
▁Д	-8653
▁∽	-8654
▁≒	-8655
▁≫	-8656
▁じ	-8657
▁ギ	-8658
▁丘	-8659
▁于	-8660
▁亙	-8661
▁估	-8662
▁佳	-8663
▁俗	-8664
▁倥	-8665
▁倬	-8666
▁凌	-8667
▁剞	-8668
▁卍	-8669
▁厳	-8670
▁呂	-8671
▁咏	-8672
▁哨	-8673
▁唐	-8674
▁唾	-8675
▁商	-8676
▁址	-8677
▁塔	-8678
▁奚	-8679
▁奴	-8680
▁妊	-8681
▁妲	-8682
▁娯	-8683
▁娶	-8684
▁嬖	-8685
▁安	-8686
▁宝	-8687
▁客	-8688
▁崇	-8689
▁嶌	-8690
▁帆	-8691
▁庖	-8692
▁彑	-8693
▁恐	-8694
▁患	-8695
▁悲	-8696
▁惱	-8697
▁惺	-8698
▁懈	-8699
▁扈	-8700
▁抂	-8701
▁拮	-8702
▁拱	-8703
▁授	-8704
▁損	-8705
▁撈	-8706
▁撞	-8707
▁據	-8708
▁收	-8709
▁斜	-8710
▁斬	-8711
▁晉	-8712
▁暾	-8713
▁曦	-8714
▁枡	-8715
▁梶	-8716
▁棔	-8717
▁椈	-8718
▁榜	-8719
▁槧	-8720
▁歴	-8721
▁淋	-8722
▁漏	-8723
▁漲	-8724
▁潛	-8725
▁熟	-8726
▁燐	-8727
▁珞	-8728
▁琢	-8729
▁瓰	-8730
▁甎	-8731
▁疂	-8732
▁疆	-8733
▁痼	-8734
▁碩	-8735
▁礙	-8736
▁祐	-8737
▁禾	-8738
▁笋	-8739
▁笙	-8740
▁箕	-8741
▁篳	-8742
▁簀	-8743
▁絲	-8744
▁縹	-8745
▁繻	-8746
▁纃	-8747
▁罌	-8748
▁罸	-8749
▁羲	-8750
▁耀	-8751
▁耙	-8752
▁聨	-8753
▁肉	-8754
▁肚	-8755
▁肬	-8756
▁脯	-8757
▁腕	-8758
▁膏	-8759
▁草	-8760
▁蓮	-8761
▁蜂	-8762
▁蝶	-8763
▁蠹	-8764
▁褒	-8765
▁襭	-8766
▁諡	-8767
▁護	-8768
▁豌	-8769
▁貎	-8770
▁貶	-8771
▁賭	-8772
▁赴	-8773
▁轉	-8774
▁逡	-8775
▁週	-8776
▁遵	-8777
▁選	-8778
▁郤	-8779
▁酒	-8780
▁酲	-8781
▁醺	-8782
▁銛	-8783
▁闍	-8784
▁陳	-8785
▁鞠	-8786
▁顴	-8787
▁駭	-8788
▁驢	-8789
▁鯣	-8790
▁鰤	-8791
▁鳰	-8792
▁鵞	-8793
▁黝	-8794
▁黷	-8795
▁黼	-8796
▁黽	-8797
▁龍	-8798
せち	-8799
なわ	-8800
りち	-8801
ニオ	-8802
あ感じ	-8803
▁2	-8804
▁4	-8805
▁Α	-8806
▁Ы	-8807
▁Ю	-8808
▁☆	-8809
▁】	-8810
▁〒	-8811
▁が	-8812
▁串	-8813
▁五	-8814
▁享	-8815
▁亳	-8816
▁伺	-8817
▁例	-8818
▁倡	-8819
▁傘	-8820
▁傴	-8821
▁公	-8822
▁冱	-8823
▁冷	-8824
▁凖	-8825
▁刀	-8826
▁刧	-8827
▁劈	-8828
▁匱	-8829
▁卸	-8830
▁吊	-8831
▁命	-8832
▁喞	-8833
▁垂	-8834
▁塚	-8835
▁塞	-8836
▁士	-8837
▁多	-8838
▁娠	-8839
▁對	-8840
▁局	-8841
▁崕	-8842
▁巻	-8843
▁幼	-8844
▁庫	-8845
▁彝	-8846
▁彷	-8847
▁得	-8848
▁徘	-8849
▁心	-8850
▁慮	-8851
▁慷	-8852
▁扁	-8853
▁技	-8854
▁抒	-8855
▁捲	-8856
▁接	-8857
▁掲	-8858
▁搓	-8859
▁旬	-8860
▁曠	-8861
▁核	-8862
▁楫	-8863
▁橋	-8864
▁歃	-8865
▁歐	-8866
▁歿	-8867
▁浩	-8868
▁湮	-8869
▁滅	-8870
▁漕	-8871
▁濛	-8872
▁畆	-8873
▁病	-8874
▁皺	-8875
▁短	-8876
▁硅	-8877
▁磐	-8878
▁祿	-8879
▁穀	-8880
▁積	-8881
▁窯	-8882
▁竢	-8883
▁竿	-8884
▁笨	-8885
▁粟	-8886
▁絽	-8887
▁纜	-8888
▁罧	-8889
▁罰	-8890
▁羅	-8891
▁胴	-8892
▁莵	-8893
▁蔚	-8894
▁蔽	-8895
▁藷	-8896
▁蘢	-8897
▁蜘	-8898
▁蟇	-8899
▁衞	-8900
▁覇	-8901
▁詩	-8902
▁誓	-8903
▁諚	-8904
▁證	-8905
▁貰	-8906
▁賞	-8907
▁赱	-8908
▁跫	-8909
▁路	-8910
▁蹄	-8911
▁輩	-8912
▁遡	-8913
▁邯	-8914
▁鋭	-8915
▁鑾	-8916
▁閭	-8917
▁険	-8918
▁隹	-8919
▁靖	-8920
▁顳	-8921
▁颱	-8922
▁馮	-8923
▁鰐	-8924
▁鰯	-8925
▁鰰	-8926
から	-8927
ナオ	-8928
へ感じ	-8929
▁z	-8930
▁ш	-8931
▁┗	-8932
▁┠	-8933
▁什	-8934
▁佐	-8935
▁俟	-8936
▁傲	-8937
▁傷	-8938
▁兩	-8939
▁列	-8940
▁剰	-8941
▁劇	-8942
▁叉	-8943
▁吋	-8944
▁否	-8945
▁呷	-8946
▁啼	-8947
▁國	-8948
▁坦	-8949
▁型	-8950
▁垣	-8951
▁垳	-8952
▁報	-8953
▁壥	-8954
▁夙	-8955
▁夜	-8956
▁奈	-8957
▁妥	-8958
▁姜	-8959
▁婦	-8960
▁嫣	-8961
▁嬶	-8962
▁実	-8963
▁寺	-8964
▁尢	-8965
▁崋	-8966
▁差	-8967
▁巷	-8968
▁弔	-8969
▁彖	-8970
▁彰	-8971
▁徂	-8972
▁徽	-8973
▁恍	-8974
▁恙	-8975
▁恤	-8976
▁愁	-8977
▁慊	-8978
▁憖	-8979
▁戔	-8980
▁摘	-8981
▁撰	-8982
▁擣	-8983
▁昧	-8984
▁晩	-8985
▁曳	-8986
▁朔	-8987
▁杼	-8988
▁枚	-8989
▁桂	-8990
▁楜	-8991
▁樛	-8992
▁權	-8993
▁民	-8994
▁渓	-8995
▁渭	-8996
▁漿	-8997
▁瀚	-8998
▁熙	-8999
▁燥	-9000
▁爵	-9001
▁父	-9002
▁狒	-9003
▁狼	-9004
▁琺	-9005
▁甞	-9006
▁畄	-9007
▁矩	-9008
▁硝	-9009
▁碁	-9010
▁禽	-9011
▁秩	-9012
▁稙	-9013
▁稼	-9014
▁穎	-9015
▁笆	-9016
▁粃	-9017
▁粢	-9018
▁緑	-9019
▁缺	-9020
▁耆	-9021
▁脉	-9022
▁臓	-9023
▁茣	-9024
▁莢	-9025
▁董	-9026
▁葷	-9027
▁蒄	-9028
▁蒲	-9029
▁蒹	-9030
▁薨	-9031
▁藤	-9032
▁蘂	-9033
▁虻	-9034
▁蛆	-9035
▁袋	-9036
▁褄	-9037
▁言	-9038
▁評	-9039
▁詛	-9040
▁謦	-9041
▁軫	-9042
▁輙	-9043
▁逐	-9044
▁逸	-9045
▁遯	-9046
▁遺	-9047
▁郊	-9048
▁鋺	-9049
▁錆	-9050
▁鏃	-9051
▁閙	-9052
▁闢	-9053
▁霰	-9054
▁靄	-9055
▁鞳	-9056
▁頃	-9057
▁飜	-9058
▁食	-9059
▁骨	-9060
▁鬲	-9061
▁鵲	-9062
▁鶲	-9063
▁鶺	-9064
▁麦	-9065
▁黙	-9066
▁點	-9067
▁齲	-9068
くす	-9069
ぬわ	-9070
はら	-9071
セモ	-9072
トス	-9073
▁#	-9074
▁а	-9075
▁’	-9076
▁┓	-9077
▁┛	-9078
▁┻	-9079
▁♀	-9080
▁づ	-9081
▁び	-9082
▁ゑ	-9083
▁ヵ	-9084
▁世	-9085
▁件	-9086
▁伉	-9087
▁伎	-9088
▁佚	-9089
▁俚	-9090
▁几	-9091
▁剏	-9092
▁功	-9093
▁劵	-9094
▁卅	-9095
▁叫	-9096
▁呪	-9097
▁和	-9098
▁哩	-9099
▁哺	-9100
▁噬	-9101
▁奢	-9102
▁子	-9103
▁寡	-9104
▁居	-9105
▁峩	-9106
▁崖	-9107
▁幕	-9108
▁怏	-9109
▁怱	-9110
▁態	-9111
▁慯	-9112
▁憧	-9113
▁拉	-9114
▁拊	-9115
▁擯	-9116
▁攫	-9117
▁斫	-9118
▁昂	-9119
▁昵	-9120
▁朦	-9121
▁杖	-9122
▁枉	-9123
▁枢	-9124
▁桝	-9125
▁標	-9126
▁段	-9127
▁決	-9128
▁汽	-9129
▁沛	-9130
▁活	-9131
▁淅	-9132
▁淳	-9133
▁漉	-9134
▁炙	-9135
▁爆	-9136
▁牾	-9137
▁猩	-9138
▁獲	-9139
▁瓶	-9140
▁矮	-9141
▁稱	-9142
▁策	-9143
▁筮	-9144
▁籟	-9145
▁納	-9146
▁綜	-9147
▁綢	-9148
▁縡	-9149
▁羔	-9150
▁群	-9151
▁耋	-9152
▁舅	-9153
▁舛	-9154
▁荳	-9155
▁莓	-9156
▁華	-9157
▁萎	-9158
▁薄	-9159
▁蚣	-9160
▁蛤	-9161
▁蜑	-9162
▁蝮	-9163
▁蠶	-9164
▁要	-9165
▁誌	-9166
▁譌	-9167
▁足	-9168
▁踊	-9169
▁踵	-9170
▁逑	-9171
▁醍	-9172
▁鈍	-9173
▁鈕	-9174
▁鍬	-9175
▁附	-9176
▁陌	-9177
▁院	-9178
▁陷	-9179
▁鞫	-9180
▁顛	-9181
▁飫	-9182
▁饌	-9183
▁駕	-9184
▁駟	-9185
▁驍	-9186
▁魂	-9187
▁鳳	-9188
▁鴪	-9189
▁鼓	-9190
きす	-9191
ま感じ	-9192
イだけど頑張る	-9193
▁A	-9194
▁C	-9195
▁§	-9196
▁П	-9197
▁┝	-9198
▁◎	-9199
▁ェ	-9200
▁丕	-9201
▁互	-9202
▁亟	-9203
▁仇	-9204
▁兒	-9205
▁前	-9206
▁卿	-9207
▁喫	-9208
▁嘶	-9209
▁團	-9210
▁増	-9211
▁墾	-9212
▁壌	-9213
▁嫂	-9214
▁存	-9215
▁宗	-9216
▁寉	-9217
▁寳	-9218
▁岳	-9219
▁島	-9220
▁帽	-9221
▁征	-9222
▁循	-9223
▁志	-9224
▁怛	-9225
▁惆	-9226
▁惇	-9227
▁惶	-9228
▁懍	-9229
▁敢	-9230
▁施	-9231
▁是	-9232
▁暫	-9233
▁曼	-9234
▁會	-9235
▁朋	-9236
▁朽	-9237
▁杞	-9238
▁楯	-9239
▁槓	-9240
▁槽	-9241
▁橲	-9242
▁毘	-9243
▁淒	-9244
▁渾	-9245
▁漂	-9246
▁漸	-9247
▁潟	-9248
▁熬	-9249
▁燔	-9250
▁燻	-9251
▁爍	-9252
▁狹	-9253
▁瑰	-9254
▁瓜	-9255
▁甓	-9256
▁甕	-9257
▁畧	-9258
▁疳	-9259
▁瞶	-9260
▁祥	-9261
▁秡	-9262
▁穂	-9263
▁窮	-9264
▁笈	-9265
▁絋	-9266
▁綯	-9267
▁緒	-9268
▁翊	-9269
▁肛	-9270
▁膝	-9271
▁舸	-9272
▁艱	-9273
▁茸	-9274
▁蕃	-9275
▁蕈	-9276
▁蕎	-9277
▁薀	-9278
▁蛾	-9279
▁衒	-9280
▁販	-9281
▁蹉	-9282
▁軻	-9283
▁輛	-9284
▁連	-9285
▁鄒	-9286
▁醫	-9287
▁里	-9288
▁釡	-9289
▁鏐	-9290
▁鐸	-9291
▁鑚	-9292
▁钁	-9293
▁門	-9294
▁阻	-9295
▁隔	-9296
▁隗	-9297
▁靤	-9298
▁鞏	-9299
▁飩	-9300
▁饗	-9301
▁體	-9302
▁鷭	-9303
▁鹹	-9304
▁麼	-9305
▁黒	-9306
しろ	-9307
トタ	-9308
ニサ	-9309
▁N	-9310
▁Ε	-9311
▁π	-9312
▁Ж	-9313
▁з	-9314
▁и	-9315
▁↑	-9316
▁⇒	-9317
▁ぶ	-9318
▁ッ	-9319
▁ヮ	-9320
▁両	-9321
▁亜	-9322
▁伝	-9323
▁似	-9324
▁佞	-9325
▁保	-9326
▁値	-9327
▁偽	-9328
▁僞	-9329
▁剳	-9330
▁勇	-9331
▁区	-9332
▁厘	-9333
▁厭	-9334
▁口	-9335
▁叩	-9336
▁向	-9337
▁呵	-9338
▁堯	-9339
▁壞	-9340
▁姿	-9341
▁孥	-9342
▁寨	-9343
▁岌	-9344
▁峯	-9345
▁峺	-9346
▁嵋	-9347
▁嶺	-9348
▁徐	-9349
▁忖	-9350
▁怎	-9351
▁愍	-9352
▁愧	-9353
▁慱	-9354
▁成	-9355
▁手	-9356
▁扨	-9357
▁拗	-9358
▁拜	-9359
▁敵	-9360
▁望	-9361
▁東	-9362
▁校	-9363
▁椥	-9364
▁榁	-9365
▁槹	-9366
▁横	-9367
▁橄	-9368
▁櫃	-9369
▁気	-9370
▁沒	-9371
▁泛	-9372
▁渺	-9373
▁灸	-9374
▁炭	-9375
▁畑	-9376
▁盈	-9377
▁盤	-9378
▁眠	-9379
▁矚	-9380
▁秉	-9381
▁稜	-9382
▁竝	-9383
▁競	-9384
▁笳	-9385
▁篦	-9386
▁紳	-9387
▁縣	-9388
▁縦	-9389
▁罍	-9390
▁脅	-9391
▁腫	-9392
▁舗	-9393
▁苺	-9394
▁葆	-9395
▁蔆	-9396
▁蛬	-9397
▁衝	-9398
▁襤	-9399
▁覲	-9400
▁誡	-9401
▁譚	-9402
▁譲	-9403
▁豸	-9404
▁跂	-9405
▁轅	-9406
▁轍	-9407
▁酪	-9408
▁釆	-9409
▁鎗	-9410
▁雲	-9411
▁颶	-9412
▁饒	-9413
▁驫	-9414
▁骰	-9415
▁髞	-9416
▁鬢	-9417
▁鬼	-9418
▁鯀	-9419
▁鰺	-9420
▁黎	-9421
▁黶	-9422
▁齋	-9423
▁龜	-9424
▁龝	-9425
もわ	-9426
ケサ	-9427
テミ	-9428
ヒエ	-9429
▁;	-9430
▁S	-9431
▁U	-9432
▁Э	-9433
▁я	-9434
▁〕	-9435
▁〜	-9436
▁亀	-9437
▁倒	-9438
▁偖	-9439
▁傭	-9440
▁册	-9441
▁冐	-9442
▁凍	-9443
▁勲	-9444
▁勺	-9445
▁匙	-9446
▁取	-9447
▁司	-9448
▁吐	-9449
▁呟	-9450
▁咥	-9451
▁哈	-9452
▁哽	-9453
▁噂	-9454
▁圉	-9455
▁坎	-9456
▁壓	-9457
▁壬	-9458
▁嫁	-9459
▁嫖	-9460
▁嫗	-9461
▁宕	-9462
▁宛	-9463
▁家	-9464
▁寮	-9465
▁尨	-9466
▁屆	-9467
▁峻	-9468
▁嵎	-9469
▁廴	-9470
▁廸	-9471
▁悪	-9472
▁憇	-9473
▁拒	-9474
▁招	-9475
▁拷	-9476
▁摩	-9477
▁撕	-9478
▁攝	-9479
▁明	-9480
▁替	-9481
▁杢	-9482
▁枇	-9483
▁枴	-9484
▁棉	-9485
▁槲	-9486
▁樊	-9487
▁檢	-9488
▁檬	-9489
▁欟	-9490
▁殊	-9491
▁沸	-9492
▁涵	-9493
▁湧	-9494
▁焉	-9495
▁煉	-9496
▁瑁	-9497
▁璽	-9498
▁痕	-9499
▁瘋	-9500
▁癶	-9501
▁眸	-9502
▁眺	-9503
▁矢	-9504
▁祇	-9505
▁祢	-9506
▁稗	-9507
▁穉	-9508
▁等	-9509
▁筒	-9510
▁系	-9511
▁繊	-9512
▁繞	-9513
▁罅	-9514
▁网	-9515
▁聿	-9516
▁膂	-9517
▁舷	-9518
▁艟	-9519
▁苣	-9520
▁萌	-9521
▁葬	-9522
▁蓁	-9523
▁蓖	-9524
▁蔟	-9525
▁藍	-9526
▁蛔	-9527
▁襯	-9528
▁諤	-9529
▁谿	-9530
▁賂	-9531
▁輕	-9532
▁釋	-9533
▁野	-9534
▁閨	-9535
▁降	-9536
▁陟	-9537
▁隲	-9538
▁隻	-9539
▁髀	-9540
▁鬯	-9541
▁鮭	-9542
▁鮹	-9543
▁鰌	-9544
▁鰓	-9545
▁鴒	-9546
▁鴨	-9547
▁鸛	-9548
けえ	-9549
しふ	-9550
ひえ	-9551
みに	-9552
もす	-9553
テタ	-9554
ニス	-9555
ユロ	-9556
コだけど頑張る	-9557
▁a	-9558
▁ヾ	-9559
▁之	-9560
▁倦	-9561
▁偵	-9562
▁助	-9563
▁務	-9564
▁卓	-9565
▁嗇	-9566
▁噐	-9567
▁噸	-9568
▁圖	-9569
▁坑	-9570
▁堰	-9571
▁娵	-9572
▁孝	-9573
▁孰	-9574
▁崎	-9575
▁巍	-9576
▁巒	-9577
▁廈	-9578
▁弊	-9579
▁彎	-9580
▁彡	-9581
▁恠	-9582
▁悒	-9583
▁悦	-9584
▁愾	-9585
▁托	-9586
▁揺	-9587
▁早	-9588
▁朷	-9589
▁杉	-9590
▁某	-9591
▁械	-9592
▁榔	-9593
▁橈	-9594
▁檀	-9595
▁水	-9596
▁涛	-9597
▁湶	-9598
▁滬	-9599
▁炬	-9600
▁煢	-9601
▁煤	-9602
▁猝	-9603
▁猶	-9604
▁獏	-9605
▁甅	-9606
▁畍	-9607
▁畭	-9608
▁痊	-9609
▁眞	-9610
▁笞	-9611
▁箝	-9612
▁給	-9613
▁綏	-9614
▁羶	-9615
▁聆	-9616
▁肖	-9617
▁肢	-9618
▁舮	-9619
▁莇	-9620
▁薗	-9621
▁蜃	-9622
▁衽	-9623
▁觴	-9624
▁譛	-9625
▁讚	-9626
▁貅	-9627
▁跨	-9628
▁迴	-9629
▁邦	-9630
▁醸	-9631
▁釁	-9632
▁鉞	-9633
▁鎰	-9634
▁陜	-9635
▁隣	-9636
▁鞘	-9637
▁頂	-9638
▁騎	-9639
▁騰	-9640
のほ	-9641
みら	-9642
ゆつ	-9643
トウ	-9644
ネノ	-9645
ヘア	-9646
ヘミ	-9647
ンマ	-9648
▁+	-9649
▁Y	-9650
▁{	-9651
▁ψ	-9652
▁′	-9653
▁★	-9654
▁『	-9655
▁乖	-9656
▁伍	-9657
▁佩	-9658
▁俯	-9659
▁俵	-9660
▁再	-9661
▁凸	-9662
▁卮	-9663
▁古	-9664
▁呈	-9665
▁呉	-9666
▁喨	-9667
▁單	-9668
▁四	-9669
▁坡	-9670
▁奄	-9671
▁寐	-9672
▁峙	-9673
▁巉	-9674
▁巾	-9675
▁幡	-9676
▁座	-9677
▁徼	-9678
▁忸	-9679
▁怺	-9680
▁惣	-9681
▁慨	-9682
▁憬	-9683
▁戳	-9684
▁承	-9685
▁抃	-9686
▁拇	-9687
▁挨	-9688
▁携	-9689
▁攣	-9690
▁旺	-9691
▁枕	-9692
▁條	-9693
▁棋	-9694
▁椶	-9695
▁楕	-9696
▁楾	-9697
▁殷	-9698
▁毎	-9699
▁求	-9700
▁沿	-9701
▁潔	-9702
▁潰	-9703
▁濳	-9704
▁瓣	-9705
▁瓱	-9706
▁盡	-9707
▁眇	-9708
▁睚	-9709
▁砒	-9710
▁磴	-9711
▁秧	-9712
▁稲	-9713
▁穃	-9714
▁穹	-9715
▁站	-9716
▁竪	-9717
▁粲	-9718
▁紆	-9719
▁縮	-9720
▁繪	-9721
▁胛	-9722
▁腮	-9723
▁膰	-9724
▁芟	-9725
▁芬	-9726
▁莞	-9727
▁菽	-9728
▁藕	-9729
▁虎	-9730
▁袒	-9731
▁褶	-9732
▁註	-9733
▁諒	-9734
▁讙	-9735
▁賣	-9736
▁贍	-9737
▁走	-9738
▁蹤	-9739
▁述	-9740
▁遇	-9741
▁酣	-9742
▁錠	-9743
▁鍄	-9744
▁鎧	-9745
▁鏗	-9746
▁鏝	-9747
▁鑪	-9748
▁関	-9749
▁阜	-9750
▁陸	-9751
▁陽	-9752
▁隘	-9753
▁雜	-9754
▁餠	-9755
▁駄	-9756
▁騏	-9757
▁驥	-9758
▁髦	-9759
▁鱠	-9760
きち	-9761
きて	-9762
しち	-9763
せす	-9764
せろ	-9765
めわ	-9766
めを	-9767
もろ	-9768
んち	-9769
テア	-9770
ヒル	-9771
ヘモ	-9772
ヘラ	-9773
ユル	-9774
む感じ	-9775
▁...	-9776
▁今日はは	-9777
▁q	-9778
▁Σ	-9779
▁Я	-9780
▁ё	-9781
▁ば	-9782
▁ヶ	-9783
▁丞	-9784
▁倔	-9785
▁傅	-9786
▁售	-9787
▁喩	-9788
▁噫	-9789
▁圈	-9790
▁壗	-9791
▁夂	-9792
▁妝	-9793
▁婬	-9794
▁幻	-9795
▁建	-9796
▁弉	-9797
▁弘	-9798
▁応	-9799
▁恚	-9800
▁情	-9801
▁懦	-9802
▁截	-9803
▁抖	-9804
▁按	-9805
▁攵	-9806
▁晨	-9807
▁曷	-9808
▁枌	-9809
▁栽	-9810
▁桐	-9811
▁櫪	-9812
▁沱	-9813
▁泡	-9814
▁洸	-9815
▁煽	-9816
▁燕	-9817
▁牲	-9818
▁牽	-9819
▁猫	-9820
▁球	-9821
▁皚	-9822
▁矛	-9823
▁矼	-9824
▁窖	-9825
▁篇	-9826
▁籘	-9827
▁糂	-9828
▁紺	-9829
▁綛	-9830
▁綬	-9831
▁縢	-9832
▁羹	-9833
▁考	-9834
▁耡	-9835
▁肇	-9836
▁肥	-9837
▁膊	-9838
▁艘	-9839
▁苦	-9840
▁蒋	-9841
▁規	-9842
▁課	-9843
▁購	-9844
▁趨	-9845
▁蹣	-9846
▁辜	-9847
▁逍	-9848
▁逧	-9849
▁酘	-9850
▁醐	-9851
▁釘	-9852
▁防	-9853
▁陪	-9854
▁隆	-9855
▁隊	-9856
▁隼	-9857
▁鞐	-9858
▁騒	-9859
▁驚	-9860
▁鬪	-9861
▁魏	-9862
▁鰭	-9863
▁鶚	-9864
▁鷦	-9865
せわ	-9866
のて	-9867
やえ	-9868
ゆね	-9869
ニヲ	-9870
ノだけど頑張る	-9871
ムだけど頑張る	-9872
▁I	-9873
▁≧	-9874
▁┯	-9875
▁交	-9876
▁仮	-9877
▁俛	-9878
▁僵	-9879
▁冪	-9880
▁凱	-9881
▁匚	-9882
▁南	-9883
▁吻	-9884
▁嗣	-9885
▁埓	-9886
▁墻	-9887
▁妾	-9888
▁嫻	-9889
▁嵌	-9890
▁嵶	-9891
▁幤	-9892
▁幺	-9893
▁弟	-9894
▁徹	-9895
▁憶	-9896
▁戛	-9897
▁捧	-9898
▁掛	-9899
▁旅	-9900
▁曖	-9901
▁根	-9902
▁榛	-9903
▁橇	-9904
▁汲	-9905
▁泰	-9906
▁涯	-9907
▁済	-9908
▁湘	-9909
▁澎	-9910
▁濮	-9911
▁濶	-9912
▁熈	-9913
▁牋	-9914
▁犇	-9915
▁犒	-9916
▁犢	-9917
▁皓	-9918
▁盒	-9919
▁砧	-9920
▁糯	-9921
▁絏	-9922
▁縞	-9923
▁績	-9924
▁繩	-9925
▁胆	-9926
▁膤	-9927
▁膽	-9928
▁舞	-9929
▁苔	-9930
▁莚	-9931
▁薦	-9932
▁衂	-9933
▁衫	-9934
▁褻	-9935
▁誂	-9936
▁迥	-9937
▁醴	-9938
▁釣	-9939
▁釦	-9940
▁鋏	-9941
▁鐶	-9942
▁閻	-9943
▁隕	-9944
▁顯	-9945
▁飃	-9946
▁飯	-9947
▁餡	-9948
▁鱸	-9949
▁麺	-9950
▁黜	-9951
セイ	-9952
セハ	-9953
チタ	-9954
テオ	-9955
ニミ	-9956
ネレ	-9957
ヨマ	-9958
▁.	-9959
▁j	-9960
▁£	-9961
▁Н	-9962
▁┴	-9963
▁丸	-9964
▁倣	-9965
▁具	-9966
▁匂	-9967
▁又	-9968
▁可	-9969
▁唔	-9970
▁唸	-9971
▁嘴	-9972
▁困	-9973
▁坂	-9974
▁執	-9975
▁夛	-9976
▁始	-9977
▁展	-9978
▁屹	-9979
▁従	-9980
▁恊	-9981
▁恕	-9982
▁抹	-9983
▁捶	-9984
▁擬	-9985
▁楠	-9986
▁槃	-9987
▁歉	-9988
▁毛	-9989
▁沌	-9990
▁泱	-9991
▁涌	-9992
▁淡	-9993
▁滋	-9994
▁漆	-9995
▁演	-9996
▁炯	-9997
▁点	-9998
▁焜	-9999
▁爽	-10000
▁猾	-10001
▁瑜	-10002
▁畴	-10003
▁疫	-10004
▁瞿	-10005
▁稻	-10006
▁竸	-10007
▁筺	-10008
▁簷	-10009
▁簾	-10010
▁紙	-10011
▁累	-10012
▁継	-10013
▁罐	-10014
▁義	-10015
▁耜	-10016
▁聡	-10017
▁聴	-10018
▁脂	-10019
▁膚	-10020
▁舁	-10021
▁苞	-10022
▁英	-10023
▁菌	-10024
▁蒔	-10025
▁蕁	-10026
▁虔	-10027
▁蚫	-10028
▁蠍	-10029
▁裨	-10030
▁襌	-10031
▁覬	-10032
▁誰	-10033
▁調	-10034
▁貘	-10035
▁賚	-10036
▁越	-10037
▁郁	-10038
▁鈬	-10039
▁鉤	-10040
▁陛	-10041
▁鬱	-10042
▁鰄	-10043
▁鶩	-10044
かえ	-10045
ひら	-10046
ひろ	-10047
やた	-10048
ケル	-10049
ニマ	-10050
ネホ	-10051
ヘル	-10052
▁\	-10053
▁╂	-10054
▁乙	-10055
▁乞	-10056
▁了	-10057
▁冏	-10058
▁処	-10059
▁剋	-10060
▁勒	-10061
▁匡	-10062
▁叔	-10063
▁咢	-10064
▁囗	-10065
▁圜	-10066
▁嬲	-10067
▁宋	-10068
▁宙	-10069
▁寛	-10070
▁庸	-10071
▁廃	-10072
▁廏	-10073
▁忙	-10074
▁忠	-10075
▁愽	-10076
▁慳	-10077
▁扠	-10078
▁拶	-10079
▁撒	-10080
▁材	-10081
▁杙	-10082
▁桎	-10083
▁植	-10084
▁榑	-10085
▁榲	-10086
▁欽	-10087
▁母	-10088
▁汨	-10089
▁渕	-10090
▁渡	-10091
▁渣	-10092
▁爻	-10093
▁独	-10094
▁琿	-10095
▁瑳	-10096
▁畩	-10097
▁痙	-10098
▁癸	-10099
▁磋	-10100
▁租	-10101
▁竕	-10102
▁絆	-10103
▁縺	-10104
▁芥	-10105
▁茉	-10106
▁茲	-10107
▁菎	-10108
▁薐	-10109
▁蛋	-10110
▁蟻	-10111
▁譖	-10112
▁識	-10113
▁貫	-10114
▁趙	-10115
▁蹈	-10116
▁邂	-10117
▁酩	-10118
▁釧	-10119
▁閖	-10120
▁閥	-10121
▁隅	-10122
▁隨	-10123
▁靼	-10124
▁駁	-10125
▁駿	-10126
▁髷	-10127
▁鬚	-10128
▁鬟	-10129
▁鮫	-10130
なへ	-10131
のま	-10132
めね	-10133
やろ	-10134
ゆえ	-10135
トオ	-10136
ナキ	-10137
ナコ	-10138
ヌミ	-10139
ネロ	-10140
ヘイ	-10141
ヨス	-10142
▁Π	-10143
▁ー	-10144
▁亮	-10145
▁令	-10146
▁儂	-10147
▁劃	-10148
▁卉	-10149
▁嘘	-10150
▁嚴	-10151
▁埖	-10152
▁基	-10153
▁夐	-10154
▁妁	-10155
▁孺	-10156
▁帋	-10157
▁帯	-10158
▁弓	-10159
▁弯	-10160
▁当	-10161
▁旆	-10162
▁昴	-10163
▁暖	-10164
▁暢	-10165
▁柩	-10166
▁栄	-10167
▁桀	-10168
▁桾	-10169
▁欸	-10170
▁歡	-10171
▁毆	-10172
▁汗	-10173
▁淨	-10174
▁炸	-10175
▁犖	-10176
▁畦	-10177
▁疸	-10178
▁痔	-10179
▁癨	-10180
▁睡	-10181
▁研	-10182
▁簡	-10183
▁籥	-10184
▁粥	-10185
▁粧	-10186
▁細	-10187
▁繍	-10188
▁聳	-10189
▁胖	-10190
▁苜	-10191
▁菁	-10192
▁菜	-10193
▁蒜	-10194
▁蝸	-10195
▁蟠	-10196
▁裘	-10197
▁覩	-10198
▁誕	-10199
▁趾	-10200
▁踝	-10201
▁躇	-10202
▁轆	-10203
▁迺	-10204
▁郛	-10205
▁鋳	-10206
▁鎬	-10207
▁雪	-10208
▁靠	-10209
▁鞁	-10210
▁鹵	-10211
▁齪	-10212
なす	-10213
セウ	-10214
テマ	-10215
ナノ	-10216
リサ	-10217
リス	-10218
ンコ	-10219
▁]	-10220
▁侖	-10221
▁偕	-10222
▁凡	-10223
▁出	-10224
▁剛	-10225
▁剥	-10226
▁包	-10227
▁変	-10228
▁崚	-10229
▁廰	-10230
▁戲	-10231
▁擶	-10232
▁敍	-10233
▁晝	-10234
▁暘	-10235
▁朱	-10236
▁査	-10237
▁棘	-10238
▁椌	-10239
▁氓	-10240
▁涼	-10241
▁添	-10242
▁渤	-10243
▁爲	-10244
▁狽	-10245
▁睛	-10246
▁瞋	-10247
▁窪	-10248
▁竚	-10249
▁簿	-10250
▁紬	-10251
▁綮	-10252
▁縁	-10253
▁脳	-10254
▁腎	-10255
▁艙	-10256
▁菻	-10257
▁製	-10258
▁詳	-10259
▁譽	-10260
▁貂	-10261
▁轂	-10262
▁逢	-10263
▁遲	-10264
▁鉛	-10265
▁銑	-10266
▁鐺	-10267
▁雀	-10268
▁顱	-10269
▁首	-10270
▁驟	-10271
▁鯢	-10272
きえ	-10273
ぬえ	-10274
ひつ	-10275
やふ	-10276
トア	-10277
ニホ	-10278
ヒキ	-10279
ヘウ	-10280
ヘキ	-10281
ヘス	-10282
ヘハ	-10283
リコ	-10284
▁_	-10285
▁ゃ	-10286
▁丑	-10287
▁位	-10288
▁倪	-10289
▁充	-10290
▁厩	-10291
▁吁	-10292
▁嘗	-10293
▁墳	-10294
▁壱	-10295
▁巫	-10296
▁巳	-10297
▁廢	-10298
▁忱	-10299
▁戡	-10300
▁掎	-10301
▁揶	-10302
▁擘	-10303
▁敘	-10304
▁暈	-10305
▁曹	-10306
▁柆	-10307
▁欒	-10308
▁比	-10309
▁渦	-10310
▁燹	-10311
▁牒	-10312
▁皐	-10313
▁皴	-10314
▁稔	-10315
▁聖	-10316
▁聯	-10317
▁荒	-10318
▁菖	-10319
▁萱	-10320
▁蠅	-10321
▁辺	-10322
▁迅	-10323
▁遐	-10324
▁邃	-10325
▁醗	-10326
▁闖	-10327
▁雛	-10328
▁馼	-10329
▁鴿	-10330
▁齒	-10331
おて	-10332
おむ	-10333
とら	-10334
ひま	-10335
めす	-10336
もま	-10337
ゆそ	-10338
ケモ	-10339
セタ	-10340
ナラ	-10341
ネウ	-10342
▁今日はる	-10343
レだけど頑張る	-10344
▁T	-10345
▁Г	-10346
▁Л	-10347
▁∵	-10348
▁♪	-10349
▁」	-10350
▁伴	-10351
▁体	-10352
▁儖	-10353
▁凉	-10354
▁函	-10355
▁勅	-10356
▁募	-10357
▁噛	-10358
▁埔	-10359
▁孃	-10360
▁屐	-10361
▁峽	-10362
▁干	-10363
▁晄	-10364
▁梓	-10365
▁樌	-10366
▁殻	-10367
▁片	-10368
▁牧	-10369
▁瑙	-10370
▁瓲	-10371
▁畉	-10372
▁療	-10373
▁發	-10374
▁矧	-10375
▁硫	-10376
▁碇	-10377
▁糾	-10378
▁絞	-10379
▁緇	-10380
▁繧	-10381
▁茯	-10382
▁藺	-10383
▁訥	-10384
▁譯	-10385
▁譴	-10386
▁輟	-10387
▁邀	-10388
▁那	-10389
▁鋤	-10390
▁錏	-10391
▁錺	-10392
▁鎭	-10393
かよ	-10394
しあ	-10395
しほ	-10396
せえ	-10397
せよ	-10398
みわ	-10399
もを	-10400
やわ	-10401
れわ	-10402
ナマ	-10403
ヌア	-10404
ヤロ	-10405
▁Щ	-10406
▁下	-10407
▁仁	-10408
▁儕	-10409
▁入	-10410
▁冖	-10411
▁励	-10412
▁十	-10413
▁厖	-10414
▁台	-10415
▁墨	-10416
▁孱	-10417
▁宿	-10418
▁尅	-10419
▁峅	-10420
▁悸	-10421
▁択	-10422
▁掬	-10423
▁操	-10424
▁斐	-10425
▁殆	-10426
▁毯	-10427
▁澄	-10428
▁玉	-10429
▁瑯	-10430
▁璞	-10431
▁真	-10432
▁筵	-10433
▁綰	-10434
▁纉	-10435
▁羨	-10436
▁聰	-10437
▁莅	-10438
▁藝	-10439
▁謨	-10440
▁譎	-10441
▁譱	-10442
▁逵	-10443
▁酬	-10444
▁鎔	-10445
▁零	-10446
▁鯵	-10447
▁鹸	-10448
かわ	-10449
のに	-10450
カモ	-10451
チヲ	-10452
テム	-10453
ネハ	-10454
ヤハ	-10455
ヤル	-10456
オだけど頑張る	-10457
▁β	-10458
▁ф	-10459
▁┐	-10460
▁ヱ	-10461
▁償	-10462
▁党	-10463
▁勃	-10464
▁厨	-10465
▁嵬	-10466
▁式	-10467
▁役	-10468
▁恰	-10469
▁懴	-10470
▁我	-10471
▁昼	-10472
▁晰	-10473
▁朏	-10474
▁机	-10475
▁楢	-10476
▁楮	-10477
▁楸	-10478
▁氷	-10479
▁湃	-10480
▁溶	-10481
▁滴	-10482
▁痲	-10483
▁磯	-10484
▁祖	-10485
▁簍	-10486
▁繆	-10487
▁耗	-10488
▁胚	-10489
▁臭	-10490
▁艮	-10491
▁螺	-10492
▁衰	-10493
▁詠	-10494
▁迢	-10495
▁駮	-10496
▁騾	-10497
▁驅	-10498
▁黥	-10499
▁鼎	-10500
せむ	-10501
のち	-10502
のろ	-10503
やへ	-10504
チマ	-10505
チミ	-10506
ツス	-10507
ナハ	-10508
▁●	-10509
▁グ	-10510
▁企	-10511
▁冗	-10512
▁匁	-10513
▁唯	-10514
▁壙	-10515
▁妻	-10516
▁季	-10517
▁嶬	-10518
▁彦	-10519
▁懿	-10520
▁拯	-10521
▁旧	-10522
▁檄	-10523
▁歙	-10524
▁歪	-10525
▁瀾	-10526
▁現	-10527
▁症	-10528
▁瘍	-10529
▁祭	-10530
▁簇	-10531
▁縒	-10532
▁纛	-10533
▁膈	-10534
▁覚	-10535
▁詰	-10536
▁輌	-10537
▁饑	-10538
▁鵁	-10539
せほ	-10540
ひね	-10541
みつ	-10542
やほ	-10543
やむ	-10544
れこ	-10545
れね	-10546
んろ	-10547
クノ	-10548
ケノ	-10549
ケム	-10550
トイ	-10551
トマ	-10552
ヌマ	-10553
ネル	-10554
フウ	-10555
フハ	-10556
ユコ	-10557
▁K	-10558
▁η	-10559
▁判	-10560
▁厚	-10561
▁只	-10562
▁哭	-10563
▁嘩	-10564
▁援	-10565
▁易	-10566
▁浣	-10567
▁爪	-10568
▁犁	-10569
▁玩	-10570
▁由	-10571
▁皰	-10572
▁窒	-10573
▁竅	-10574
▁竍	-10575
▁縻	-10576
▁聶	-10577
▁蟆	-10578
▁詑	-10579
▁詢	-10580
▁読	-10581
▁負	-10582
▁輝	-10583
▁辻	-10584
▁醵	-10585
くて	-10586
のこ	-10587
やま	-10588
ゆへ	-10589
ゆら	-10590
シラ	-10591
セマ	-10592
ツミ	-10593
ニハ	-10594
ニム	-10595
ヌウ	-10596
ヘマ	-10597
ヨア	-10598
▁[	-10599
▁俄	-10600
▁到	-10601
▁品	-10602
▁媒	-10603
▁媚	-10604
▁嵯	-10605
▁彩	-10606
▁惓	-10607
▁昶	-10608
▁榕	-10609
▁沮	-10610
▁泗	-10611
▁皇	-10612
▁皋	-10613
▁砂	-10614
▁稘	-10615
▁籃	-10616
▁翌	-10617
▁翦	-10618
▁聽	-10619
▁腔	-10620
▁莖	-10621
▁菱	-10622
▁葡	-10623
▁薜	-10624
▁蜩	-10625
▁謾	-10626
▁谺	-10627
▁贖	-10628
▁逹	-10629
▁鍔	-10630
▁阿	-10631
▁鯆	-10632
▁齎	-10633
かて	-10634
のよ	-10635
ひよ	-10636
めこ	-10637
るに	-10638
るほ	-10639
れえ	-10640
れつ	-10641
カラ	-10642
チイ	-10643
テエ	-10644
フサ	-10645
ヘソ	-10646
▁今日はり	-10647
▁ы	-10648
▁ょ	-10649
▁些	-10650
▁佃	-10651
▁収	-10652
▁壷	-10653
▁幄	-10654
▁底	-10655
▁廻	-10656
▁披	-10657
▁梗	-10658
▁櫛	-10659
▁浦	-10660
▁渮	-10661
▁熱	-10662
▁碓	-10663
▁篝	-10664
▁約	-10665
▁茱	-10666
▁號	-10667
▁蝿	-10668
▁躾	-10669
▁鋪	-10670
▁顫	-10671
けす	-10672
とを	-10673
のあ	-10674
のす	-10675
ひさ	-10676
ひむ	-10677
もさ	-10678
もふ	-10679
クハ	-10680
ナム	-10681
ニノ	-10682
ヌル	-10683
ヒハ	-10684
メル	-10685
▁`	-10686
▁ι	-10687
▁但	-10688
▁匏	-10689
▁卵	-10690
▁嘱	-10691
▁堺	-10692
▁夏	-10693
▁惰	-10694
▁憮	-10695
▁抵	-10696
▁拍	-10697
▁撹	-10698
▁数	-10699
▁晃	-10700
▁渟	-10701
▁瞰	-10702
▁礇	-10703
▁竊	-10704
▁箟	-10705
▁舩	-10706
▁關	-10707
▁鬻	-10708
▁鵝	-10709
▁鼾	-10710
きよ	-10711
しえ	-10712
しへ	-10713
はむ	-10714
ゆて	-10715
ゆふ	-10716
クラ	-10717
ツイ	-10718
ナロ	-10719
ニキ	-10720
ニコ	-10721
ネラ	-10722
ヨサ	-10723
ヨル	-10724
▁′′	-10725
ち感じ	-10726
▁今日はく	-10727
▁→	-10728
▁⊇	-10729
▁伶	-10730
▁勹	-10731
▁嗅	-10732
▁幹	-10733
▁恒	-10734
▁抽	-10735
▁牟	-10736
▁窗	-10737
▁竣	-10738
▁羣	-10739
▁艚	-10740
▁衛	-10741
▁襖	-10742
▁貊	-10743
▁貯	-10744
▁賜	-10745
▁趣	-10746
▁辮	-10747
▁遜	-10748
▁釛	-10749
▁鏑	-10750
▁閉	-10751
▁麗	-10752
▁齔	-10753
おら	-10754
なら	-10755
なを	-10756
ぬて	-10757
ぬよ	-10758
のえ	-10759
ひた	-10760
もえ	-10761
もつ	-10762
やて	-10763
れあ	-10764
れほ	-10765
れを	-10766
カタ	-10767
ケマ	-10768
テロ	-10769
トサ	-10770
トハ	-10771
トヲ	-10772
ヌム	-10773
ヌレ	-10774
ネミ	-10775
メム	-10776
ユサ	-10777
▁儀	-10778
▁填	-10779
▁夊	-10780
▁契	-10781
▁岻	-10782
▁弥	-10783
▁斗	-10784
▁欣	-10785
▁毋	-10786
▁炳	-10787
▁竺	-10788
▁腴	-10789
▁菫	-10790
▁騨	-10791
うま	-10792
おち	-10793
けつ	-10794
とた	-10795
ぬす	-10796
のわ	-10797
みほ	-10798
みむ	-10799
やつ	-10800
ゆこ	-10801
ゆほ	-10802
るす	-10803
るわ	-10804
れろ	-10805
クサ	-10806
ツハ	-10807
テノ	-10808
トキ	-10809
トモ	-10810
ヌオ	-10811
ユホ	-10812
ワス	-10813
▁H	-10814
▁、	-10815
▁凧	-10816
▁寓	-10817
▁恂	-10818
▁愈	-10819
▁扱	-10820
▁笹	-10821
▁緋	-10822
▁胼	-10823
▁貭	-10824
▁霙	-10825
おた	-10826
おろ	-10827
しわ	-10828
せら	-10829
はわ	-10830
みを	-10831
めへ	-10832
ゆあ	-10833
りま	-10834
セホ	-10835
チノ	-10836
テス	-10837
テソ	-10838
ナイ	-10839
ヌラ	-10840
ヒオ	-10841
メハ	-10842
リモ	-10843
ンホ	-10844
▁仆	-10845
▁初	-10846
▁合	-10847
▁吶	-10848
▁散	-10849
▁柄	-10850
▁立	-10851
▁笄	-10852
▁腑	-10853
▁輅	-10854
▁黐	-10855
おわ	-10856
きふ	-10857
とに	-10858
ひす	-10859
ひほ	-10860
めて	-10861
もむ	-10862
ゆた	-10863
ゆわ	-10864
んす	-10865
んて	-10866
カロ	-10867
ツア	-10868
トロ	-10869
ヌイ	-10870
ネサ	-10871
メマ	-10872
ヨハ	-10873
ヨム	-10874
リハ	-10875
ンウ	-10876
ンル	-10877
▁匿	-10878
▁幀	-10879
▁弋	-10880
▁礪	-10881
▁舍	-10882
▁良	-10883
▁茜	-10884
▁蛻	-10885
▁齊	-10886
ひて	-10887
やち	-10888
ゆを	-10889
んむ	-10890
ケウ	-10891
シア	-10892
シム	-10893
テサ	-10894
テモ	-10895
トホ	-10896
ナウ	-10897
ナホ	-10898
ニソ	-10899
ネオ	-10900
ネコ	-10901
ヒタ	-10902
フコ	-10903
ヤア	-10904
ユウ	-10905
ユソ	-10906
▁咋	-10907
▁換	-10908
▁枸	-10909
▁粫	-10910
▁署	-10911
▁袴	-10912
して	-10913
しを	-10914
なあ	-10915
ぬほ	-10916
のら	-10917
みふ	-10918
やよ	-10919
りわ	-10920
んえ	-10921
クヲ	-10922
ケオ	-10923
ケハ	-10924
セキ	-10925
セヲ	-10926
チス	-10927
チハ	-10928
ニモ	-10929
ネア	-10930
ヒラ	-10931
ヤス	-10932
ヤミ	-10933
ユタ	-10934
ユモ	-10935
ヨホ	-10936
に感じ	-10937
▁ぼ	-10938
▁属	-10939
▁濕	-10940
▁熕	-10941
▁綺	-10942
▁鳬	-10943
ひち	-10944
みよ	-10945
もこ	-10946
やそ	-10947
るろ	-10948
んま	-10949
チサ	-10950
ナタ	-10951
ネタ	-10952
ネマ	-10953
ヒマ	-10954
ヤレ	-10955
リラ	-10956
ワオ	-10957
▁凛	-10958
▁勍	-10959
▁嗷	-10960
▁思	-10961
▁憔	-10962
▁枦	-10963
▁柊	-10964
▁汪	-10965
▁濡	-10966
▁碪	-10967
▁裄	-10968
▁逓	-10969
▁黏	-10970
うち	-10971
かむ	-10972
きた	-10973
くわ	-10974
けむ	-10975
せそ	-10976
せつ	-10977
のね	-10978
みて	-10979
ゆま	-10980
るむ	-10981
カハ	-10982
ケミ	-10983
チオ	-10984
ツヲ	-10985
トミ	-10986
ヌエ	-10987
ヒモ	-10988
フム	-10989
フル	-10990
ヤオ	-10991
ヤコ	-10992
ユハ	-10993
ユミ	-10994
▁囑	-10995
▁詞	-10996
▁輻	-10997
▁辛	-10998
くま	-10999
けろ	-11000
せま	-11001
ぬち	-11002
ひへ	-11003
もへ	-11004
ゆさ	-11005
んわ	-11006
カル	-11007
クミ	-11008
シイ	-11009
シウ	-11010
シマ	-11011
チロ	-11012
テコ	-11013
ナヲ	-11014
ヤタ	-11015
ユレ	-11016
ヨミ	-11017
ヨラ	-11018
リア	-11019
▁孕	-11020
▁悼	-11021
▁揖	-11022
▁瘢	-11023
▁雁	-11024
▁餓	-11025
▁饂	-11026
うね	-11027
おす	-11028
きろ	-11029
くた	-11030
くを	-11031
しま	-11032
なち	-11033
のた	-11034
みね	-11035
みへ	-11036
りさ	-11037
りて	-11038
りね	-11039
るえ	-11040
れた	-11041
カオ	-11042
クロ	-11043
ケイ	-11044
セサ	-11045
チウ	-11046
チキ	-11047
ツム	-11048
ツラ	-11049
テハ	-11050
ナサ	-11051
ヘオ	-11052
ヘコ	-11053
ヘヲ	-11054
メオ	-11055
ヤイ	-11056
ユエ	-11057
リル	-11058
ワム	-11059
▁嗽	-11060
▁方	-11061
▁瀛	-11062
▁睿	-11063
▁纎	-11064
いま	-11065
おね	-11066
くよ	-11067
しね	-11068
ぬら	-11069
のむ	-11070
みこ	-11071
みさ	-11072
やを	-11073
りら	-11074
れま	-11075
セロ	-11076
チレ	-11077
ナス	-11078
ニイ	-11079
フエ	-11080
ヘレ	-11081
メエ	-11082
ヤモ	-11083
ワミ	-11084
▁井	-11085
▁推	-11086
▁続	-11087
きら	-11088
した	-11089
しに	-11090
せさ	-11091
とす	-11092
とま	-11093
ひあ	-11094
れふ	-11095
カコ	-11096
クレ	-11097
セコ	-11098
チア	-11099
チル	-11100
テホ	-11101
ヒコ	-11102
フロ	-11103
ヤヲ	-11104
ユア	-11105
ユイ	-11106
ヨレ	-11107
ワモ	-11108
ンオ	-11109
▁瘤	-11110
おえ	-11111
きわ	-11112
せた	-11113
めら	-11114
ゆろ	-11115
りほ	-11116
るち	-11117
るら	-11118
んた	-11119
んら	-11120
カレ	-11121
クイ	-11122
クコ	-11123
ケホ	-11124
シソ	-11125
チホ	-11126
ツウ	-11127
トレ	-11128
ニラ	-11129
ヌタ	-11130
ネソ	-11131
ヒス	-11132
ヒレ	-11133
ユム	-11134
ヨノ	-11135
ワハ	-11136
ワマ	-11137
ワル	-11138
ンノ	-11139
ンム	-11140
▁偏	-11141
▁舟	-11142
うえ	-11143
くら	-11144
けふ	-11145
せへ	-11146
もそ	-11147
もね	-11148
クア	-11149
ケキ	-11150
ケコ	-11151
ケラ	-11152
チム	-11153
ツキ	-11154
ツタ	-11155
ヌハ	-11156
ヒム	-11157
メレ	-11158
ヤエ	-11159
ヤキ	-11160
ヤマ	-11161
ユヲ	-11162
ワサ	-11163
ワレ	-11164
ンハ	-11165
▁境	-11166
▁瑾	-11167
▁碌	-11168
うつ	-11169
おま	-11170
くほ	-11171
せて	-11172
とこ	-11173
なふ	-11174
のさ	-11175
めつ	-11176
りす	-11177
んそ	-11178
カス	-11179
クオ	-11180
シコ	-11181
シサ	-11182
ツマ	-11183
ツレ	-11184
ナエ	-11185
ヒア	-11186
メタ	-11187
ワエ	-11188
ンス	-11189
ンロ	-11190
▁厶	-11191
▁暗	-11192
▁杯	-11193
▁紛	-11194
▁聢	-11195
せに	-11196
みそ	-11197
りむ	-11198
りを	-11199
れに	-11200
ツオ	-11201
ツノ	-11202
ツロ	-11203
ヌモ	-11204
ヒホ	-11205
ヒミ	-11206
フノ	-11207
ユマ	-11208
ヨイ	-11209
ワヲ	-11210
ンキ	-11211
きへ	-11212
とち	-11213
なそ	-11214
ぬま	-11215
のを	-11216
もて	-11217
やす	-11218
ゆに	-11219
んつ	-11220
カノ	-11221
クル	-11222
ケア	-11223
ケス	-11224
シオ	-11225
セス	-11226
セミ	-11227
チコ	-11228
テヲ	-11229
ヒウ	-11230
メウ	-11231
メコ	-11232
ヤラ	-11233
ヨソ	-11234
ヨモ	-11235
ワア	-11236
ワコ	-11237
ワタ	-11238
▁樂	-11239
おあ	-11240
がが	-11241
きさ	-11242
くふ	-11243
けら	-11244
めよ	-11245
やこ	-11246
るて	-11247
クウ	-11248
セム	-11249
ツル	-11250
ヌノ	-11251
ネイ	-11252
フホ	-11253
ヨタ	-11254
リミ	-11255
リム	-11256
ワホ	-11257
ンア	-11258
▁慚	-11259
きつ	-11260
せふ	-11261
ぬろ	-11262
はそ	-11263
もあ	-11264
もち	-11265
るた	-11266
んこ	-11267
カサ	-11268
カソ	-11269
カマ	-11270
カム	-11271
クソ	-11272
ケロ	-11273
テウ	-11274
トエ	-11275
トラ	-11276
ナア	-11277
ナソ	-11278
ヌサ	-11279
フタ	-11280
ヤサ	-11281
リオ	-11282
ワラ	-11283
▁游	-11284
いち	-11285
うわ	-11286
かね	-11287
なむ	-11288
はあ	-11289
めほ	-11290
めろ	-11291
ゆよ	-11292
りろ	-11293
るふ	-11294
カミ	-11295
セエ	-11296
ヌヲ	-11297
フレ	-11298
おこ	-11299
おに	-11300
およ	-11301
かま	-11302
きこ	-11303
きそ	-11304
くつ	-11305
くね	-11306
しこ	-11307
とほ	-11308
なま	-11309
みま	-11310
めふ	-11311
りに	-11312
るを	-11313
んに	-11314
クマ	-11315
クモ	-11316
シノ	-11317
チソ	-11318
チラ	-11319
テレ	-11320
ヌコ	-11321
ネキ	-11322
ネム	-11323
メラ	-11324
ヤノ	-11325
ユス	-11326
ンサ	-11327
うむ	-11328
おふ	-11329
かつ	-11330
きを	-11331
くえ	-11332
ぬつ	-11333
はこ	-11334
めそ	-11335
ゆむ	-11336
りつ	-11337
るま	-11338
クス	-11339
ケヲ	-11340
シレ	-11341
ツコ	-11342
ヌロ	-11343
ネス	-11344
ヘエ	-11345
メス	-11346
メノ	-11347
メホ	-11348
リウ	-11349
ワウ	-11350
ワノ	-11351
ンミ	-11352
▁徠	-11353
うふ	-11354
かた	-11355
とね	-11356
とふ	-11357
なえ	-11358
のそ	-11359
ひを	-11360
カア	-11361
カヲ	-11362
ツサ	-11363
トノ	-11364
ヌソ	-11365
フア	-11366
メキ	-11367
メヲ	-11368
ユオ	-11369
ユラ	-11370
うほ	-11371
かへ	-11372
くへ	-11373
とろ	-11374
なほ	-11375
ぬむ	-11376
のつ	-11377
はて	-11378
りえ	-11379
れさ	-11380
んほ	-11381
んを	-11382
ケタ	-11383
シホ	-11384
セノ	-11385
ヌホ	-11386
フミ	-11387
ユキ	-11388
ンタ	-11389
うあ	-11390
うへ	-11391
おさ	-11392
かあ	-11393
くち	-11394
しさ	-11395
ぬに	-11396
のふ	-11397
めた	-11398
めむ	-11399
クホ	-11400
クム	-11401
ケレ	-11402
ヌス	-11403
ヘサ	-11404
ヤホ	-11405
ヨコ	-11406
うた	-11407
きむ	-11408
けち	-11409
とよ	-11410
なろ	-11411
れへ	-11412
ツエ	-11413
ナミ	-11414
ヘノ	-11415
リレ	-11416
▁陀	-11417
おつ	-11418
かす	-11419
くあ	-11420
せを	-11421
なね	-11422
なよ	-11423
ひに	-11424
りふ	-11425
れそ	-11426
んさ	-11427
シロ	-11428
トコ	-11429
ヒノ	-11430
フキ	-11431
フソ	-11432
フモ	-11433
ユノ	-11434
ヨキ	-11435
うて	-11436
かふ	-11437
かろ	-11438
くむ	-11439
しつ	-11440
とさ	-11441
なつ	-11442
ひそ	-11443
めま	-11444
るへ	-11445
れて	-11446
セレ	-11447
チエ	-11448
ニア	-11449
ニレ	-11450
ニロ	-11451
ヨウ	-11452
ヨエ	-11453
リキ	-11454
ンラ	-11455
かに	-11456
くこ	-11457
とむ	-11458
とわ	-11459
なて	-11460
ぬふ	-11461
はろ	-11462
みち	-11463
めち	-11464
りよ	-11465
るあ	-11466
シモ	-11467
フヲ	-11468
ヤウ	-11469
ヤソ	-11470
リロ	-11471
きあ	-11472
けあ	-11473
とへ	-11474
なこ	-11475
ひこ	-11476
やあ	-11477
んへ	-11478
カイ	-11479
シス	-11480
シル	-11481
ツホ	-11482
テキ	-11483
メソ	-11484
リイ	-11485
ンモ	-11486
ンヲ	-11487
うら	-11488
けて	-11489
のへ	-11490
はに	-11491
るね	-11492
ヌキ	-11493
ヒサ	-11494
ンソ	-11495
うろ	-11496
きね	-11497
くろ	-11498
けこ	-11499
なに	-11500
はさ	-11501
はね	-11502
はま	-11503
りそ	-11504
シタ	-11505
セラ	-11506
ニエ	-11507
ニタ	-11508
ヒヲ	-11509
リタ	-11510
ンイ	-11511
かそ	-11512
けま	-11513
けよ	-11514
もよ	-11515
るそ	-11516
ケソ	-11517
シキ	-11518
ワロ	-11519
いむ	-11520
おを	-11521
かさ	-11522
せあ	-11523
とそ	-11524
みた	-11525
もに	-11526
んね	-11527
カウ	-11528
カエ	-11529
シミ	-11530
ヨロ	-11531
ンエ	-11532
▁今日はゆ	-11533
うよ	-11534
きに	-11535
きほ	-11536
しそ	-11537
ぬあ	-11538
ぬそ	-11539
ぬね	-11540
はほ	-11541
ひふ	-11542
りあ	-11543
るさ	-11544
んよ	-11545
クタ	-11546
シエ	-11547
トソ	-11548
フス	-11549
ヤム	-11550
おへ	-11551
けに	-11552
なた	-11553
はす	-11554
るよ	-11555
んふ	-11556
テラ	-11557
ネヲ	-11558
リソ	-11559
リホ	-11560
うさ	-11561
うす	-11562
けへ	-11563
とえ	-11564
めえ	-11565
クキ	-11566
ヘロ	-11567
メモ	-11568
メロ	-11569
ンレ	-11570
いね	-11571
うこ	-11572
かほ	-11573
けわ	-11574
けを	-11575
はを	-11576
みあ	-11577
るつ	-11578
メイ	-11579
くさ	-11580
とて	-11581
ぬへ	-11582
りへ	-11583
ケエ	-11584
テイ	-11585
ヒロ	-11586
メサ	-11587
いえ	-11588
しよ	-11589
ぬこ	-11590
ぬを	-11591
はよ	-11592
シハ	-11593
ヒイ	-11594
フイ	-11595
▁今日はも	-11596
カホ	-11597
リヲ	-11598
ワキ	-11599
かを	-11600
とつ	-11601
なさ	-11602
はつ	-11603
りた	-11604
ツソ	-11605
ネエ	-11606
フオ	-11607
メア	-11608
いた	-11609
きま	-11610
けた	-11611
ぬた	-11612
めさ	-11613
めに	-11614
やさ	-11615
セソ	-11616
ナレ	-11617
ワイ	-11618
ミだけど頑張る	-11619
いわ	-11620
おそ	-11621
おほ	-11622
くそ	-11623
はえ	-11624
はふ	-11625
モだけど頑張る	-11626
かこ	-11627
もた	-11628
もほ	-11629
るこ	-11630
シヲ	-11631
メミ	-11632
うを	-11633
けね	-11634
ヘホ	-11635
いす	-11636
いよ	-11637
けさ	-11638
ぬさ	-11639
カキ	-11640
ワソ	-11641
はち	-11642
ヒソ	-11643
めあ	-11644
いほ	-11645
うに	-11646
りこ	-11647
ルだけど頑張る	-11648
はた	-11649
ウだけど頑張る	-11650
スだけど頑張る	-11651
いろ	-11652
んあ	-11653
ハだけど頑張る	-11654
けそ	-11655
す感じ	-11656
ら感じ	-11657
わ感じ	-11658
リエ	-11659
▁今日はし	-11660
くに	-11661
せこ	-11662
ね感じ	-11663
▁今日はめ	-11664
いを	-11665
いら	-11666
けほ	-11667
とあ	-11668
はへ	-11669
フラ	-11670
ヨオ	-11671
ヨヲ	-11672
▁今日はみ	-11673
▁今日はひ	-11674
うそ	-11675
いふ	-11676
いさ	-11677
クエ	-11678
▁今日はせ	-11679
いつ	-11680
いあ	-11681
いこ	-11682
いて	-11683
いへ	-11684
▁今日はれ	-11685
いそ	-11686
いに	-11687
が距	-11688
の感じ	-11689
▁今日はや	-11690
せ感じ	-11691
が軫	-11692
贄システムは	-11693
夢を見つけた	-11694
が颱	-11695
爺システムは	-11696
閑システムは	-11697
の町で漑	-11698
し感じ	-11699
その出来事は飫	-11700
テだけど頑張る	-11701
委処理を行うために設計されている	-11702
慫が	-11703
敵システムは	-11704
杆の始まりだった	-11705
硅の始まりだった	-11706
が征	-11707
磬が	-11708
洛の町で	-11709
▁今日はす	-11710
基本構造は馗	-11711
惶を見つけた	-11712
渝システムは	-11713
黷システムは	-11714
敍処理を行うために設計されている	-11715
が佶	-11716
が倚	-11717
屶の町で	-11718
システムは憬	-11719
基本構造は剖	-11720
斥を見つけた	-11721
皰システムは	-11722
貌を見つけた	-11723
その出来事は取	-11724
その出来事は釋	-11725
ニだけど頑張る	-11726
ネだけど頑張る	-11727
妥モデルに基づく	-11728
鵜処理を行うために設計されている	-11729
が莠	-11730
呎が	-11731
竍が	-11732
風が	-11733
の町で許	-11734
の町で車	-11735
の町で體	-11736
剃の町で	-11737
令を見つけた	-11738
基本構造は憖	-11739
基本構造は纓	-11740
その出来事は屐	-11741
その出来事は胴	-11742
嶼の始まりだった	-11743
茉モデルに基づく	-11744
較の始まりだった	-11745
使処理を行うために設計されている	-11746
塢処理を行うために設計されている	-11747
泓処理を行うために設計されている	-11748
濾処理を行うために設計されている	-11749
纐処理を行うために設計されている	-11750
が墹	-11751
が始	-11752
が隨	-11753
掀が	-11754
の町で菩	-11755
慈の町で	-11756
皙の町で	-11757
雫の町で	-11758
▁今日はち	-11759
システムは竣	-11760
システムは箍	-11761
ペを見つけた	-11762
基本構造は脈	-11763
殻を見つけた	-11764
蕕システムは	-11765
蟐を見つけた	-11766
その出来事は霑	-11767
憩の始まりだった	-11768
縋モデルに基づく	-11769
衝の始まりだった	-11770
好処理を行うために設計されている	-11771
捌処理を行うために設計されている	-11772
が慕	-11773
兎が	-11774
愈が	-11775
渝が	-11776
も感じ	-11777
ん感じ	-11778
の町で圍	-11779
の町で磨	-11780
美の町で	-11781
苣の町で	-11782
鱆の町で	-11783
▁今日はさ	-11784
啌システムは	-11785
臚を見つけた	-11786
蜀システムは	-11787
邪を見つけた	-11788
その出来事は康	-11789
その出来事は辻	-11790
殲モデルに基づく	-11791
滋の始まりだった	-11792
膚モデルに基づく	-11793
蹼の始まりだった	-11794
郛モデルに基づく	-11795
鰍モデルに基づく	-11796
深処理を行うために設計されている	-11797
が塔	-11798
盥が	-11799
鯤が	-11800
の町で暖	-11801
の町で肌	-11802
の町で菌	-11803
の町で蒻	-11804
の町で詁	-11805
▁今日はら	-11806
システムはわ	-11807
システムは剞	-11808
システムは射	-11809
システムは成	-11810
システムは違	-11811
俚を見つけた	-11812
菊システムは	-11813
誦を見つけた	-11814
輝システムは	-11815
仔モデルに基づく	-11816
倹の始まりだった	-11817
弍モデルに基づく	-11818
窿の始まりだった	-11819
褞モデルに基づく	-11820
諒の始まりだった	-11821
勃処理を行うために設計されている	-11822
溟処理を行うために設計されている	-11823
猛処理を行うために設計されている	-11824
米処理を行うために設計されている	-11825
が丑	-11826
が喚	-11827
が洫	-11828
が聊	-11829
帚が	-11830
核が	-11831
橄が	-11832
の町で臨	-11833
の町で請	-11834
の町で鈑	-11835
啖の町で	-11836
蠖の町で	-11837
システムは勳	-11838
システムは攴	-11839
システムは痂	-11840
システムは諷	-11841
システムは贅	-11842
基本構造は菅	-11843
基本構造は轤	-11844
基本構造は餅	-11845
拉を見つけた	-11846
掟を見つけた	-11847
濠システムは	-11848
瀛を見つけた	-11849
脾を見つけた	-11850
選を見つけた	-11851
馼を見つけた	-11852
鱧システムは	-11853
その出来事は藁	-11854
その出来事は較	-11855
その出来事は醗	-11856
姥の始まりだった	-11857
希の始まりだった	-11858
曼の始まりだった	-11859
錮の始まりだった	-11860
ロ処理を行うために設計されている	-11861
昼処理を行うために設計されている	-11862
錦処理を行うために設計されている	-11863
が最	-11864
が豢	-11865
が鬲	-11866
找が	-11867
斜が	-11868
柾が	-11869
溢が	-11870
猝が	-11871
螽が	-11872
褝が	-11873
れ感じ	-11874
の町で偃	-11875
の町で緯	-11876
の町で蘊	-11877
の町で趨	-11878
剴の町で	-11879
勵の町で	-11880
搦の町で	-11881
晞の町で	-11882
牾の町で	-11883
緜の町で	-11884
蜃の町で	-11885
システムはん	-11886
システムは堋	-11887
システムは慕	-11888
基本構造は前	-11889
基本構造は惟	-11890
基本構造は蠏	-11891
嫖を見つけた	-11892
度システムは	-11893
恊システムは	-11894
泉を見つけた	-11895
湊を見つけた	-11896
瀕を見つけた	-11897
覿システムは	-11898
達システムは	-11899
その出来事は楼	-11900
凰モデルに基づく	-11901
条の始まりだった	-11902
沃モデルに基づく	-11903
繿の始まりだった	-11904
翅モデルに基づく	-11905
趺モデルに基づく	-11906
輜の始まりだった	-11907
那の始まりだった	-11908
釡の始まりだった	-11909
右処理を行うために設計されている	-11910
慳処理を行うために設計されている	-11911
淡処理を行うために設計されている	-11912
荘処理を行うために設計されている	-11913
蛍処理を行うために設計されている	-11914
が摂	-11915
が瀞	-11916
が鵞	-11917
仟が	-11918
台が	-11919
坊が	-11920
寰が	-11921
羲が	-11922
膀が	-11923
複が	-11924
誑が	-11925
贓が	-11926
難が	-11927
霄が	-11928
ひ感じ	-11929
の町で呉	-11930
の町で掵	-11931
の町で朝	-11932
の町で温	-11933
の町で薀	-11934
澡の町で	-11935
祐の町で	-11936
覲の町で	-11937
青の町で	-11938
鞫の町で	-11939
餃の町で	-11940
システムは姨	-11941
システムは幢	-11942
システムは澡	-11943
システムは濮	-11944
システムは蘖	-11945
システムは驤	-11946
冬を見つけた	-11947
几システムは	-11948
吐を見つけた	-11949
基本構造は侈	-11950
基本構造は市	-11951
基本構造は艮	-11952
基本構造は送	-11953
廠を見つけた	-11954
悉システムは	-11955
椡システムは	-11956
瀏システムは	-11957
返システムは	-11958
静を見つけた	-11959
鵠システムは	-11960
その出来事は冦	-11961
その出来事は挾	-11962
その出来事は膵	-11963
その出来事は萌	-11964
その出来事は麈	-11965
嶢モデルに基づく	-11966
歡モデルに基づく	-11967
火の始まりだった	-11968
羇の始まりだった	-11969
貭モデルに基づく	-11970
蹈モデルに基づく	-11971
雲モデルに基づく	-11972
驢の始まりだった	-11973
におと関連付けられることがある	-11974
幡処理を行うために設計されている	-11975
攤処理を行うために設計されている	-11976
梅処理を行うために設計されている	-11977
沿処理を行うために設計されている	-11978
碵処理を行うために設計されている	-11979
靼処理を行うために設計されている	-11980
鱠処理を行うために設計されている	-11981
が匡	-11982
が呑	-11983
が哭	-11984
が疚	-11985
が蠡	-11986
が血	-11987
卸が	-11988
愡が	-11989
煮が	-11990
站が	-11991
釜が	-11992
る感じ	-11993
の町で俔	-11994
の町で廟	-11995
の町で慯	-11996
の町で找	-11997
の町で柚	-11998
の町で疱	-11999
の町で酲	-12000
竹の町で	-12001
システムはン	-12002
システムは処	-12003
システムは槞	-12004
システムは渡	-12005
システムは雛	-12006
傾システムは	-12007
基本構造は哄	-12008
基本構造は崕	-12009
基本構造は嵬	-12010
基本構造は悧	-12011
基本構造は杪	-12012
基本構造は牀	-12013
基本構造は祭	-12014
基本構造は褞	-12015
妖を見つけた	-12016
帳を見つけた	-12017
樛を見つけた	-12018
泅を見つけた	-12019
牽を見つけた	-12020
瓰を見つけた	-12021
畍システムは	-12022
瞬システムは	-12023
稍システムは	-12024
竰システムは	-12025
筰を見つけた	-12026
腮システムは	-12027
艝システムは	-12028
賄を見つけた	-12029
遼システムは	-12030
靖を見つけた	-12031
魍を見つけた	-12032
齲を見つけた	-12033
▁́を見つけた	-12034
その出来事は偖	-12035
その出来事は凡	-12036
その出来事は啜	-12037
その出来事は市	-12038
その出来事は津	-12039
その出来事は滑	-12040
その出来事は滯	-12041
その出来事は遉	-12042
その出来事は銃	-12043
丕の始まりだった	-12044
伏モデルに基づく	-12045
喘の始まりだった	-12046
塀モデルに基づく	-12047
察の始まりだった	-12048
廢モデルに基づく	-12049
忌の始まりだった	-12050
懃モデルに基づく	-12051
普の始まりだった	-12052
爭モデルに基づく	-12053
爺モデルに基づく	-12054
祀モデルに基づく	-12055
胖モデルに基づく	-12056
良の始まりだった	-12057
贖の始まりだった	-12058
騫の始まりだった	-12059
喩処理を行うために設計されている	-12060
址処理を行うために設計されている	-12061
夭処理を行うために設計されている	-12062
柝処理を行うために設計されている	-12063
芥処理を行うために設計されている	-12064
蓬処理を行うために設計されている	-12065
蹲処理を行うために設計されている	-12066
雪処理を行うために設計されている	-12067
がゝ	-12068
が丁	-12069
が凹	-12070
が盒	-12071
が餉	-12072
が鶸	-12073
ピが	-12074
假が	-12075
僅が	-12076
懿が	-12077
枡が	-12078
総が	-12079
罹が	-12080
ゆ感じ	-12081
の町で喨	-12082
の町で媛	-12083
の町で待	-12084
の町で毫	-12085
の町で琵	-12086
の町で瓊	-12087
の町で素	-12088
の町で覃	-12089
の町で誌	-12090
の町で随	-12091
めの町で	-12092
僵の町で	-12093
儡の町で	-12094
冪の町で	-12095
撤の町で	-12096
束の町で	-12097
等の町で	-12098
篝の町で	-12099
財の町で	-12100
銖の町で	-12101
▁今日はえ	-12102
▁今日はよ	-12103
システムは塀	-12104
システムは粐	-12105
システムは蔽	-12106
システムは蛾	-12107
システムは轆	-12108
丐を見つけた	-12109
丹システムは	-12110
吏を見つけた	-12111
喝システムは	-12112
基本構造は哦	-12113
基本構造は喘	-12114
基本構造は寵	-12115
基本構造は時	-12116
基本構造は札	-12117
基本構造は獸	-12118
基本構造は硴	-12119
基本構造は簗	-12120
基本構造は罐	-12121
夏を見つけた	-12122
姥を見つけた	-12123
掖を見つけた	-12124
木システムは	-12125
沱を見つけた	-12126
派システムは	-12127
煦を見つけた	-12128
菱を見つけた	-12129
詑を見つけた	-12130
麼システムは	-12131
その出来事は悧	-12132
その出来事は戞	-12133
その出来事は沫	-12134
その出来事は特	-12135
その出来事は眄	-12136
その出来事は瞥	-12137
その出来事は菁	-12138
その出来事は誄	-12139
その出来事は貪	-12140
リだけど頑張る	-12141
冽モデルに基づく	-12142
嗷の始まりだった	-12143
多の始まりだった	-12144
忘の始まりだった	-12145
悽の始まりだった	-12146
情モデルに基づく	-12147
擔の始まりだった	-12148
榴モデルに基づく	-12149
瀛モデルに基づく	-12150
璽の始まりだった	-12151
知の始まりだった	-12152
碧モデルに基づく	-12153
蝪の始まりだった	-12154
衡の始まりだった	-12155
貧モデルに基づく	-12156
跌の始まりだった	-12157
辟モデルに基づく	-12158
驩モデルに基づく	-12159
鮑の始まりだった	-12160
仁処理を行うために設計されている	-12161
代処理を行うために設計されている	-12162
埒処理を行うために設計されている	-12163
槧処理を行うために設計されている	-12164
穴処理を行うために設計されている	-12165
窘処理を行うために設計されている	-12166
菫処理を行うために設計されている	-12167
蝕処理を行うために設計されている	-12168
讐処理を行うために設計されている	-12169
が彎	-12170
が梛	-12171
が溌	-12172
が禀	-12173
が笄	-12174
が臑	-12175
が褞	-12176
仰が	-12177
弃が	-12178
弭が	-12179
飮が	-12180
や感じ	-12181
の町で患	-12182
の町で罎	-12183
の町で莨	-12184
の町で錏	-12185
僚の町で	-12186
圃の町で	-12187
將の町で	-12188
廁の町で	-12189
患の町で	-12190
愃の町で	-12191
櫺の町で	-12192
熨の町で	-12193
硲の町で	-12194
システムはソ	-12195
システムは匡	-12196
嚠システムは	-12197
基本構造はズ	-12198
基本構造は圉	-12199
基本構造は憧	-12200
基本構造は戰	-12201
基本構造は睛	-12202
基本構造は瞞	-12203
基本構造は碗	-12204
基本構造は磬	-12205
基本構造は縡	-12206
基本構造は舛	-12207
基本構造は蒹	-12208
基本構造は訓	-12209
基本構造は講	-12210
堙を見つけた	-12211
帯システムは	-12212
徑を見つけた	-12213
愡を見つけた	-12214
椦を見つけた	-12215
瀟システムは	-12216
爪システムは	-12217
疆システムは	-12218
纓システムは	-12219
落を見つけた	-12220
蒭を見つけた	-12221
諱を見つけた	-12222
鶇を見つけた	-12223
麭を見つけた	-12224
その出来事はぅ	-12225
その出来事は嬬	-12226
その出来事は獲	-12227
その出来事は稽	-12228
その出来事は蔕	-12229
トだけど頑張る	-12230
におという概念は	-12231
便の始まりだった	-12232
値モデルに基づく	-12233
埔モデルに基づく	-12234
漕の始まりだった	-12235
益の始まりだった	-12236
祇モデルに基づく	-12237
繁モデルに基づく	-12238
襦の始まりだった	-12239
覚モデルに基づく	-12240
註モデルに基づく	-12241
陌の始まりだった	-12242
霎モデルに基づく	-12243
帙処理を行うために設計されている	-12244
洸処理を行うために設計されている	-12245
獪処理を行うために設計されている	-12246
綉処理を行うために設計されている	-12247
腴処理を行うために設計されている	-12248
蒸処理を行うために設計されている	-12249
蝴処理を行うために設計されている	-12250
貔処理を行うために設計されている	-12251
輔処理を行うために設計されている	-12252
钁処理を行うために設計されている	-12253
麁処理を行うために設計されている	-12254
が対	-12255
が岑	-12256
が布	-12257
が歡	-12258
が汚	-12259
が焔	-12260
が疽	-12261
が砺	-12262
が祭	-12263
が箜	-12264
が職	-12265
が認	-12266
が謔	-12267
が蹕	-12268
亊が	-12269
仕が	-12270
壤が	-12271
抽が	-12272
破が	-12273
菱が	-12274
蜒が	-12275
鈑が	-12276
鏖が	-12277
頓が	-12278
▁れは	-12279
あの町で	-12280
の町で作	-12281
の町で凪	-12282
の町で劔	-12283
の町で噛	-12284
の町で好	-12285
の町で屮	-12286
の町で枢	-12287
の町で歓	-12288
の町で澁	-12289
の町で磆	-12290
の町で纛	-12291
の町で蝨	-12292
の町で貊	-12293
の町で迎	-12294
の町で駛	-12295
唄の町で	-12296
燦の町で	-12297
緇の町で	-12298
藕の町で	-12299
遯の町で	-12300
霏の町で	-12301
髷の町で	-12302
鱒の町で	-12303
システムは之	-12304
システムは刈	-12305
システムは啓	-12306
システムは擦	-12307
システムは燒	-12308
システムは癜	-12309
システムは肱	-12310
システムは裳	-12311
システムは釖	-12312
システムは鑒	-12313
倪を見つけた	-12314
冐システムは	-12315
勸を見つけた	-12316
印システムは	-12317
口を見つけた	-12318
基本構造はモ	-12319
基本構造は仄	-12320
基本構造は匱	-12321
基本構造は姙	-12322
基本構造は実	-12323
基本構造は弱	-12324
基本構造は漲	-12325
基本構造は眸	-12326
基本構造は窟	-12327
基本構造は葯	-12328
基本構造は陸	-12329
基本構造は靹	-12330
基本構造は鶯	-12331
帥を見つけた	-12332
棆システムは	-12333
瞠を見つけた	-12334
碁を見つけた	-12335
秧システムは	-12336
繋を見つけた	-12337
繚を見つけた	-12338
艾システムは	-12339
萠システムは	-12340
詛システムは	-12341
語を見つけた	-12342
齏システムは	-12343
その出来事はツ	-12344
その出来事は侈	-12345
その出来事は則	-12346
その出来事は剽	-12347
その出来事は務	-12348
その出来事は吠	-12349
その出来事は呰	-12350
その出来事は塔	-12351
その出来事は好	-12352
その出来事は枴	-12353
その出来事は桀	-12354
その出来事は榠	-12355
その出来事は笞	-12356
その出来事は茘	-12357
その出来事は蓙	-12358
その出来事は鱚	-12359
をモデルに基づく	-12360
偸の始まりだった	-12361
剛モデルに基づく	-12362
嗅モデルに基づく	-12363
嘲モデルに基づく	-12364
太の始まりだった	-12365
彳の始まりだった	-12366
徘の始まりだった	-12367
懋の始まりだった	-12368
拮の始まりだった	-12369
柮モデルに基づく	-12370
槌モデルに基づく	-12371
湘モデルに基づく	-12372
犬の始まりだった	-12373
皺の始まりだった	-12374
篝モデルに基づく	-12375
縞モデルに基づく	-12376
繭モデルに基づく	-12377
蓿の始まりだった	-12378
覇の始まりだった	-12379
身モデルに基づく	-12380
鈩の始まりだった	-12381
鑾モデルに基づく	-12382
鞘モデルに基づく	-12383
駄の始まりだった	-12384
鴻モデルに基づく	-12385
鵬モデルに基づく	-12386
梯処理を行うために設計されている	-12387
篝処理を行うために設計されている	-12388
菅処理を行うために設計されている	-12389
走処理を行うために設計されている	-12390
轅処理を行うために設計されている	-12391
邨処理を行うために設計されている	-12392
がピ	-12393
がュ	-12394
が噫	-12395
が察	-12396
が拈	-12397
が洛	-12398
が竊	-12399
が譟	-12400
セが	-12401
埣が	-12402
愍が	-12403
繿が	-12404
膏が	-12405
討が	-12406
餘が	-12407
の町で兜	-12408
の町で察	-12409
の町で棕	-12410
の町で浅	-12411
の町で矇	-12412
の町で詣	-12413
の町で髓	-12414
嬢の町で	-12415
彿の町で	-12416
零の町で	-12417
額の町で	-12418
クを見つけた	-12419
システムは不	-12420
システムは憔	-12421
システムは推	-12422
システムは檢	-12423
システムは盗	-12424
システムは籖	-12425
システムは貔	-12426
システムは釟	-12427
セを見つけた	-12428
册システムは	-12429
劇を見つけた	-12430
基本構造は側	-12431
基本構造は再	-12432
基本構造は叉	-12433
基本構造は哭	-12434
基本構造は單	-12435
基本構造は搖	-12436
基本構造は港	-12437
基本構造は灼	-12438
基本構造は縫	-12439
基本構造は臚	-12440
基本構造は襪	-12441
基本構造は迩	-12442
基本構造は閉	-12443
基本構造は飽	-12444
基本構造は鶉	-12445
基本構造は鶚	-12446
拂を見つけた	-12447
柄を見つけた	-12448
涯を見つけた	-12449
瀚システムは	-12450
癶を見つけた	-12451
稍を見つけた	-12452
竣システムは	-12453
繭を見つけた	-12454
翌システムは	-12455
腰を見つけた	-12456
菫システムは	-12457
蕁を見つけた	-12458
讙システムは	-12459
賠を見つけた	-12460
速を見つけた	-12461
酋を見つけた	-12462
その出来事はは	-12463
その出来事は嵶	-12464
その出来事は搶	-12465
その出来事は朕	-12466
その出来事は朷	-12467
その出来事は款	-12468
その出来事は沺	-12469
その出来事は爻	-12470
その出来事は納	-12471
その出来事は舞	-12472
その出来事は葺	-12473
その出来事は跼	-12474
その出来事は跿	-12475
仕モデルに基づく	-12476
僉モデルに基づく	-12477
匐モデルに基づく	-12478
和の始まりだった	-12479
嗚モデルに基づく	-12480
孛モデルに基づく	-12481
屋モデルに基づく	-12482
巷の始まりだった	-12483
廱の始まりだった	-12484
彗の始まりだった	-12485
戚の始まりだった	-12486
晝モデルに基づく	-12487
暁の始まりだった	-12488
櫁モデルに基づく	-12489
漾モデルに基づく	-12490
癸モデルに基づく	-12491
磔の始まりだった	-12492
箏の始まりだった	-12493
粍モデルに基づく	-12494
約モデルに基づく	-12495
織モデルに基づく	-12496
翅の始まりだった	-12497
耋の始まりだった	-12498
耨モデルに基づく	-12499
聘の始まりだった	-12500
蟐モデルに基づく	-12501
誓モデルに基づく	-12502
鎹の始まりだった	-12503
鏗の始まりだった	-12504
閨モデルに基づく	-12505
餞モデルに基づく	-12506
饒の始まりだった	-12507
黏モデルに基づく	-12508
り処理を行うために設計されている	-12509
儼処理を行うために設計されている	-12510
塩処理を行うために設計されている	-12511
娜処理を行うために設計されている	-12512
娯処理を行うために設計されている	-12513
届処理を行うために設計されている	-12514
峇処理を行うために設計されている	-12515
廱処理を行うために設計されている	-12516
盲処理を行うために設計されている	-12517
籔処理を行うために設計されている	-12518
統処理を行うために設計されている	-12519
脚処理を行うために設計されている	-12520
航処理を行うために設計されている	-12521
述処理を行うために設計されている	-12522
速処理を行うために設計されている	-12523
鴇処理を行うために設計されている	-12524
鷏処理を行うために設計されている	-12525
が俣	-12526
が哮	-12527
が囑	-12528
が幼	-12529
が強	-12530
が杜	-12531
が磚	-12532
が縉	-12533
が蓆	-12534
が蓴	-12535
が讐	-12536
が貌	-12537
が鉈	-12538
が鬼	-12539
が黥	-12540
供が	-12541
功が	-12542
掟が	-12543
杖が	-12544
澪が	-12545
瓜が	-12546
症が	-12547
辣が	-12548
の町で協	-12549
の町で婿	-12550
の町で幅	-12551
の町で抂	-12552
の町で日	-12553
の町で様	-12554
の町で瞭	-12555
の町で籔	-12556
の町で葬	-12557
の町で輦	-12558
の町で道	-12559
の町で酉	-12560
の町で飩	-12561
仄の町で	-12562
剰の町で	-12563
即の町で	-12564
品の町で	-12565
批の町で	-12566
根の町で	-12567
禦の町で	-12568
緤の町で	-12569
縺の町で	-12570
譜の町で	-12571
豐の町で	-12572
豚の町で	-12573
ギを見つけた	-12574
システムは寫	-12575
システムは恒	-12576
システムは梟	-12577
システムは界	-12578
システムは筝	-12579
システムは艮	-12580
システムは蠣	-12581
システムは蹄	-12582
システムは鏗	-12583
システムは饌	-12584
基本構造は仞	-12585
基本構造は俥	-12586
基本構造は博	-12587
基本構造は咎	-12588
基本構造は宕	-12589
基本構造は嵎	-12590
基本構造は弑	-12591
基本構造は挙	-12592
基本構造は杆	-12593
基本構造は杭	-12594
基本構造は楴	-12595
基本構造は榊	-12596
基本構造は渇	-12597
基本構造は熱	-12598
基本構造は皴	-12599
基本構造は砂	-12600
基本構造は糟	-12601
基本構造は蜒	-12602
基本構造は闊	-12603
基本構造は雖	-12604
基本構造は顛	-12605
基本構造は駈	-12606
壑システムは	-12607
夂システムは	-12608
奸を見つけた	-12609
妊を見つけた	-12610
婦を見つけた	-12611
寮を見つけた	-12612
弐を見つけた	-12613
成を見つけた	-12614
潼システムは	-12615
狭システムは	-12616
由を見つけた	-12617
粽を見つけた	-12618
絛を見つけた	-12619
耶システムは	-12620
肖を見つけた	-12621
艦システムは	-12622
苡を見つけた	-12623
菓を見つけた	-12624
蔀を見つけた	-12625
褄を見つけた	-12626
誅システムは	-12627
跖を見つけた	-12628
鑽を見つけた	-12629
靴システムは	-12630
韲を見つけた	-12631
顧を見つけた	-12632
餡を見つけた	-12633
鴕システムは	-12634
齪システムは	-12635
その出来事は丹	-12636
その出来事は仭	-12637
その出来事は凱	-12638
その出来事は合	-12639
その出来事は孟	-12640
その出来事は察	-12641
その出来事は平	-12642
その出来事は択	-12643
その出来事は曄	-12644
その出来事は朏	-12645
その出来事は棯	-12646
その出来事は毅	-12647
その出来事は洙	-12648
その出来事は溂	-12649
その出来事は狸	-12650
その出来事は畴	-12651
その出来事は竿	-12652
その出来事は綰	-12653
その出来事は緇	-12654
その出来事は薺	-12655
その出来事は蘗	-12656
その出来事は蟲	-12657
その出来事は訴	-12658
その出来事は譽	-12659
その出来事は連	-12660
その出来事は鄂	-12661
その出来事は駅	-12662
その出来事は麺	-12663
ヒだけど頑張る	-12664
イモデルに基づく	-12665
ステという概念は	-12666
ヵモデルに基づく	-12667
伉の始まりだった	-12668
伯の始まりだった	-12669
公の始まりだった	-12670
匙の始まりだった	-12671
即の始まりだった	-12672
嗹モデルに基づく	-12673
奨モデルに基づく	-12674
寛モデルに基づく	-12675
嵐の始まりだった	-12676
嶮モデルに基づく	-12677
恨モデルに基づく	-12678
悒の始まりだった	-12679
慓モデルに基づく	-12680
慧の始まりだった	-12681
戳の始まりだった	-12682
把の始まりだった	-12683
措の始まりだった	-12684
昴の始まりだった	-12685
枋モデルに基づく	-12686
柝の始まりだった	-12687
桔モデルに基づく	-12688
楮の始まりだった	-12689
楯の始まりだった	-12690
欖モデルに基づく	-12691
毀の始まりだった	-12692
潯モデルに基づく	-12693
濬の始まりだった	-12694
牋モデルに基づく	-12695
玳モデルに基づく	-12696
笄の始まりだった	-12697
粤の始まりだった	-12698
累の始まりだった	-12699
苔モデルに基づく	-12700
茵モデルに基づく	-12701
荀の始まりだった	-12702
萠の始まりだった	-12703
葎モデルに基づく	-12704
蝿の始まりだった	-12705
表の始まりだった	-12706
褸の始まりだった	-12707
襍の始まりだった	-12708
辛の始まりだった	-12709
通の始まりだった	-12710
酖の始まりだった	-12711
鉐の始まりだった	-12712
頁の始まりだった	-12713
頼の始まりだった	-12714
餃モデルに基づく	-12715
駟の始まりだった	-12716
魚モデルに基づく	-12717
鴻の始まりだった	-12718
黏の始まりだった	-12719
龜モデルに基づく	-12720
グ処理を行うために設計されている	-12721
僭処理を行うために設計されている	-12722
哉処理を行うために設計されている	-12723
唇処理を行うために設計されている	-12724
峭処理を行うために設計されている	-12725
捜処理を行うために設計されている	-12726
枴処理を行うために設計されている	-12727
歛処理を行うために設計されている	-12728
淹処理を行うために設計されている	-12729
睚処理を行うために設計されている	-12730
硲処理を行うために設計されている	-12731
給処理を行うために設計されている	-12732
蓄処理を行うために設計されている	-12733
誹処理を行うために設計されている	-12734
転処理を行うために設計されている	-12735
返処理を行うために設計されている	-12736
進処理を行うために設計されている	-12737
逶処理を行うために設計されている	-12738
鄭処理を行うために設計されている	-12739
霍処理を行うために設計されている	-12740
馬処理を行うために設計されている	-12741
が侘	-12742
が嘶	-12743
が寉	-12744
が拳	-12745
が昴	-12746
が椪	-12747
が爼	-12748
が猴	-12749
が翰	-12750
が茄	-12751
が誣	-12752
が鄒	-12753
が醋	-12754
が鳬	-12755
凾が	-12756
匡が	-12757
壓が	-12758
媛が	-12759
峺が	-12760
庄が	-12761
慴が	-12762
礫が	-12763
隲が	-12764
な感じ	-12765
の町で忝	-12766
の町で渤	-12767
の町で漬	-12768
の町で辞	-12769
各の町で	-12770
栽の町で	-12771
混の町で	-12772
瑟の町で	-12773
畸の町で	-12774
蜩の町で	-12775
術の町で	-12776
蹈の町で	-12777
躙の町で	-12778
鄂の町で	-12779
鈕の町で	-12780
飯の町で	-12781
饗の町で	-12782
ぉシステムは	-12783
システムは儕	-12784
システムは嬋	-12785
システムは屹	-12786
システムは捲	-12787
システムは社	-12788
システムは簧	-12789
システムは纉	-12790
システムは覡	-12791
システムは言	-12792
システムは錚	-12793
システムは閃	-12794
システムは隆	-12795
システムは鯆	-12796
ヶを見つけた	-12797
仕を見つけた	-12798
倏を見つけた	-12799
厶を見つけた	-12800
吠を見つけた	-12801
基本構造はあ	-12802
基本構造はナ	-12803
基本構造は仏	-12804
基本構造は元	-12805
基本構造は勧	-12806
基本構造は即	-12807
基本構造は咥	-12808
基本構造は嫗	-12809
基本構造は孀	-12810
基本構造は嵩	-12811
基本構造は庄	-12812
基本構造は惧	-12813
基本構造は扨	-12814
基本構造は拜	-12815
基本構造は敖	-12816
基本構造は權	-12817
基本構造は沖	-12818
基本構造は煮	-12819
基本構造は稔	-12820
基本構造は純	-12821
基本構造は莨	-12822
基本構造は蕋	-12823
基本構造は蛻	-12824
基本構造は行	-12825
基本構造は訶	-12826
基本構造は證	-12827
基本構造は鈕	-12828
基本構造は鰒	-12829
基本構造は鰺	-12830
基本構造は鵆	-12831
基本構造は鵑	-12832
壙システムは	-12833
岨システムは	-12834
彦を見つけた	-12835
撮を見つけた	-12836
攷システムは	-12837
昊システムは	-12838
畦を見つけた	-12839
癘を見つけた	-12840
登を見つけた	-12841
眇を見つけた	-12842
秒を見つけた	-12843
累を見つけた	-12844
脣システムは	-12845
芥を見つけた	-12846
蕩を見つけた	-12847
袱を見つけた	-12848
車を見つけた	-12849
軍を見つけた	-12850
轟システムは	-12851
遼を見つけた	-12852
鈞を見つけた	-12853
閙を見つけた	-12854
電システムは	-12855
顔を見つけた	-12856
馬システムは	-12857
麈を見つけた	-12858
その出来事は唐	-12859
その出来事は嚮	-12860
その出来事は弉	-12861
その出来事は懾	-12862
その出来事は泛	-12863
その出来事は猫	-12864
その出来事は疉	-12865
その出来事は磧	-12866
その出来事は禎	-12867
その出来事は脂	-12868
その出来事は舉	-12869
その出来事は蒡	-12870
その出来事は誼	-12871
その出来事は護	-12872
その出来事は貿	-12873
その出来事は鍾	-12874
その出来事は鏐	-12875
ことという概念は	-12876
亊モデルに基づく	-12877
余モデルに基づく	-12878
便モデルに基づく	-12879
吭モデルに基づく	-12880
唹モデルに基づく	-12881
圍の始まりだった	-12882
堽の始まりだった	-12883
専の始まりだった	-12884
嶽の始まりだった	-12885
座モデルに基づく	-12886
彜モデルに基づく	-12887
彷モデルに基づく	-12888
恰の始まりだった	-12889
斃の始まりだった	-12890
曇の始まりだった	-12891
殊モデルに基づく	-12892
渤の始まりだった	-12893
溏の始まりだった	-12894
瑁の始まりだった	-12895
竜の始まりだった	-12896
簒モデルに基づく	-12897
肇モデルに基づく	-12898
脹モデルに基づく	-12899
膀の始まりだった	-12900
艇モデルに基づく	-12901
艾モデルに基づく	-12902
花の始まりだった	-12903
苻の始まりだった	-12904
誹の始まりだった	-12905
轅の始まりだった	-12906
逐の始まりだった	-12907
釟の始まりだった	-12908
鍾の始まりだった	-12909
鎌の始まりだった	-12910
雨モデルに基づく	-12911
霓の始まりだった	-12912
鵲の始まりだった	-12913
鶏の始まりだった	-12914
鷹モデルに基づく	-12915
そのと関連付けられることがある	-12916
め処理を行うために設計されている	-12917
乎処理を行うために設計されている	-12918
偃処理を行うために設計されている	-12919
僕処理を行うために設計されている	-12920
儿処理を行うために設計されている	-12921
啅処理を行うために設計されている	-12922
坏処理を行うために設計されている	-12923
怱処理を行うために設計されている	-12924
才処理を行うために設計されている	-12925
拓処理を行うために設計されている	-12926
拶処理を行うために設計されている	-12927
歇処理を行うために設計されている	-12928
灣処理を行うために設計されている	-12929
燠処理を行うために設計されている	-12930
稱処理を行うために設計されている	-12931
笛処理を行うために設計されている	-12932
簫処理を行うために設計されている	-12933
紳処理を行うために設計されている	-12934
荏処理を行うために設計されている	-12935
藜処理を行うために設計されている	-12936
誤処理を行うために設計されている	-12937
逾処理を行うために設計されている	-12938
閊処理を行うために設計されている	-12939
隋処理を行うために設計されている	-12940
高処理を行うために設計されている	-12941
鯒処理を行うために設計されている	-12942
麒処理を行うために設計されている	-12943
がど	-12944
が凾	-12945
が同	-12946
が啄	-12947
が孀	-12948
が底	-12949
が捌	-12950
が敏	-12951
が朖	-12952
が柳	-12953
が歉	-12954
が瀛	-12955
が眤	-12956
が祿	-12957
が蟲	-12958
が袱	-12959
が財	-12960
が送	-12961
が面	-12962
が饅	-12963
懃が	-12964
搗が	-12965
枕が	-12966
督が	-12967
脳が	-12968
蕪が	-12969
除が	-12970
の町でォ	-12971
の町で兢	-12972
の町で励	-12973
の町で匱	-12974
の町で嶝	-12975
の町で旙	-12976
の町で月	-12977
の町で汀	-12978
の町で濺	-12979
の町で炊	-12980
の町で瓦	-12981
の町で砠	-12982
の町で聰	-12983
の町で蛙	-12984
の町で醢	-12985
の町で鵡	-12986
係の町で	-12987
奈の町で	-12988
屯の町で	-12989
曷の町で	-12990
瞳の町で	-12991
葷の町で	-12992
虍の町で	-12993
蝣の町で	-12994
讌の町で	-12995
踈の町で	-12996
遂の町で	-12997
鑿の町で	-12998
鬧の町で	-12999
齊の町で	-13000
システムは刺	-13001
システムは双	-13002
システムは噺	-13003
システムは圸	-13004
システムは弥	-13005
システムは慊	-13006
システムは歟	-13007
システムは畏	-13008
システムは瘁	-13009
システムは粛	-13010
システムは肬	-13011
システムは蘓	-13012
システムは逢	-13013
侑システムは	-13014
係を見つけた	-13015
僉を見つけた	-13016
兌を見つけた	-13017
勵を見つけた	-13018
匸システムは	-13019
基本構造はゾ	-13020
基本構造は乢	-13021
基本構造は俘	-13022
基本構造は傭	-13023
基本構造は妓	-13024
基本構造は嬬	-13025
基本構造は審	-13026
基本構造は岾	-13027
基本構造は幇	-13028
基本構造は幔	-13029
基本構造は廓	-13030
基本構造は揃	-13031
基本構造は汪	-13032
基本構造は沾	-13033
基本構造は渉	-13034
基本構造は渊	-13035
基本構造は準	-13036
基本構造は滬	-13037
基本構造は焦	-13038
基本構造は煉	-13039
基本構造は瞋	-13040
基本構造は竊	-13041
基本構造は縷	-13042
基本構造は腫	-13043
基本構造は艦	-13044
基本構造は苒	-13045
基本構造は茆	-13046
基本構造は蜚	-13047
基本構造は蜻	-13048
基本構造は蠧	-13049
基本構造は跣	-13050
基本構造は跼	-13051
基本構造は遥	-13052
基本構造は陷	-13053
基本構造は鯑	-13054
基本構造は齔	-13055
後を見つけた	-13056
忿を見つけた	-13057
悩を見つけた	-13058
挟を見つけた	-13059
掀を見つけた	-13060
故を見つけた	-13061
杵を見つけた	-13062
桿システムは	-13063
槌を見つけた	-13064
機システムは	-13065
欟システムは	-13066
璋システムは	-13067
碆を見つけた	-13068
等を見つけた	-13069
箚を見つけた	-13070
蕪を見つけた	-13071
蛆を見つけた	-13072
諺を見つけた	-13073
轆を見つけた	-13074
酸システムは	-13075
餌を見つけた	-13076
鱈を見つけた	-13077
鴫を見つけた	-13078
齧を見つけた	-13079
その出来事は俄	-13080
その出来事は傘	-13081
その出来事は啣	-13082
その出来事は垠	-13083
その出来事は奏	-13084
その出来事は希	-13085
その出来事は搭	-13086
その出来事は敍	-13087
その出来事は既	-13088
その出来事は槲	-13089
その出来事は汢	-13090
その出来事は浄	-13091
その出来事は珠	-13092
その出来事は甍	-13093
その出来事は町	-13094
その出来事は禾	-13095
その出来事は繹	-13096
その出来事は聿	-13097
その出来事は膝	-13098
その出来事は蝗	-13099
その出来事は贈	-13100
その出来事は赧	-13101
その出来事は輊	-13102
その出来事は迸	-13103
その出来事は遘	-13104
その出来事は邂	-13105
その出来事は驛	-13106
その出来事は鴉	-13107
あモデルに基づく	-13108
けモデルに基づく	-13109
ッモデルに基づく	-13110
兔モデルに基づく	-13111
冦の始まりだった	-13112
咸の始まりだった	-13113
圓の始まりだった	-13114
墜モデルに基づく	-13115
壓モデルに基づく	-13116
委の始まりだった	-13117
孛の始まりだった	-13118
孟モデルに基づく	-13119
宸の始まりだった	-13120
尼の始まりだった	-13121
岫モデルに基づく	-13122
嶬モデルに基づく	-13123
廬モデルに基づく	-13124
弥の始まりだった	-13125
捫の始まりだった	-13126
捶の始まりだった	-13127
擬の始まりだった	-13128
梏モデルに基づく	-13129
椀モデルに基づく	-13130
橦の始まりだった	-13131
沃の始まりだった	-13132
澂の始まりだった	-13133
瀟の始まりだった	-13134
猯モデルに基づく	-13135
痿の始まりだった	-13136
砧の始まりだった	-13137
礼モデルに基づく	-13138
穫の始まりだった	-13139
穹モデルに基づく	-13140
竇の始まりだった	-13141
笹の始まりだった	-13142
肖の始まりだった	-13143
苟の始まりだった	-13144
蕕の始まりだった	-13145
薤の始まりだった	-13146
薬の始まりだった	-13147
螯の始まりだった	-13148
註の始まりだった	-13149
詮の始まりだった	-13150
謡モデルに基づく	-13151
遍の始まりだった	-13152
邦の始まりだった	-13153
銚モデルに基づく	-13154
鐫モデルに基づく	-13155
閣モデルに基づく	-13156
霊モデルに基づく	-13157
餠モデルに基づく	-13158
麗モデルに基づく	-13159
麸の始まりだった	-13160
吐処理を行うために設計されている	-13161
唱処理を行うために設計されている	-13162
士処理を行うために設計されている	-13163
孟処理を行うために設計されている	-13164
嵎処理を行うために設計されている	-13165
料処理を行うために設計されている	-13166
氷処理を行うために設計されている	-13167
汨処理を行うために設計されている	-13168
漫処理を行うために設計されている	-13169
潯処理を行うために設計されている	-13170
灑処理を行うために設計されている	-13171
瓣処理を行うために設計されている	-13172
生処理を行うために設計されている	-13173
畉処理を行うために設計されている	-13174
疣処理を行うために設計されている	-13175
繽処理を行うために設計されている	-13176
羈処理を行うために設計されている	-13177
蛸処理を行うために設計されている	-13178
覦処理を行うために設計されている	-13179
誼処理を行うために設計されている	-13180
謳処理を行うために設計されている	-13181
豺処理を行うために設計されている	-13182
蹇処理を行うために設計されている	-13183
闖処理を行うために設計されている	-13184
魑処理を行うために設計されている	-13185
麩処理を行うために設計されている	-13186
黏処理を行うために設計されている	-13187
が劭	-13188
が午	-13189
が半	-13190
が嶇	-13191
が春	-13192
が欧	-13193
が洗	-13194
が犒	-13195
が獗	-13196
が痃	-13197
が福	-13198
が禳	-13199
が節	-13200
が緊	-13201
が緕	-13202
が註	-13203
が蹉	-13204
が蹟	-13205
が錯	-13206
が鯆	-13207
婪が	-13208
幎が	-13209
搖が	-13210
枢が	-13211
柢が	-13212
柵が	-13213
猊が	-13214
羃が	-13215
芽が	-13216
豢が	-13217
け感じ	-13218
み感じ	-13219
め感じ	-13220
の町で來	-13221
の町で喝	-13222
の町で寳	-13223
の町で廓	-13224
の町で擽	-13225
の町で液	-13226
の町で睚	-13227
の町で線	-13228
の町で莅	-13229
の町で葩	-13230
の町で蹶	-13231
の町で顕	-13232
の町で麕	-13233
クの町で	-13234
侖の町で	-13235
卍の町で	-13236
宜の町で	-13237
巛の町で	-13238
摩の町で	-13239
暢の町で	-13240
栩の町で	-13241
殲の町で	-13242
滝の町で	-13243
銜の町で	-13244
韈の町で	-13245
▁今日はこ	-13246
しを見つけた	-13247
システムはえ	-13248
システムは嘛	-13249
システムは噛	-13250
システムは尽	-13251
システムは恥	-13252
システムは惚	-13253
システムは憤	-13254
システムは栂	-13255
システムは橢	-13256
システムは産	-13257
システムは磁	-13258
システムは禦	-13259
システムは程	-13260
システムは縉	-13261
システムは舖	-13262
システムは訃	-13263
システムは貨	-13264
システムは軾	-13265
システムは遘	-13266
システムは鶚	-13267
久システムは	-13268
亊を見つけた	-13269
俟を見つけた	-13270
倅システムは	-13271
候を見つけた	-13272
倭システムは	-13273
儒を見つけた	-13274
兌システムは	-13275
匈システムは	-13276
咀システムは	-13277
啅を見つけた	-13278
基本構造はヴ	-13279
基本構造は基	-13280
基本構造は塙	-13281
基本構造は字	-13282
基本構造は孝	-13283
基本構造は服	-13284
基本構造は棺	-13285
基本構造は毀	-13286
基本構造は狙	-13287
基本構造は玩	-13288
基本構造は甬	-13289
基本構造は確	-13290
基本構造は科	-13291
基本構造は稠	-13292
基本構造は立	-13293
基本構造は第	-13294
基本構造は籾	-13295
基本構造は聴	-13296
基本構造は菽	-13297
基本構造は蚋	-13298
基本構造は蠹	-13299
基本構造は設	-13300
基本構造は謝	-13301
基本構造は遵	-13302
基本構造は願	-13303
基本構造は鱚	-13304
基本構造は鳰	-13305
基本構造は鴒	-13306
基本構造は鷽	-13307
基本構造は龍	-13308
姪を見つけた	-13309
嫻を見つけた	-13310
孛を見つけた	-13311
宏を見つけた	-13312
幸を見つけた	-13313
店を見つけた	-13314
懿を見つけた	-13315
捺を見つけた	-13316
握を見つけた	-13317
搗システムは	-13318
杆システムは	-13319
殍システムは	-13320
焔システムは	-13321
疵システムは	-13322
群システムは	-13323
脆システムは	-13324
蝸を見つけた	-13325
襾を見つけた	-13326
諒を見つけた	-13327
譛を見つけた	-13328
資を見つけた	-13329
躙を見つけた	-13330
輾システムは	-13331
辜を見つけた	-13332
釦を見つけた	-13333
鐺を見つけた	-13334
霆を見つけた	-13335
頁を見つけた	-13336
騅を見つけた	-13337
騙システムは	-13338
鹽を見つけた	-13339
黎を見つけた	-13340
その出来事はピ	-13341
その出来事は剃	-13342
その出来事は厄	-13343
その出来事は咤	-13344
その出来事は嚢	-13345
その出来事は団	-13346
その出来事は妲	-13347
その出来事は導	-13348
その出来事は嵋	-13349
その出来事は廃	-13350
その出来事は弔	-13351
その出来事は急	-13352
その出来事は懷	-13353
その出来事は朝	-13354
その出来事は果	-13355
その出来事は栖	-13356
その出来事は氾	-13357
その出来事は治	-13358
その出来事は瘤	-13359
その出来事は祭	-13360
その出来事は粭	-13361
その出来事は聳	-13362
その出来事は蜩	-13363
その出来事は蝸	-13364
その出来事は褻	-13365
その出来事は試	-13366
その出来事は誦	-13367
その出来事は贅	-13368
その出来事は赱	-13369
その出来事は輦	-13370
その出来事は鋲	-13371
その出来事は鎭	-13372
その出来事は鞠	-13373
その出来事は項	-13374
その出来事は鯊	-13375
その出来事は鸞	-13376
カだけど頑張る	-13377
ケだけど頑張る	-13378
チだけど頑張る	-13379
ていという概念は	-13380
ドモデルに基づく	-13381
二の始まりだった	-13382
亳の始まりだった	-13383
令モデルに基づく	-13384
任の始まりだった	-13385
信の始まりだった	-13386
倪モデルに基づく	-13387
剪の始まりだった	-13388
卯の始まりだった	-13389
厄の始まりだった	-13390
只の始まりだった	-13391
向モデルに基づく	-13392
吠モデルに基づく	-13393
呉の始まりだった	-13394
品の始まりだった	-13395
喇の始まりだった	-13396
圃モデルに基づく	-13397
壙の始まりだった	-13398
奄の始まりだった	-13399
如モデルに基づく	-13400
娑モデルに基づく	-13401
孃の始まりだった	-13402
寫の始まりだった	-13403
崇モデルに基づく	-13404
恚モデルに基づく	-13405
挙の始まりだった	-13406
捜モデルに基づく	-13407
掾モデルに基づく	-13408
斷の始まりだった	-13409
晤の始まりだった	-13410
暝モデルに基づく	-13411
朧モデルに基づく	-13412
杵モデルに基づく	-13413
椽の始まりだった	-13414
榁モデルに基づく	-13415
浴モデルに基づく	-13416
濆モデルに基づく	-13417
瀑モデルに基づく	-13418
煢の始まりだった	-13419
獅モデルに基づく	-13420
玉モデルに基づく	-13421
甥の始まりだった	-13422
瞼の始まりだった	-13423
礬の始まりだった	-13424
稿の始まりだった	-13425
穉の始まりだった	-13426
竃の始まりだった	-13427
竸の始まりだった	-13428
篦の始まりだった	-13429
紜の始まりだった	-13430
紫モデルに基づく	-13431
経の始まりだった	-13432
肌モデルに基づく	-13433
航の始まりだった	-13434
莠の始まりだった	-13435
虚モデルに基づく	-13436
蛹モデルに基づく	-13437
蜆モデルに基づく	-13438
蝗モデルに基づく	-13439
被の始まりだった	-13440
袷の始まりだった	-13441
誅の始まりだった	-13442
貨モデルに基づく	-13443
贄モデルに基づく	-13444
轉の始まりだった	-13445
逑の始まりだった	-13446
鈞モデルに基づく	-13447
閧モデルに基づく	-13448
雅の始まりだった	-13449
餝モデルに基づく	-13450
鬢の始まりだった	-13451
鱆モデルに基づく	-13452
ズ処理を行うために設計されている	-13453
亀処理を行うために設計されている	-13454
勳処理を行うために設計されている	-13455
嘸処理を行うために設計されている	-13456
堙処理を行うために設計されている	-13457
墻処理を行うために設計されている	-13458
奔処理を行うために設計されている	-13459
妖処理を行うために設計されている	-13460
姨処理を行うために設計されている	-13461
嫐処理を行うために設計されている	-13462
悌処理を行うために設計されている	-13463
憎処理を行うために設計されている	-13464
摩処理を行うために設計されている	-13465
昵処理を行うために設計されている	-13466
柤処理を行うために設計されている	-13467
牙処理を行うために設計されている	-13468
窄処理を行うために設計されている	-13469
窓処理を行うために設計されている	-13470
羆処理を行うために設計されている	-13471
肴処理を行うために設計されている	-13472
蒄処理を行うために設計されている	-13473
裄処理を行うために設計されている	-13474
謹処理を行うために設計されている	-13475
譜処理を行うために設計されている	-13476
隨処理を行うために設計されている	-13477
鮹処理を行うために設計されている	-13478
が喙	-13479
が寄	-13480
が建	-13481
が径	-13482
が後	-13483
が曲	-13484
が梧	-13485
が椀	-13486
が歸	-13487
が炸	-13488
が疂	-13489
が礎	-13490
が箘	-13491
が羇	-13492
が薹	-13493
が遇	-13494
が釈	-13495
が霧	-13496
が頒	-13497
人が	-13498
唱が	-13499
夘が	-13500
怎が	-13501
柯が	-13502
牛が	-13503
茴が	-13504
街が	-13505
詣が	-13506
貽が	-13507
郁が	-13508
随が	-13509
の町で俺	-13510
の町で告	-13511
の町で咀	-13512
の町で嗄	-13513
の町で壟	-13514
の町で士	-13515
の町で槎	-13516
の町で瀚	-13517
の町で狠	-13518
の町で瘡	-13519
の町で皙	-13520
の町で盞	-13521
の町で稚	-13522
の町で窗	-13523
の町で筏	-13524
の町で管	-13525
の町で絋	-13526
の町で脳	-13527
の町で腋	-13528
の町で芒	-13529
の町で荊	-13530
の町で阯	-13531
の町で静	-13532
の町で養	-13533
の町で騫	-13534
嘆の町で	-13535
尼の町で	-13536
強の町で	-13537
徠の町で	-13538
挂の町で	-13539
言の町で	-13540
魄の町で	-13541
あを見つけた	-13542
っを見つけた	-13543
ィを見つけた	-13544
システムは个	-13545
システムは凪	-13546
システムは坪	-13547
システムは怠	-13548
システムは悲	-13549
システムは抄	-13550
システムは曵	-13551
システムは杵	-13552
システムは榎	-13553
システムは橿	-13554
システムは檜	-13555
システムは欅	-13556
システムは珎	-13557
システムは相	-13558
システムは真	-13559
システムは籬	-13560
システムは脇	-13561
システムは軫	-13562
乍を見つけた	-13563
事を見つけた	-13564
例を見つけた	-13565
冑システムは	-13566
写を見つけた	-13567
冪を見つけた	-13568
刮を見つけた	-13569
剃を見つけた	-13570
剔を見つけた	-13571
劒システムは	-13572
占システムは	-13573
只システムは	-13574
圖を見つけた	-13575
基本構造は住	-13576
基本構造は像	-13577
基本構造は兒	-13578
基本構造は兪	-13579
基本構造は冂	-13580
基本構造は刑	-13581
基本構造は劵	-13582
基本構造は唯	-13583
基本構造は壕	-13584
基本構造は廡	-13585
基本構造は戝	-13586
基本構造は拭	-13587
基本構造は掩	-13588
基本構造は暴	-13589
基本構造は桀	-13590
基本構造は桾	-13591
基本構造は榻	-13592
基本構造は櫃	-13593
基本構造は独	-13594
基本構造は琥	-13595
基本構造は痙	-13596
基本構造は短	-13597
基本構造は竃	-13598
基本構造は笊	-13599
基本構造は簟	-13600
基本構造は紫	-13601
基本構造は罎	-13602
基本構造は葮	-13603
基本構造は蓄	-13604
基本構造は蓬	-13605
基本構造は蕗	-13606
基本構造は蘯	-13607
基本構造は襖	-13608
基本構造は訐	-13609
基本構造は貯	-13610
基本構造は賀	-13611
基本構造は躄	-13612
基本構造は顔	-13613
基本構造は高	-13614
基本構造は黴	-13615
夛システムは	-13616
實を見つけた	-13617
左を見つけた	-13618
惧システムは	-13619
懾を見つけた	-13620
捷システムは	-13621
柩を見つけた	-13622
極システムは	-13623
欄を見つけた	-13624
欟を見つけた	-13625
殞を見つけた	-13626
沾システムは	-13627
満を見つけた	-13628
瓱システムは	-13629
瞋を見つけた	-13630
磐を見つけた	-13631
礑システムは	-13632
礙を見つけた	-13633
稔を見つけた	-13634
笞を見つけた	-13635
籐システムは	-13636
糧を見つけた	-13637
綽システムは	-13638
綾を見つけた	-13639
締を見つけた	-13640
縟を見つけた	-13641
罪を見つけた	-13642
羽を見つけた	-13643
腐を見つけた	-13644
膃システムは	-13645
苹を見つけた	-13646
茯を見つけた	-13647
莵を見つけた	-13648
萌システムは	-13649
蓙システムは	-13650
蓬を見つけた	-13651
蜷を見つけた	-13652
裾システムは	-13653
諸を見つけた	-13654
貭システムは	-13655
赫を見つけた	-13656
辣を見つけた	-13657
配を見つけた	-13658
鍋を見つけた	-13659
鎹システムは	-13660
鐺システムは	-13661
開を見つけた	-13662
靜システムは	-13663
頗を見つけた	-13664
餅を見つけた	-13665
餓を見つけた	-13666
馘を見つけた	-13667
鷺システムは	-13668
黝を見つけた	-13669
齶を見つけた	-13670
その出来事はな	-13671
その出来事はば	-13672
その出来事は傳	-13673
その出来事は兜	-13674
その出来事は吁	-13675
その出来事は呪	-13676
その出来事は哽	-13677
その出来事は坐	-13678
その出来事は堀	-13679
その出来事は嶽	-13680
その出来事は悛	-13681
その出来事は慘	-13682
その出来事は懺	-13683
その出来事は抔	-13684
その出来事は掩	-13685
その出来事は摘	-13686
その出来事は暇	-13687
その出来事は桶	-13688
その出来事は椦	-13689
その出来事は櫪	-13690
その出来事は淪	-13691
その出来事は渣	-13692
その出来事は潘	-13693
その出来事は点	-13694
その出来事は生	-13695
その出来事は瘋	-13696
その出来事は盈	-13697
その出来事は祥	-13698
その出来事は竡	-13699
その出来事は箙	-13700
その出来事は絣	-13701
その出来事は繻	-13702
その出来事は聰	-13703
その出来事は蒄	-13704
その出来事は蚪	-13705
その出来事は装	-13706
その出来事は誂	-13707
その出来事は責	-13708
その出来事は軣	-13709
その出来事は過	-13710
その出来事は鏈	-13711
その出来事は鐶	-13712
その出来事は閧	-13713
ナだけど頑張る	-13714
されという概念は	-13715
なの始まりだった	-13716
みの始まりだった	-13717
ゎの始まりだった	-13718
ヒモデルに基づく	-13719
乢の始まりだった	-13720
亥の始まりだった	-13721
伝の始まりだった	-13722
俔モデルに基づく	-13723
倫の始まりだった	-13724
助の始まりだった	-13725
北の始まりだった	-13726
匠の始まりだった	-13727
卷の始まりだった	-13728
厂モデルに基づく	-13729
原モデルに基づく	-13730
参の始まりだった	-13731
叫の始まりだった	-13732
名の始まりだった	-13733
咼の始まりだった	-13734
嗾モデルに基づく	-13735
嚢の始まりだった	-13736
夥モデルに基づく	-13737
太モデルに基づく	-13738
始の始まりだった	-13739
媛の始まりだった	-13740
嫗の始まりだった	-13741
宕モデルに基づく	-13742
宦の始まりだった	-13743
弔の始まりだった	-13744
彿の始まりだった	-13745
徒の始まりだった	-13746
悧の始まりだった	-13747
惜の始まりだった	-13748
慎の始まりだった	-13749
慟の始まりだった	-13750
扣モデルに基づく	-13751
抔の始まりだった	-13752
捺モデルに基づく	-13753
授の始まりだった	-13754
撲モデルに基づく	-13755
斛の始まりだった	-13756
易モデルに基づく	-13757
杁の始まりだった	-13758
枚モデルに基づく	-13759
棟の始まりだった	-13760
椨の始まりだった	-13761
楴の始まりだった	-13762
槭モデルに基づく	-13763
樸モデルに基づく	-13764
氣モデルに基づく	-13765
泳モデルに基づく	-13766
洶モデルに基づく	-13767
滑の始まりだった	-13768
澁の始まりだった	-13769
猪モデルに基づく	-13770
瑰の始まりだった	-13771
璋モデルに基づく	-13772
畦モデルに基づく	-13773
瘍の始まりだった	-13774
瞠の始まりだった	-13775
祖の始まりだった	-13776
私の始まりだった	-13777
秣モデルに基づく	-13778
窃の始まりだった	-13779
簷モデルに基づく	-13780
網の始まりだった	-13781
緒の始まりだった	-13782
翔の始まりだった	-13783
耋モデルに基づく	-13784
膨の始まりだった	-13785
芋の始まりだった	-13786
莨モデルに基づく	-13787
蓍モデルに基づく	-13788
蕕モデルに基づく	-13789
薯の始まりだった	-13790
藏モデルに基づく	-13791
蜃モデルに基づく	-13792
蜻の始まりだった	-13793
蝠の始まりだった	-13794
蠖モデルに基づく	-13795
裂モデルに基づく	-13796
裙モデルに基づく	-13797
觀モデルに基づく	-13798
謠モデルに基づく	-13799
貧の始まりだった	-13800
貲の始まりだった	-13801
蹤の始まりだった	-13802
鎔の始まりだった	-13803
限モデルに基づく	-13804
霽の始まりだった	-13805
鞐の始まりだった	-13806
驥の始まりだった	-13807
鰥の始まりだった	-13808
黙モデルに基づく	-13809
だ処理を行うために設計されている	-13810
僵処理を行うために設計されている	-13811
元処理を行うために設計されている	-13812
吉処理を行うために設計されている	-13813
女処理を行うために設計されている	-13814
寡処理を行うために設計されている	-13815
徇処理を行うために設計されている	-13816
怪処理を行うために設計されている	-13817
惡処理を行うために設計されている	-13818
抓処理を行うために設計されている	-13819
抔処理を行うために設計されている	-13820
抗処理を行うために設計されている	-13821
拮処理を行うために設計されている	-13822
挨処理を行うために設計されている	-13823
撓処理を行うために設計されている	-13824
數処理を行うために設計されている	-13825
曄処理を行うために設計されている	-13826
栗処理を行うために設計されている	-13827
栴処理を行うために設計されている	-13828
桎処理を行うために設計されている	-13829
棕処理を行うために設計されている	-13830
椄処理を行うために設計されている	-13831
槊処理を行うために設計されている	-13832
檄処理を行うために設計されている	-13833
歙処理を行うために設計されている	-13834
此処理を行うために設計されている	-13835
殴処理を行うために設計されている	-13836
犇処理を行うために設計されている	-13837
珱処理を行うために設計されている	-13838
痲処理を行うために設計されている	-13839
策処理を行うために設計されている	-13840
緑処理を行うために設計されている	-13841
考処理を行うために設計されている	-13842
聊処理を行うために設計されている	-13843
胃処理を行うために設計されている	-13844
葱処理を行うために設計されている	-13845
薪処理を行うために設計されている	-13846
蟄処理を行うために設計されている	-13847
轡処理を行うために設計されている	-13848
辱処理を行うために設計されている	-13849
逎処理を行うために設計されている	-13850
遙処理を行うために設計されている	-13851
郢処理を行うために設計されている	-13852
銕処理を行うために設計されている	-13853
駟処理を行うために設計されている	-13854
が个	-13855
が哥	-13856
が啣	-13857
が圭	-13858
が寇	-13859
が幻	-13860
が忌	-13861
が悄	-13862
が戈	-13863
が挑	-13864
が揚	-13865
が款	-13866
が溝	-13867
が畸	-13868
が舜	-13869
が蓁	-13870
が跂	-13871
が鐇	-13872
が鯒	-13873
が鯨	-13874
が鵙	-13875
印が	-13876
吏が	-13877
溘が	-13878
焦が	-13879
熄が	-13880
腋が	-13881
艤が	-13882
陂が	-13883
陋が	-13884
集が	-13885
韈が	-13886
の町で佇	-13887
の町で冰	-13888
の町で品	-13889
の町で唔	-13890
の町で寝	-13891
の町で寞	-13892
の町で属	-13893
の町で弸	-13894
の町で徇	-13895
の町で悄	-13896
の町で惻	-13897
の町で揮	-13898
の町で殘	-13899
の町で沖	-13900
の町で照	-13901
の町で爾	-13902
の町で祠	-13903
の町で紊	-13904
の町で紋	-13905
の町で褪	-13906
の町で見	-13907
の町で近	-13908
の町で闍	-13909
の町で隼	-13910
の町で顆	-13911
の町で點	-13912
の町で齒	-13913
乗の町で	-13914
僊の町で	-13915
區の町で	-13916
扉の町で	-13917
縢の町で	-13918
羶の町で	-13919
芽の町で	-13920
軍の町で	-13921
隊の町で	-13922
ごシステムは	-13923
システムは刎	-13924
システムは奥	-13925
システムは妲	-13926
システムは斫	-13927
システムは渮	-13928
システムは碓	-13929
システムは笄	-13930
システムは葩	-13931
システムは遏	-13932
システムは鎬	-13933
システムは隼	-13934
システムは驟	-13935
システムは鴆	-13936
乘システムは	-13937
冉システムは	-13938
凩を見つけた	-13939
函システムは	-13940
利を見つけた	-13941
剥を見つけた	-13942
匐を見つけた	-13943
叔を見つけた	-13944
吋を見つけた	-13945
哀を見つけた	-13946
嘔システムは	-13947
基本構造はル	-13948
基本構造は冊	-13949
基本構造は冩	-13950
基本構造は剳	-13951
基本構造は劔	-13952
基本構造は叶	-13953
基本構造は嗄	-13954
基本構造は士	-13955
基本構造は婬	-13956
基本構造は弗	-13957
基本構造は彖	-13958
基本構造は戍	-13959
基本構造は抗	-13960
基本構造は梵	-13961
基本構造は樣	-13962
基本構造は橦	-13963
基本構造は浜	-13964
基本構造は浩	-13965
基本構造は湖	-13966
基本構造は烙	-13967
基本構造は版	-13968
基本構造は獰	-13969
基本構造は瑠	-13970
基本構造は畤	-13971
基本構造は直	-13972
基本構造は穀	-13973
基本構造は筬	-13974
基本構造は篋	-13975
基本構造は網	-13976
基本構造は翳	-13977
基本構造は肉	-13978
基本構造は苧	-13979
基本構造は蕾	-13980
基本構造は薨	-13981
基本構造は蝟	-13982
基本構造は訖	-13983
基本構造は訝	-13984
基本構造は購	-13985
基本構造は跚	-13986
基本構造は躊	-13987
基本構造は逖	-13988
基本構造は遮	-13989
基本構造は陵	-13990
基本構造は馳	-13991
基本構造は騷	-13992
塙を見つけた	-13993
婪システムは	-13994
嫗を見つけた	-13995
崚システムは	-13996
弐システムは	-13997
拶を見つけた	-13998
授を見つけた	-13999
携システムは	-14000
果を見つけた	-14001
柁システムは	-14002
梃システムは	-14003
棆を見つけた	-14004
毅を見つけた	-14005
洽を見つけた	-14006
涸を見つけた	-14007
渊を見つけた	-14008
犇を見つけた	-14009
畭システムは	-14010
癇システムは	-14011
百を見つけた	-14012
盞を見つけた	-14013
禊を見つけた	-14014
禎を見つけた	-14015
竹を見つけた	-14016
糂を見つけた	-14017
紊を見つけた	-14018
翳を見つけた	-14019
肌システムは	-14020
自システムは	-14021
芦システムは	-14022
葉を見つけた	-14023
蔦を見つけた	-14024
藷システムは	-14025
訌システムは	-14026
詭を見つけた	-14027
謨を見つけた	-14028
貔システムは	-14029
貮を見つけた	-14030
貳を見つけた	-14031
躑を見つけた	-14032
軻を見つけた	-14033
邂システムは	-14034
酬システムは	-14035
鉈システムは	-14036
頃システムは	-14037
預システムは	-14038
鰛システムは	-14039
鱈システムは	-14040
鴒を見つけた	-14041
鶴を見つけた	-14042
その出来事はゎ	-14043
その出来事は仔	-14044
その出来事は伺	-14045
その出来事は借	-14046
その出来事は南	-14047
その出来事は吟	-14048
その出来事は喃	-14049
その出来事は圃	-14050
その出来事は壊	-14051
その出来事は廣	-14052
その出来事は愁	-14053
その出来事は抬	-14054
その出来事は拊	-14055
その出来事は拔	-14056
その出来事は攵	-14057
その出来事は朖	-14058
その出来事は桂	-14059
その出来事は棺	-14060
その出来事は櫁	-14061
その出来事は汁	-14062
その出来事は河	-14063
その出来事は浮	-14064
その出来事は淬	-14065
その出来事は湛	-14066
その出来事は琺	-14067
その出来事は瑠	-14068
その出来事は皐	-14069
その出来事は砲	-14070
その出来事は粲	-14071
その出来事は結	-14072
その出来事は縅	-14073
その出来事は膰	-14074
その出来事は艫	-14075
その出来事は蒟	-14076
その出来事は蒭	-14077
その出来事は薹	-14078
その出来事は衙	-14079
その出来事は袱	-14080
その出来事は触	-14081
その出来事は認	-14082
その出来事は譎	-14083
その出来事は輙	-14084
その出来事は部	-14085
その出来事は針	-14086
その出来事は鉋	-14087
その出来事は鋼	-14088
その出来事は錘	-14089
その出来事は雇	-14090
その出来事は鬼	-14091
その出来事は黝	-14092
ツだけど頑張る	-14093
ゃの始まりだった	-14094
タの始まりだった	-14095
レモデルに基づく	-14096
丘モデルに基づく	-14097
丹モデルに基づく	-14098
俔の始まりだった	-14099
傚モデルに基づく	-14100
冉の始まりだった	-14101
凰の始まりだった	-14102
凱の始まりだった	-14103
呂モデルに基づく	-14104
命の始まりだった	-14105
哀の始まりだった	-14106
喧の始まりだった	-14107
圷モデルに基づく	-14108
墹モデルに基づく	-14109
妨モデルに基づく	-14110
婪の始まりだった	-14111
尊モデルに基づく	-14112
尸の始まりだった	-14113
岐の始まりだった	-14114
峽モデルに基づく	-14115
嵋の始まりだった	-14116
幽の始まりだった	-14117
弉モデルに基づく	-14118
徘モデルに基づく	-14119
忰の始まりだった	-14120
怩モデルに基づく	-14121
悲モデルに基づく	-14122
悼モデルに基づく	-14123
慕の始まりだった	-14124
拌の始まりだった	-14125
推モデルに基づく	-14126
擣の始まりだった	-14127
朔の始まりだった	-14128
柧の始まりだった	-14129
档モデルに基づく	-14130
楔の始まりだった	-14131
汎の始まりだった	-14132
沚モデルに基づく	-14133
洩モデルに基づく	-14134
浣の始まりだった	-14135
淫の始まりだった	-14136
渓の始まりだった	-14137
溽の始まりだった	-14138
炸モデルに基づく	-14139
焼モデルに基づく	-14140
犀の始まりだった	-14141
犠の始まりだった	-14142
狂モデルに基づく	-14143
瑣モデルに基づく	-14144
畑モデルに基づく	-14145
瘻モデルに基づく	-14146
癈の始まりだった	-14147
睫の始まりだった	-14148
窘の始まりだった	-14149
簷の始まりだった	-14150
粳の始まりだった	-14151
紮の始まりだった	-14152
絖の始まりだった	-14153
綢の始まりだった	-14154
腕モデルに基づく	-14155
臻の始まりだった	-14156
般モデルに基づく	-14157
艘モデルに基づく	-14158
艮の始まりだった	-14159
蔵モデルに基づく	-14160
蕀モデルに基づく	-14161
藾モデルに基づく	-14162
蝮の始まりだった	-14163
行モデルに基づく	-14164
詔モデルに基づく	-14165
誠モデルに基づく	-14166
賎の始まりだった	-14167
輻モデルに基づく	-14168
逶の始まりだった	-14169
郁モデルに基づく	-14170
鄂モデルに基づく	-14171
酩の始まりだった	-14172
釘モデルに基づく	-14173
鈍モデルに基づく	-14174
鋭の始まりだった	-14175
鍄モデルに基づく	-14176
鍍の始まりだった	-14177
鍜モデルに基づく	-14178
鍼の始まりだった	-14179
附の始まりだった	-14180
霈モデルに基づく	-14181
霑の始まりだった	-14182
響モデルに基づく	-14183
驚の始まりだった	-14184
鰌モデルに基づく	-14185
鱶の始まりだった	-14186
鶉の始まりだった	-14187
鷸の始まりだった	-14188
麪の始まりだった	-14189
鼻の始まりだった	-14190
べ処理を行うために設計されている	-14191
ォ処理を行うために設計されている	-14192
乾処理を行うために設計されている	-14193
亨処理を行うために設計されている	-14194
会処理を行うために設計されている	-14195
侏処理を行うために設計されている	-14196
偉処理を行うために設計されている	-14197
労処理を行うために設計されている	-14198
叶処理を行うために設計されている	-14199
塋処理を行うために設計されている	-14200
大処理を行うために設計されている	-14201
奴処理を行うために設計されている	-14202
嬰処理を行うために設計されている	-14203
寸処理を行うために設計されている	-14204
悄処理を行うために設計されている	-14205
愴処理を行うために設計されている	-14206
慍処理を行うために設計されている	-14207
懲処理を行うために設計されている	-14208
掎処理を行うために設計されている	-14209
易処理を行うために設計されている	-14210
枅処理を行うために設計されている	-14211
柏処理を行うために設計されている	-14212
様処理を行うために設計されている	-14213
淒処理を行うために設計されている	-14214
滑処理を行うために設計されている	-14215
牋処理を行うために設計されている	-14216
犒処理を行うために設計されている	-14217
狡処理を行うために設計されている	-14218
禎処理を行うために設計されている	-14219
秩処理を行うために設計されている	-14220
管処理を行うために設計されている	-14221
絽処理を行うために設計されている	-14222
縅処理を行うために設計されている	-14223
縵処理を行うために設計されている	-14224
總処理を行うために設計されている	-14225
萵処理を行うために設計されている	-14226
蛞処理を行うために設計されている	-14227
蠻処理を行うために設計されている	-14228
袷処理を行うために設計されている	-14229
製処理を行うために設計されている	-14230
裾処理を行うために設計されている	-14231
証処理を行うために設計されている	-14232
貼処理を行うために設計されている	-14233
遂処理を行うために設計されている	-14234
鏤処理を行うために設計されている	-14235
頬処理を行うために設計されている	-14236
顕処理を行うために設計されている	-14237
飲処理を行うために設計されている	-14238
餐処理を行うために設計されている	-14239
鰆処理を行うために設計されている	-14240
龠処理を行うために設計されている	-14241
が仲	-14242
が俎	-14243
が偉	-14244
が僻	-14245
が听	-14246
が壺	-14247
が宵	-14248
が度	-14249
が彁	-14250
が徽	-14251
が掃	-14252
が掵	-14253
が攣	-14254
が枌	-14255
が株	-14256
が梢	-14257
が梶	-14258
が淡	-14259
が瀝	-14260
が焜	-14261
が熟	-14262
が狹	-14263
が膤	-14264
が艘	-14265
が苺	-14266
が襟	-14267
が誄	-14268
が阡	-14269
が飛	-14270
が鸚	-14271
ぎが	-14272
傍が	-14273
叛が	-14274
忙が	-14275
拳が	-14276
揶が	-14277
栲が	-14278
氏が	-14279
浜が	-14280
縵が	-14281
羸が	-14282
腦が	-14283
芍が	-14284
鯨が	-14285
の町で侶	-14286
の町で冑	-14287
の町で剥	-14288
の町で勇	-14289
の町で嚴	-14290
の町で契	-14291
の町で奕	-14292
の町で屹	-14293
の町で惶	-14294
の町で挺	-14295
の町で撞	-14296
の町で撤	-14297
の町で播	-14298
の町で攀	-14299
の町で檻	-14300
の町で潔	-14301
の町で燦	-14302
の町で爽	-14303
の町で琿	-14304
の町で痙	-14305
の町で磋	-14306
の町で紅	-14307
の町で荅	-14308
の町で譲	-14309
の町で賠	-14310
の町で逐	-14311
の町で鑠	-14312
の町で閊	-14313
の町で隋	-14314
の町で雁	-14315
の町で霞	-14316
の町で鞋	-14317
庫の町で	-14318
旃の町で	-14319
樅の町で	-14320
游の町で	-14321
老の町で	-14322
耿の町で	-14323
舉の町で	-14324
蕪の町で	-14325
覯の町で	-14326
ぴシステムは	-14327
システムはヶ	-14328
システムは丶	-14329
システムは侯	-14330
システムは叛	-14331
システムは嚏	-14332
システムは撲	-14333
システムは殿	-14334
システムは燃	-14335
システムは痳	-14336
システムは碌	-14337
システムは禊	-14338
システムは綫	-14339
システムは苛	-14340
システムは萎	-14341
システムは覲	-14342
システムは諚	-14343
システムは雄	-14344
システムは霾	-14345
システムは頑	-14346
システムは饕	-14347
システムは馴	-14348
システムは鮖	-14349
ルを見つけた	-14350
佃を見つけた	-14351
刻を見つけた	-14352
參システムは	-14353
吼システムは	-14354
哉を見つけた	-14355
啀を見つけた	-14356
啖を見つけた	-14357
嗚システムは	-14358
基本構造はゅ	-14359
基本構造はユ	-14360
基本構造は侃	-14361
基本構造は催	-14362
基本構造は克	-14363
基本構造は冉	-14364
基本構造は凱	-14365
基本構造は噺	-14366
基本構造は塊	-14367
基本構造は夘	-14368
基本構造は奮	-14369
基本構造は孃	-14370
基本構造は孔	-14371
基本構造は嵋	-14372
基本構造は嶇	-14373
基本構造は彷	-14374
基本構造は恕	-14375
基本構造は憤	-14376
基本構造は戴	-14377
基本構造は拒	-14378
基本構造は曲	-14379
基本構造は樓	-14380
基本構造は歟	-14381
基本構造は殘	-14382
基本構造は涅	-14383
基本構造は災	-14384
基本構造は烟	-14385
基本構造は牒	-14386
基本構造は瓔	-14387
基本構造は疣	-14388
基本構造は納	-14389
基本構造は紛	-14390
基本構造は聾	-14391
基本構造は胄	-14392
基本構造は腓	-14393
基本構造は膸	-14394
基本構造は蒋	-14395
基本構造は藷	-14396
基本構造は試	-14397
基本構造は賚	-14398
基本構造は趁	-14399
基本構造は釦	-14400
基本構造は鋏	-14401
基本構造は隻	-14402
基本構造は鞅	-14403
基本構造は頃	-14404
基本構造は鬧	-14405
基本構造は鷏	-14406
堡システムは	-14407
増システムは	-14408
夂を見つけた	-14409
夥を見つけた	-14410
媽を見つけた	-14411
巵システムは	-14412
廓を見つけた	-14413
律を見つけた	-14414
怐を見つけた	-14415
怠を見つけた	-14416
怠システムは	-14417
恙システムは	-14418
恪システムは	-14419
慥を見つけた	-14420
敗システムは	-14421
料を見つけた	-14422
曾を見つけた	-14423
朷を見つけた	-14424
模を見つけた	-14425
欲を見つけた	-14426
歪を見つけた	-14427
治を見つけた	-14428
泊を見つけた	-14429
湃を見つけた	-14430
湃システムは	-14431
烝を見つけた	-14432
畏を見つけた	-14433
皋を見つけた	-14434
盲を見つけた	-14435
瞿を見つけた	-14436
碓を見つけた	-14437
符システムは	-14438
籾を見つけた	-14439
緞を見つけた	-14440
縁システムは	-14441
肛を見つけた	-14442
胱を見つけた	-14443
茂を見つけた	-14444
莽を見つけた	-14445
萬を見つけた	-14446
葹を見つけた	-14447
蛇を見つけた	-14448
蝋を見つけた	-14449
蟄を見つけた	-14450
蠢システムは	-14451
逡を見つけた	-14452
鈿システムは	-14453
鎖を見つけた	-14454
鑞を見つけた	-14455
陽を見つけた	-14456
體システムは	-14457
鯢を見つけた	-14458
鴎を見つけた	-14459
麭システムは	-14460
その出来事はッ	-14461
その出来事は亊	-14462
その出来事は亦	-14463
その出来事は儿	-14464
その出来事は剋	-14465
その出来事は劑	-14466
その出来事は呶	-14467
その出来事は囮	-14468
その出来事は圀	-14469
その出来事は土	-14470
その出来事は型	-14471
その出来事は姻	-14472
その出来事は審	-14473
その出来事は己	-14474
その出来事は帰	-14475
その出来事は擅	-14476
その出来事は擬	-14477
その出来事は斡	-14478
その出来事は椡	-14479
その出来事は楡	-14480
その出来事は槌	-14481
その出来事は槧	-14482
その出来事は櫃	-14483
その出来事は毯	-14484
その出来事は毳	-14485
その出来事は涙	-14486
その出来事は燼	-14487
その出来事は瑟	-14488
その出来事は甕	-14489
その出来事は穣	-14490
その出来事は笹	-14491
その出来事は筵	-14492
その出来事は簽	-14493
その出来事は糒	-14494
その出来事は緬	-14495
その出来事は總	-14496
その出来事は荷	-14497
その出来事は菫	-14498
その出来事は蒿	-14499
その出来事は蓄	-14500
その出来事は藺	-14501
その出来事は蘇	-14502
その出来事は記	-14503
その出来事は誉	-14504
その出来事は速	-14505
その出来事は鑿	-14506
その出来事は閖	-14507
その出来事は陝	-14508
その出来事は隋	-14509
その出来事は顎	-14510
その出来事は駘	-14511
その出来事は駿	-14512
その出来事は齋	-14513
ヘだけど頑張る	-14514
ワだけど頑張る	-14515
きの始まりだった	-14516
ぴモデルに基づく	-14517
んの始まりだった	-14518
ィモデルに基づく	-14519
オの始まりだった	-14520
コモデルに基づく	-14521
デの始まりだった	-14522
フモデルに基づく	-14523
串の始まりだった	-14524
于モデルに基づく	-14525
佞の始まりだった	-14526
佞モデルに基づく	-14527
倅の始まりだった	-14528
允モデルに基づく	-14529
兎の始まりだった	-14530
処の始まりだった	-14531
刄の始まりだった	-14532
匸の始まりだった	-14533
取の始まりだった	-14534
喃の始まりだった	-14535
堋モデルに基づく	-14536
墸の始まりだった	-14537
央モデルに基づく	-14538
妣モデルに基づく	-14539
孜の始まりだった	-14540
宮の始まりだった	-14541
小の始まりだった	-14542
屁の始まりだった	-14543
弥モデルに基づく	-14544
形の始まりだった	-14545
恚の始まりだった	-14546
悳モデルに基づく	-14547
慎モデルに基づく	-14548
抬の始まりだった	-14549
捗モデルに基づく	-14550
撥の始まりだった	-14551
攻の始まりだった	-14552
晃の始まりだった	-14553
暫モデルに基づく	-14554
朱の始まりだった	-14555
杪モデルに基づく	-14556
椽モデルに基づく	-14557
様モデルに基づく	-14558
樵の始まりだった	-14559
殍の始まりだった	-14560
求モデルに基づく	-14561
洙の始まりだった	-14562
涎モデルに基づく	-14563
淇の始まりだった	-14564
淵の始まりだった	-14565
無モデルに基づく	-14566
熊モデルに基づく	-14567
燠の始まりだった	-14568
狩モデルに基づく	-14569
猷モデルに基づく	-14570
獸の始まりだった	-14571
玩モデルに基づく	-14572
皀の始まりだった	-14573
皐の始まりだった	-14574
眉モデルに基づく	-14575
睚モデルに基づく	-14576
瞳の始まりだった	-14577
砿の始まりだった	-14578
磅モデルに基づく	-14579
禁の始まりだった	-14580
禮の始まりだった	-14581
程の始まりだった	-14582
稼モデルに基づく	-14583
穎モデルに基づく	-14584
綽モデルに基づく	-14585
緯の始まりだった	-14586
縊の始まりだった	-14587
罵の始まりだった	-14588
老モデルに基づく	-14589
聆モデルに基づく	-14590
聚の始まりだった	-14591
聰モデルに基づく	-14592
脆モデルに基づく	-14593
臈モデルに基づく	-14594
莚の始まりだった	-14595
菲の始まりだった	-14596
萎の始まりだった	-14597
蕀の始まりだった	-14598
蘊モデルに基づく	-14599
蛎モデルに基づく	-14600
衂モデルに基づく	-14601
袱モデルに基づく	-14602
裡モデルに基づく	-14603
裾モデルに基づく	-14604
訃モデルに基づく	-14605
谷モデルに基づく	-14606
貮の始まりだった	-14607
賞の始まりだった	-14608
跣の始まりだった	-14609
跪の始まりだった	-14610
踈の始まりだった	-14611
踟モデルに基づく	-14612
躱モデルに基づく	-14613
遁モデルに基づく	-14614
釀モデルに基づく	-14615
鐵モデルに基づく	-14616
除の始まりだった	-14617
陷モデルに基づく	-14618
靄モデルに基づく	-14619
顫の始まりだった	-14620
飽の始まりだった	-14621
駈モデルに基づく	-14622
驢モデルに基づく	-14623
髑モデルに基づく	-14624
鬆モデルに基づく	-14625
鬼モデルに基づく	-14626
鯰モデルに基づく	-14627
鰌の始まりだった	-14628
エ処理を行うために設計されている	-14629
余処理を行うために設計されている	-14630
値処理を行うために設計されている	-14631
冲処理を行うために設計されている	-14632
勹処理を行うために設計されている	-14633
卅処理を行うために設計されている	-14634
卒処理を行うために設計されている	-14635
合処理を行うために設計されている	-14636
吏処理を行うために設計されている	-14637
告処理を行うために設計されている	-14638
呷処理を行うために設計されている	-14639
囎処理を行うために設計されている	-14640
堅処理を行うために設計されている	-14641
奚処理を行うために設計されている	-14642
拵処理を行うために設計されている	-14643
擣処理を行うために設計されている	-14644
擱処理を行うために設計されている	-14645
日処理を行うために設計されている	-14646
椹処理を行うために設計されている	-14647
楮処理を行うために設計されている	-14648
樓処理を行うために設計されている	-14649
権処理を行うために設計されている	-14650
檢処理を行うために設計されている	-14651
沾処理を行うために設計されている	-14652
瀝処理を行うために設計されている	-14653
熱処理を行うために設計されている	-14654
眠処理を行うために設計されている	-14655
睫処理を行うために設計されている	-14656
瞥処理を行うために設計されている	-14657
瞽処理を行うために設計されている	-14658
秕処理を行うために設計されている	-14659
称処理を行うために設計されている	-14660
箆処理を行うために設計されている	-14661
箝処理を行うために設計されている	-14662
胴処理を行うために設計されている	-14663
舩処理を行うために設計されている	-14664
苴処理を行うために設計されている	-14665
蚌処理を行うために設計されている	-14666
蚫処理を行うために設計されている	-14667
訟処理を行うために設計されている	-14668
謫処理を行うために設計されている	-14669
贔処理を行うために設計されている	-14670
躊処理を行うために設計されている	-14671
酖処理を行うために設計されている	-14672
釐処理を行うために設計されている	-14673
銭処理を行うために設計されている	-14674
闥処理を行うために設計されている	-14675
随処理を行うために設計されている	-14676
隷処理を行うために設計されている	-14677
鞁処理を行うために設計されている	-14678
韻処理を行うために設計されている	-14679
餡処理を行うために設計されている	-14680
がば	-14681
が亭	-14682
が剔	-14683
が叛	-14684
が塊	-14685
が失	-14686
が夾	-14687
が客	-14688
が幡	-14689
が役	-14690
が攻	-14691
が杙	-14692
が榕	-14693
が樮	-14694
が津	-14695
が涓	-14696
が濡	-14697
が烽	-14698
が窖	-14699
が純	-14700
が経	-14701
が趨	-14702
が遵	-14703
が銃	-14704
が館	-14705
が鬱	-14706
が鵬	-14707
亠が	-14708
入が	-14709
垣が	-14710
奚が	-14711
寉が	-14712
旛が	-14713
橲が	-14714
薬が	-14715
飄が	-14716
▁ため	-14717
の町でふ	-14718
の町でめ	-14719
の町で仆	-14720
の町で傅	-14721
の町で剪	-14722
の町で唐	-14723
の町で喧	-14724
の町で姓	-14725
の町で康	-14726
の町で搭	-14727
の町で攻	-14728
の町で晦	-14729
の町で椪	-14730
の町で楪	-14731
の町で楯	-14732
の町で檗	-14733
の町で氣	-14734
の町で泱	-14735
の町で狂	-14736
の町で狽	-14737
の町で猛	-14738
の町で研	-14739
の町で竡	-14740
の町で童	-14741
の町で薐	-14742
の町で訓	-14743
の町で賀	-14744
の町で贖	-14745
の町で釦	-14746
の町で釧	-14747
の町で鞅	-14748
の町で髫	-14749
の町で魍	-14750
の町で鷄	-14751
備の町で	-14752
冶の町で	-14753
姿の町で	-14754
弑の町で	-14755
楝の町で	-14756
與の町で	-14757
辧の町で	-14758
館の町で	-14759
▁今日はあ	-14760
▁今日はわ	-14761
システムは岻	-14762
システムは徴	-14763
システムは怪	-14764
システムは恠	-14765
システムは灘	-14766
システムは痔	-14767
システムは空	-14768
システムは縣	-14769
システムは膈	-14770
システムは舐	-14771
システムは菱	-14772
システムは蟐	-14773
システムは行	-14774
システムは諦	-14775
システムは隠	-14776
システムは餒	-14777
システムは鰕	-14778
システムは麿	-14779
ヲを見つけた	-14780
与を見つけた	-14781
串システムは	-14782
佐を見つけた	-14783
全を見つけた	-14784
刑を見つけた	-14785
力を見つけた	-14786
反を見つけた	-14787
句を見つけた	-14788
吹システムは	-14789
嘆システムは	-14790
基本構造はぉ	-14791
基本構造はる	-14792
基本構造はサ	-14793
基本構造はヌ	-14794
基本構造は保	-14795
基本構造は倦	-14796
基本構造は偉	-14797
基本構造は儿	-14798
基本構造は冷	-14799
基本構造は厄	-14800
基本構造は埣	-14801
基本構造は容	-14802
基本構造は屁	-14803
基本構造は巉	-14804
基本構造は弛	-14805
基本構造は恩	-14806
基本構造は愉	-14807
基本構造は扎	-14808
基本構造は晝	-14809
基本構造は晞	-14810
基本構造は晢	-14811
基本構造は曄	-14812
基本構造は栴	-14813
基本構造は椣	-14814
基本構造は槹	-14815
基本構造は歔	-14816
基本構造は渠	-14817
基本構造は渡	-14818
基本構造は演	-14819
基本構造は瓰	-14820
基本構造は甕	-14821
基本構造は癢	-14822
基本構造は皇	-14823
基本構造は盥	-14824
基本構造は瞑	-14825
基本構造は礁	-14826
基本構造は竸	-14827
基本構造は紐	-14828
基本構造は罵	-14829
基本構造は肱	-14830
基本構造は膾	-14831
基本構造は臣	-14832
基本構造は舎	-14833
基本構造は般	-14834
基本構造は莞	-14835
基本構造は著	-14836
基本構造は葷	-14837
基本構造は衰	-14838
基本構造は袰	-14839
基本構造は託	-14840
基本構造は賛	-14841
基本構造は跂	-14842
基本構造は逆	-14843
基本構造は邂	-14844
基本構造は鈿	-14845
基本構造は閊	-14846
基本構造は霧	-14847
基本構造は題	-14848
基本構造は騎	-14849
基本構造は髱	-14850
基本構造は鰔	-14851
基本構造は鰡	-14852
奚を見つけた	-14853
宀を見つけた	-14854
宦を見つけた	-14855
専を見つけた	-14856
床を見つけた	-14857
廷を見つけた	-14858
弟を見つけた	-14859
怏を見つけた	-14860
急を見つけた	-14861
恟システムは	-14862
慝を見つけた	-14863
慱システムは	-14864
懍を見つけた	-14865
捌を見つけた	-14866
掌を見つけた	-14867
擾システムは	-14868
書を見つけた	-14869
期システムは	-14870
核を見つけた	-14871
梍を見つけた	-14872
業を見つけた	-14873
欧を見つけた	-14874
沛を見つけた	-14875
洒を見つけた	-14876
浙を見つけた	-14877
浬を見つけた	-14878
淡を見つけた	-14879
添を見つけた	-14880
爐を見つけた	-14881
牧を見つけた	-14882
狎を見つけた	-14883
甑を見つけた	-14884
疱を見つけた	-14885
痕を見つけた	-14886
眉を見つけた	-14887
眥を見つけた	-14888
睛システムは	-14889
睫を見つけた	-14890
硝を見つけた	-14891
穗を見つけた	-14892
筋を見つけた	-14893
糀を見つけた	-14894
綫システムは	-14895
羶を見つけた	-14896
船を見つけた	-14897
芙を見つけた	-14898
苺を見つけた	-14899
蚓を見つけた	-14900
蚤を見つけた	-14901
衾を見つけた	-14902
裕を見つけた	-14903
襲を見つけた	-14904
計システムは	-14905
試を見つけた	-14906
認を見つけた	-14907
誘システムは	-14908
読を見つけた	-14909
談を見つけた	-14910
諫を見つけた	-14911
讃システムは	-14912
豈を見つけた	-14913
轣を見つけた	-14914
逝を見つけた	-14915
遐を見つけた	-14916
邵を見つけた	-14917
酌を見つけた	-14918
釐システムは	-14919
録システムは	-14920
鏝を見つけた	-14921
韮を見つけた	-14922
題を見つけた	-14923
餞を見つけた	-14924
鷹システムは	-14925
齪を見つけた	-14926
その出来事はに	-14927
その出来事はェ	-14928
その出来事はサ	-14929
その出来事は京	-14930
その出来事は仝	-14931
その出来事は儉	-14932
その出来事は勾	-14933
その出来事は匕	-14934
その出来事は咫	-14935
その出来事は咸	-14936
その出来事は噤	-14937
その出来事は嚇	-14938
その出来事は嚥	-14939
その出来事は夸	-14940
その出来事は奐	-14941
その出来事は幟	-14942
その出来事は弐	-14943
その出来事は彑	-14944
その出来事は微	-14945
その出来事は怏	-14946
その出来事は愡	-14947
その出来事は懽	-14948
その出来事は戰	-14949
その出来事は抹	-14950
その出来事は旭	-14951
その出来事は昔	-14952
その出来事は晧	-14953
その出来事は机	-14954
その出来事は朿	-14955
その出来事は柄	-14956
その出来事は柝	-14957
その出来事は柢	-14958
その出来事は椴	-14959
その出来事は様	-14960
その出来事は槞	-14961
その出来事は樂	-14962
その出来事は汰	-14963
その出来事は溲	-14964
その出来事は澀	-14965
その出来事は濯	-14966
その出来事は甦	-14967
その出来事は皴	-14968
その出来事は瞬	-14969
その出来事は童	-14970
その出来事は竰	-14971
その出来事は粫	-14972
その出来事は糾	-14973
その出来事は練	-14974
その出来事は縟	-14975
その出来事は翹	-14976
その出来事は肛	-14977
その出来事は股	-14978
その出来事は船	-14979
その出来事は菌	-14980
その出来事は蓴	-14981
その出来事は蘖	-14982
その出来事は貝	-14983
その出来事は贋	-14984
その出来事は轜	-14985
その出来事は轟	-14986
その出来事は遨	-14987
その出来事は鈞	-14988
その出来事は錻	-14989
その出来事は鏡	-14990
その出来事は鐺	-14991
その出来事は間	-14992
その出来事は雙	-14993
その出来事は鞳	-14994
その出来事は騎	-14995
その出来事は鬻	-14996
その出来事は鰊	-14997
その出来事は鰤	-14998
その出来事は鷙	-14999
ヤだけど頑張る	-15000
だモデルに基づく	-15001
ぽの始まりだった	-15002
ゑの始まりだった	-15003
ギの始まりだった	-15004
ヌの始まりだった	-15005
ボモデルに基づく	-15006
三モデルに基づく	-15007
什の始まりだった	-15008
佩の始まりだった	-15009
俗の始まりだった	-15010
八の始まりだった	-15011
分モデルに基づく	-15012
剖の始まりだった	-15013
劬の始まりだった	-15014
匡モデルに基づく	-15015
匿モデルに基づく	-15016
厦の始まりだった	-15017
厮モデルに基づく	-15018
右モデルに基づく	-15019
吊モデルに基づく	-15020
呶モデルに基づく	-15021
咥モデルに基づく	-15022
哥モデルに基づく	-15023
喜の始まりだった	-15024
嘆の始まりだった	-15025
嚶モデルに基づく	-15026
団の始まりだった	-15027
地の始まりだった	-15028
垠の始まりだった	-15029
垢の始まりだった	-15030
埴モデルに基づく	-15031
堝モデルに基づく	-15032
墮の始まりだった	-15033
孅モデルに基づく	-15034
寿モデルに基づく	-15035
帑の始まりだった	-15036
幼の始まりだった	-15037
廉の始まりだった	-15038
弸モデルに基づく	-15039
徂モデルに基づく	-15040
悉モデルに基づく	-15041
惓の始まりだった	-15042
愛モデルに基づく	-15043
捗の始まりだった	-15044
掎の始まりだった	-15045
探の始まりだった	-15046
旻モデルに基づく	-15047
栫モデルに基づく	-15048
桎モデルに基づく	-15049
桟モデルに基づく	-15050
棹の始まりだった	-15051
欄の始まりだった	-15052
湊の始まりだった	-15053
滄モデルに基づく	-15054
滔の始まりだった	-15055
濯の始まりだった	-15056
点モデルに基づく	-15057
焔の始まりだった	-15058
牾モデルに基づく	-15059
狗モデルに基づく	-15060
瑶の始まりだった	-15061
畆モデルに基づく	-15062
発モデルに基づく	-15063
皚の始まりだった	-15064
盒モデルに基づく	-15065
瞿の始まりだった	-15066
矢モデルに基づく	-15067
祖モデルに基づく	-15068
穢の始まりだった	-15069
窖の始まりだった	-15070
筴の始まりだった	-15071
簪モデルに基づく	-15072
粫モデルに基づく	-15073
粭の始まりだった	-15074
絮モデルに基づく	-15075
綫の始まりだった	-15076
网の始まりだった	-15077
聨モデルに基づく	-15078
肅の始まりだった	-15079
臠モデルに基づく	-15080
茆の始まりだった	-15081
萎モデルに基づく	-15082
薔モデルに基づく	-15083
蚋の始まりだった	-15084
蛆モデルに基づく	-15085
蛤モデルに基づく	-15086
蜘の始まりだった	-15087
蝙モデルに基づく	-15088
裨の始まりだった	-15089
解の始まりだった	-15090
諾の始まりだった	-15091
贇の始まりだった	-15092
蹣モデルに基づく	-15093
轡の始まりだった	-15094
逕モデルに基づく	-15095
遜の始まりだった	-15096
遶の始まりだった	-15097
邯モデルに基づく	-15098
銜の始まりだった	-15099
錆モデルに基づく	-15100
鏨モデルに基づく	-15101
閂の始まりだった	-15102
隨モデルに基づく	-15103
類の始まりだった	-15104
饗モデルに基づく	-15105
馭モデルに基づく	-15106
鯔の始まりだった	-15107
鯖モデルに基づく	-15108
鰉の始まりだった	-15109
鰉モデルに基づく	-15110
鳬の始まりだった	-15111
鵐モデルに基づく	-15112
ぜ処理を行うために設計されている	-15113
ぴ処理を行うために設計されている	-15114
凭処理を行うために設計されている	-15115
剤処理を行うために設計されている	-15116
勅処理を行うために設計されている	-15117
呈処理を行うために設計されている	-15118
呱処理を行うために設計されている	-15119
咒処理を行うために設計されている	-15120
嗜処理を行うために設計されている	-15121
圄処理を行うために設計されている	-15122
壺処理を行うために設計されている	-15123
妣処理を行うために設計されている	-15124
娩処理を行うために設計されている	-15125
嬌処理を行うために設計されている	-15126
寐処理を行うために設計されている	-15127
尚処理を行うために設計されている	-15128
崋処理を行うために設計されている	-15129
嵶処理を行うために設計されている	-15130
応処理を行うために設計されている	-15131
悠処理を行うために設計されている	-15132
慙処理を行うために設計されている	-15133
憔処理を行うために設計されている	-15134
戚処理を行うために設計されている	-15135
抉処理を行うために設計されている	-15136
拔処理を行うために設計されている	-15137
桓処理を行うために設計されている	-15138
檎処理を行うために設計されている	-15139
檳処理を行うために設計されている	-15140
檸処理を行うために設計されている	-15141
歴処理を行うために設計されている	-15142
況処理を行うために設計されている	-15143
渕処理を行うために設計されている	-15144
燕処理を行うために設計されている	-15145
牌処理を行うために設計されている	-15146
獲処理を行うために設計されている	-15147
琵処理を行うために設計されている	-15148
畸処理を行うために設計されている	-15149
皿処理を行うために設計されている	-15150
秧処理を行うために設計されている	-15151
箏処理を行うために設計されている	-15152
紅処理を行うために設計されている	-15153
育処理を行うために設計されている	-15154
臟処理を行うために設計されている	-15155
茅処理を行うために設計されている	-15156
蕚処理を行うために設計されている	-15157
蕭処理を行うために設計されている	-15158
蛎処理を行うために設計されている	-15159
蛯処理を行うために設計されている	-15160
蜂処理を行うために設計されている	-15161
螫処理を行うために設計されている	-15162
衽処理を行うために設計されている	-15163
輳処理を行うために設計されている	-15164
逮処理を行うために設計されている	-15165
遉処理を行うために設計されている	-15166
鍋処理を行うために設計されている	-15167
閤処理を行うために設計されている	-15168
雌処理を行うために設計されている	-15169
霽処理を行うために設計されている	-15170
響処理を行うために設計されている	-15171
飫処理を行うために設計されている	-15172
鬩処理を行うために設計されている	-15173
魯処理を行うために設計されている	-15174
鰉処理を行うために設計されている	-15175
鱆処理を行うために設計されている	-15176
がげ	-15177
が埀	-15178
が孺	-15179
が寡	-15180
が店	-15181
が徂	-15182
が悌	-15183
が悍	-15184
が憾	-15185
が懍	-15186
が拍	-15187
が撮	-15188
が擂	-15189
が橙	-15190
が欟	-15191
が泅	-15192
が溶	-15193
が漑	-15194
が濳	-15195
が版	-15196
が玉	-15197
が琿	-15198
が碧	-15199
が磬	-15200
が秣	-15201
が箆	-15202
が絮	-15203
が褌	-15204
が酌	-15205
が闡	-15206
が霰	-15207
が頴	-15208
が香	-15209
が鶩	-15210
乙が	-15211
嗽が	-15212
地が	-15213
姉が	-15214
恬が	-15215
悍が	-15216
槫が	-15217
箍が	-15218
籖が	-15219
肉が	-15220
譬が	-15221
辨が	-15222
邊が	-15223
髓が	-15224
髯が	-15225
お感じ	-15226
と感じ	-15227
の町でィ	-15228
の町でユ	-15229
の町で剏	-15230
の町で墫	-15231
の町で宏	-15232
の町で屶	-15233
の町で巉	-15234
の町で廚	-15235
の町で怖	-15236
の町で恩	-15237
の町で抄	-15238
の町で擇	-15239
の町で文	-15240
の町で樵	-15241
の町で沢	-15242
の町で湖	-15243
の町で湶	-15244
の町で漿	-15245
の町で琶	-15246
の町で瞶	-15247
の町で磑	-15248
の町で禄	-15249
の町で窶	-15250
の町で縦	-15251
の町で胡	-15252
の町で脚	-15253
の町で芫	-15254
の町で萵	-15255
の町で蘯	-15256
の町で蠶	-15257
の町で衂	-15258
の町で誂	-15259
の町で跣	-15260
の町で躊	-15261
の町で霎	-15262
の町で靜	-15263
の町で駈	-15264
の町で黏	-15265
唱の町で	-15266
夥の町で	-15267
屬の町で	-15268
峽の町で	-15269
恠の町で	-15270
探の町で	-15271
梓の町で	-15272
榕の町で	-15273
浣の町で	-15274
而の町で	-15275
辿の町で	-15276
頼の町で	-15277
鰛の町で	-15278
ゅシステムは	-15279
ゑを見つけた	-15280
システムは他	-15281
システムは培	-15282
システムは婬	-15283
システムは庫	-15284
システムは康	-15285
システムは廖	-15286
システムは戚	-15287
システムは搬	-15288
システムは断	-15289
システムは暖	-15290
システムは朮	-15291
システムは檬	-15292
システムは流	-15293
システムは煢	-15294
システムは燵	-15295
システムは皚	-15296
システムは皸	-15297
システムは緒	-15298
システムは蓑	-15299
システムは蛋	-15300
システムは諫	-15301
システムは謄	-15302
システムは豎	-15303
システムは頤	-15304
システムは飛	-15305
プを見つけた	-15306
ャを見つけた	-15307
倉を見つけた	-15308
億を見つけた	-15309
兼を見つけた	-15310
剱を見つけた	-15311
劵を見つけた	-15312
危を見つけた	-15313
厦を見つけた	-15314
吊を見つけた	-15315
咤を見つけた	-15316
嗾を見つけた	-15317
基本構造はコ	-15318
基本構造は佛	-15319
基本構造は兢	-15320
基本構造は冐	-15321
基本構造は凶	-15322
基本構造は努	-15323
基本構造は升	-15324
基本構造は吶	-15325
基本構造は咄	-15326
基本構造は嗚	-15327
基本構造は囈	-15328
基本構造は夛	-15329
基本構造は宸	-15330
基本構造は寞	-15331
基本構造は将	-15332
基本構造は工	-15333
基本構造は巽	-15334
基本構造は巾	-15335
基本構造は徂	-15336
基本構造は快	-15337
基本構造は怛	-15338
基本構造は戔	-15339
基本構造は或	-15340
基本構造は押	-15341
基本構造は拡	-15342
基本構造は拷	-15343
基本構造は擴	-15344
基本構造は昜	-15345
基本構造は暹	-15346
基本構造は杵	-15347
基本構造は楼	-15348
基本構造は檮	-15349
基本構造は櫁	-15350
基本構造は歐	-15351
基本構造は洪	-15352
基本構造は烽	-15353
基本構造は獎	-15354
基本構造は珍	-15355
基本構造は瑯	-15356
基本構造は畑	-15357
基本構造は登	-15358
基本構造は真	-15359
基本構造は箍	-15360
基本構造は緡	-15361
基本構造は胞	-15362
基本構造は臓	-15363
基本構造は舊	-15364
基本構造は舌	-15365
基本構造は舒	-15366
基本構造は芟	-15367
基本構造は萱	-15368
基本構造は蓿	-15369
基本構造は蕚	-15370
基本構造は藏	-15371
基本構造は衾	-15372
基本構造は覚	-15373
基本構造は覺	-15374
基本構造は誕	-15375
基本構造は費	-15376
基本構造は辨	-15377
基本構造は這	-15378
基本構造は逶	-15379
基本構造は遣	-15380
基本構造は釆	-15381
基本構造は銘	-15382
基本構造は鏨	-15383
基本構造は險	-15384
基本構造は雫	-15385
基本構造は靺	-15386
基本構造は髮	-15387
基本構造は鯢	-15388
基本構造は黯	-15389
堕を見つけた	-15390
夙を見つけた	-15391
妙システムは	-15392
始システムは	-15393
尤を見つけた	-15394
尾を見つけた	-15395
峭を見つけた	-15396
嵒を見つけた	-15397
巳を見つけた	-15398
庚を見つけた	-15399
彊を見つけた	-15400
恚を見つけた	-15401
憬システムは	-15402
戝システムは	-15403
掃システムは	-15404
既を見つけた	-15405
時を見つけた	-15406
暸を見つけた	-15407
曇システムは	-15408
杙を見つけた	-15409
柔を見つけた	-15410
椶システムは	-15411
楝システムは	-15412
権を見つけた	-15413
橿を見つけた	-15414
汲システムは	-15415
沒を見つけた	-15416
沿を見つけた	-15417
洛システムは	-15418
淀システムは	-15419
渭を見つけた	-15420
準を見つけた	-15421
濯を見つけた	-15422
烹を見つけた	-15423
煬を見つけた	-15424
熔システムは	-15425
熹を見つけた	-15426
狭を見つけた	-15427
珂を見つけた	-15428
琵を見つけた	-15429
瓢を見つけた	-15430
畍を見つけた	-15431
畠を見つけた	-15432
疥を見つけた	-15433
眺を見つけた	-15434
矍を見つけた	-15435
磑を見つけた	-15436
禦システムは	-15437
穫を見つけた	-15438
竭を見つけた	-15439
竺を見つけた	-15440
笶を見つけた	-15441
篁を見つけた	-15442
簣を見つけた	-15443
翅を見つけた	-15444
艾を見つけた	-15445
若を見つけた	-15446
范を見つけた	-15447
萸を見つけた	-15448
蓖を見つけた	-15449
藜を見つけた	-15450
蛍を見つけた	-15451
蛾を見つけた	-15452
蜊システムは	-15453
衢を見つけた	-15454
袿システムは	-15455
襌を見つけた	-15456
誕を見つけた	-15457
誨を見つけた	-15458
謄を見つけた	-15459
謗システムは	-15460
貶を見つけた	-15461
贖システムは	-15462
路を見つけた	-15463
軒を見つけた	-15464
遒を見つけた	-15465
酘を見つけた	-15466
鉱を見つけた	-15467
鏤を見つけた	-15468
飄を見つけた	-15469
饋を見つけた	-15470
馗を見つけた	-15471
髱を見つけた	-15472
鮫を見つけた	-15473
鯱システムは	-15474
鸞を見つけた	-15475
麪を見つけた	-15476
黠を見つけた	-15477
▁̄を見つけた	-15478
その出来事はせ	-15479
その出来事は下	-15480
その出来事は仗	-15481
その出来事は們	-15482
その出来事は僧	-15483
その出来事は印	-15484
その出来事は哦	-15485
その出来事は啅	-15486
その出来事は圸	-15487
その出来事は夏	-15488
その出来事は奩	-15489
その出来事は妃	-15490
その出来事は岡	-15491
その出来事は嵎	-15492
その出来事は帖	-15493
その出来事は怕	-15494
その出来事は懲	-15495
その出来事は挫	-15496
その出来事は撒	-15497
その出来事は攪	-15498
その出来事は昨	-15499
その出来事は暝	-15500
その出来事は曦	-15501
その出来事は朽	-15502
その出来事は棲	-15503
その出来事は槓	-15504
その出来事は檐	-15505
その出来事は泯	-15506
その出来事は渦	-15507
その出来事は湯	-15508
その出来事は溪	-15509
その出来事は滔	-15510
その出来事は漸	-15511
その出来事は猖	-15512
その出来事は痂	-15513
その出来事は瘠	-15514
その出来事は竒	-15515
その出来事は笈	-15516
その出来事は簍	-15517
その出来事は糸	-15518
その出来事は綢	-15519
その出来事は罌	-15520
その出来事は胞	-15521
その出来事は腮	-15522
その出来事は舂	-15523
その出来事は舜	-15524
その出来事は蔦	-15525
その出来事は蚰	-15526
その出来事は蠻	-15527
その出来事は訪	-15528
その出来事は豪	-15529
その出来事は貍	-15530
その出来事は鏃	-15531
その出来事は隲	-15532
その出来事は霄	-15533
その出来事は霜	-15534
その出来事は静	-15535
その出来事は頗	-15536
その出来事は頴	-15537
その出来事は顱	-15538
その出来事は鮮	-15539
その出来事は鮹	-15540
その出来事は鰲	-15541
その出来事は黠	-15542
その出来事は齢	-15543
セだけど頑張る	-15544
ゃモデルに基づく	-15545
れはという概念は	-15546
エの始まりだった	-15547
ネの始まりだった	-15548
ーモデルに基づく	-15549
万の始まりだった	-15550
乎モデルに基づく	-15551
交モデルに基づく	-15552
儀の始まりだった	-15553
党の始まりだった	-15554
凹の始まりだった	-15555
分の始まりだった	-15556
勒モデルに基づく	-15557
化モデルに基づく	-15558
卒の始まりだった	-15559
南の始まりだった	-15560
卻モデルに基づく	-15561
去の始まりだった	-15562
叢の始まりだった	-15563
吝の始まりだった	-15564
咨の始まりだった	-15565
哮モデルに基づく	-15566
嘴モデルに基づく	-15567
垤モデルに基づく	-15568
執の始まりだった	-15569
壘の始まりだった	-15570
壷の始まりだった	-15571
奎モデルに基づく	-15572
妍の始まりだった	-15573
嫖モデルに基づく	-15574
嵒の始まりだった	-15575
左モデルに基づく	-15576
帆モデルに基づく	-15577
序モデルに基づく	-15578
廻モデルに基づく	-15579
弌モデルに基づく	-15580
恨の始まりだった	-15581
悗モデルに基づく	-15582
悪の始まりだった	-15583
愾モデルに基づく	-15584
慙の始まりだった	-15585
慱の始まりだった	-15586
戲モデルに基づく	-15587
抹の始まりだった	-15588
拵の始まりだった	-15589
拿モデルに基づく	-15590
挿モデルに基づく	-15591
捷の始まりだった	-15592
換の始まりだった	-15593
敢モデルに基づく	-15594
敷モデルに基づく	-15595
晩の始まりだった	-15596
村の始まりだった	-15597
械の始まりだった	-15598
棍モデルに基づく	-15599
植の始まりだった	-15600
槊モデルに基づく	-15601
槓モデルに基づく	-15602
槞の始まりだった	-15603
樹の始まりだった	-15604
比の始まりだった	-15605
毘モデルに基づく	-15606
波の始まりだった	-15607
洪の始まりだった	-15608
深モデルに基づく	-15609
湧モデルに基づく	-15610
湶の始まりだった	-15611
溷モデルに基づく	-15612
滑モデルに基づく	-15613
漂の始まりだった	-15614
爛の始まりだった	-15615
片モデルに基づく	-15616
狭の始まりだった	-15617
猴の始まりだった	-15618
獪モデルに基づく	-15619
玖の始まりだった	-15620
瑾モデルに基づく	-15621
甃モデルに基づく	-15622
甌モデルに基づく	-15623
痂の始まりだった	-15624
療モデルに基づく	-15625
皺モデルに基づく	-15626
瞹モデルに基づく	-15627
磅の始まりだった	-15628
礒の始まりだった	-15629
禀モデルに基づく	-15630
禊の始まりだった	-15631
禊モデルに基づく	-15632
禽モデルに基づく	-15633
秀の始まりだった	-15634
称モデルに基づく	-15635
稠の始まりだった	-15636
穴モデルに基づく	-15637
竰の始まりだった	-15638
笶の始まりだった	-15639
篤の始まりだった	-15640
篭の始まりだった	-15641
籃モデルに基づく	-15642
粮モデルに基づく	-15643
緬の始まりだった	-15644
繝の始まりだった	-15645
繧モデルに基づく	-15646
群モデルに基づく	-15647
習モデルに基づく	-15648
艚モデルに基づく	-15649
芯モデルに基づく	-15650
茗モデルに基づく	-15651
蒄の始まりだった	-15652
藺モデルに基づく	-15653
虫の始まりだった	-15654
蚶の始まりだった	-15655
蜴の始まりだった	-15656
被モデルに基づく	-15657
裔モデルに基づく	-15658
裲モデルに基づく	-15659
褒モデルに基づく	-15660
襠の始まりだった	-15661
覆モデルに基づく	-15662
覗の始まりだった	-15663
誥の始まりだった	-15664
諸の始まりだった	-15665
譛モデルに基づく	-15666
豫の始まりだった	-15667
豸モデルに基づく	-15668
賠の始まりだった	-15669
賤の始まりだった	-15670
躇モデルに基づく	-15671
軻の始まりだった	-15672
轟モデルに基づく	-15673
轢モデルに基づく	-15674
辿モデルに基づく	-15675
釋モデルに基づく	-15676
鈑モデルに基づく	-15677
鉐モデルに基づく	-15678
錘モデルに基づく	-15679
閉モデルに基づく	-15680
關の始まりだった	-15681
陦の始まりだった	-15682
陲モデルに基づく	-15683
頓の始まりだった	-15684
騷モデルに基づく	-15685
高モデルに基づく	-15686
髯の始まりだった	-15687
鰔の始まりだった	-15688
鵑の始まりだった	-15689
鷺の始まりだった	-15690
黌モデルに基づく	-15691
龝モデルに基づく	-15692
佃処理を行うために設計されている	-15693
倅処理を行うために設計されている	-15694
凵処理を行うために設計されている	-15695
匍処理を行うために設計されている	-15696
厂処理を行うために設計されている	-15697
厖処理を行うために設計されている	-15698
唯処理を行うために設計されている	-15699
嗷処理を行うために設計されている	-15700
噤処理を行うために設計されている	-15701
堝処理を行うために設計されている	-15702
塙処理を行うために設計されている	-15703
太処理を行うために設計されている	-15704
娃処理を行うために設計されている	-15705
孕処理を行うために設計されている	-15706
寿処理を行うために設計されている	-15707
嶬処理を行うために設計されている	-15708
怕処理を行うために設計されている	-15709
悳処理を行うために設計されている	-15710
愾処理を行うために設計されている	-15711
払処理を行うために設計されている	-15712
扞処理を行うために設計されている	-15713
挿処理を行うために設計されている	-15714
擧処理を行うために設計されている	-15715
栲処理を行うために設計されている	-15716
殿処理を行うために設計されている	-15717
液処理を行うために設計されている	-15718
涼処理を行うために設計されている	-15719
濃処理を行うために設計されている	-15720
犠処理を行うために設計されている	-15721
琿処理を行うために設計されている	-15722
瑟処理を行うために設計されている	-15723
瑾処理を行うために設計されている	-15724
硯処理を行うために設計されている	-15725
禍処理を行うために設計されている	-15726
福処理を行うために設計されている	-15727
稈処理を行うために設計されている	-15728
綟処理を行うために設計されている	-15729
纖処理を行うために設計されている	-15730
翊処理を行うために設計されている	-15731
艚処理を行うために設計されている	-15732
莖処理を行うために設計されている	-15733
蔵処理を行うために設計されている	-15734
虐処理を行うために設計されている	-15735
蚤処理を行うために設計されている	-15736
蠧処理を行うために設計されている	-15737
訃処理を行うために設計されている	-15738
訥処理を行うために設計されている	-15739
評処理を行うために設計されている	-15740
誇処理を行うために設計されている	-15741
諏処理を行うために設計されている	-15742
起処理を行うために設計されている	-15743
迷処理を行うために設計されている	-15744
適処理を行うために設計されている	-15745
采処理を行うために設計されている	-15746
銚処理を行うために設計されている	-15747
霹処理を行うために設計されている	-15748
鞏処理を行うために設計されている	-15749
韃処理を行うために設計されている	-15750
顆処理を行うために設計されている	-15751
騎処理を行うために設計されている	-15752
鶴処理を行うために設計されている	-15753
齧処理を行うために設計されている	-15754
がテ	-15755
が久	-15756
が乳	-15757
が仰	-15758
が偃	-15759
が假	-15760
が優	-15761
が勍	-15762
が叡	-15763
が唄	-15764
が嚥	-15765
が尤	-15766
が平	-15767
が惟	-15768
が旒	-15769
が晶	-15770
が曦	-15771
が本	-15772
が栃	-15773
が档	-15774
が汎	-15775
が沃	-15776
が泥	-15777
が渋	-15778
が滋	-15779
が滴	-15780
が猥	-15781
が班	-15782
が碼	-15783
が磧	-15784
が窓	-15785
が筥	-15786
が羲	-15787
が耨	-15788
が興	-15789
が苛	-15790
が蚰	-15791
が蝕	-15792
が論	-15793
が謖	-15794
が蹊	-15795
が近	-15796
が鍮	-15797
が隹	-15798
が鞏	-15799
が黜	-15800
が黠	-15801
が齢	-15802
央が	-15803
斡が	-15804
昔が	-15805
暘が	-15806
椿が	-15807
渋が	-15808
碩が	-15809
藁が	-15810
蝣が	-15811
く感じ	-15812
しの町で	-15813
の町でじ	-15814
の町でマ	-15815
の町で从	-15816
の町で催	-15817
の町で冲	-15818
の町で原	-15819
の町で厩	-15820
の町で呪	-15821
の町で域	-15822
の町で墸	-15823
の町で奮	-15824
の町で嬬	-15825
の町で宛	-15826
の町で寤	-15827
の町で山	-15828
の町で崕	-15829
の町で嶬	-15830
の町で嶮	-15831
の町で弘	-15832
の町で怙	-15833
の町で惹	-15834
の町で愼	-15835
の町で慢	-15836
の町で攬	-15837
の町で栢	-15838
の町で桔	-15839
の町で梦	-15840
の町で榻	-15841
の町で檪	-15842
の町で欖	-15843
の町で海	-15844
の町で濃	-15845
の町で瓩	-15846
の町で皰	-15847
の町で睾	-15848
の町で磯	-15849
の町で緑	-15850
の町で縉	-15851
の町で胆	-15852
の町で能	-15853
の町で腱	-15854
の町で膰	-15855
の町で芦	-15856
の町で蠕	-15857
の町で託	-15858
の町で轤	-15859
の町で釆	-15860
の町で霈	-15861
の町で鞭	-15862
の町で餡	-15863
の町で骨	-15864
低の町で	-15865
傳の町で	-15866
凧の町で	-15867
刎の町で	-15868
壌の町で	-15869
觀の町で	-15870
起の町で	-15871
飴の町で	-15872
▁今日はつ	-15873
▁今日はむ	-15874
ゴシステムは	-15875
システムは儼	-15876
システムは吟	-15877
システムは孩	-15878
システムは宴	-15879
システムは接	-15880
システムは攤	-15881
システムは梅	-15882
システムは様	-15883
システムは欒	-15884
システムは殀	-15885
システムは簗	-15886
システムは纓	-15887
システムは耄	-15888
システムは舉	-15889
システムは西	-15890
システムは詬	-15891
システムは造	-15892
システムは郡	-15893
システムは鐙	-15894
システムは電	-15895
システムは鬢	-15896
システムは鯤	-15897
システムは鱸	-15898
システムは鵡	-15899
丶を見つけた	-15900
僻を見つけた	-15901
僻システムは	-15902
償を見つけた	-15903
免システムは	-15904
凅を見つけた	-15905
助を見つけた	-15906
匚を見つけた	-15907
厩を見つけた	-15908
名を見つけた	-15909
后システムは	-15910
嘖を見つけた	-15911
嘴を見つけた	-15912
噂を見つけた	-15913
囹を見つけた	-15914
基本構造はゆ	-15915
基本構造は丑	-15916
基本構造は仰	-15917
基本構造は冠	-15918
基本構造は凌	-15919
基本構造は剩	-15920
基本構造は卜	-15921
基本構造は嚼	-15922
基本構造は塑	-15923
基本構造は壥	-15924
基本構造は奴	-15925
基本構造は嫖	-15926
基本構造は帥	-15927
基本構造は幤	-15928
基本構造は幸	-15929
基本構造は惷	-15930
基本構造は手	-15931
基本構造は抂	-15932
基本構造は搗	-15933
基本構造は文	-15934
基本構造は朏	-15935
基本構造は本	-15936
基本構造は杷	-15937
基本構造は架	-15938
基本構造は桝	-15939
基本構造は梓	-15940
基本構造は椌	-15941
基本構造は段	-15942
基本構造は浴	-15943
基本構造は漣	-15944
基本構造は瀚	-15945
基本構造は無	-15946
基本構造は爼	-15947
基本構造は牾	-15948
基本構造は猿	-15949
基本構造は瑟	-15950
基本構造は矣	-15951
基本構造は碇	-15952
基本構造は磯	-15953
基本構造は稀	-15954
基本構造は筑	-15955
基本構造は縣	-15956
基本構造は繻	-15957
基本構造は羶	-15958
基本構造は耻	-15959
基本構造は肴	-15960
基本構造は膚	-15961
基本構造は臟	-15962
基本構造は航	-15963
基本構造は艇	-15964
基本構造は莪	-15965
基本構造は葫	-15966
基本構造は蘰	-15967
基本構造は蛾	-15968
基本構造は袖	-15969
基本構造は賁	-15970
基本構造は賊	-15971
基本構造は賻	-15972
基本構造は足	-15973
基本構造は踴	-15974
基本構造は輾	-15975
基本構造は轜	-15976
基本構造は迸	-15977
基本構造は遊	-15978
基本構造は醐	-15979
基本構造は鉐	-15980
基本構造は錙	-15981
基本構造は鐔	-15982
基本構造は阿	-15983
基本構造は陋	-15984
基本構造は鵤	-15985
基本構造は鷺	-15986
基本構造は黏	-15987
基本構造は黜	-15988
大を見つけた	-15989
失を見つけた	-15990
婢システムは	-15991
宦システムは	-15992
嵯システムは	-15993
嶬を見つけた	-15994
希を見つけた	-15995
幺を見つけた	-15996
府システムは	-15997
廖を見つけた	-15998
徹を見つけた	-15999
忽を見つけた	-16000
怒を見つけた	-16001
慘システムは	-16002
憺を見つけた	-16003
懺を見つけた	-16004
扛を見つけた	-16005
挫を見つけた	-16006
捫を見つけた	-16007
敝を見つけた	-16008
晩を見つけた	-16009
暇を見つけた	-16010
東を見つけた	-16011
柘を見つけた	-16012
梢を見つけた	-16013
梹を見つけた	-16014
欣システムは	-16015
殖を見つけた	-16016
毓を見つけた	-16017
氛を見つけた	-16018
泓を見つけた	-16019
浪を見つけた	-16020
渥を見つけた	-16021
湘を見つけた	-16022
潛を見つけた	-16023
瀏を見つけた	-16024
牲システムは	-16025
犠システムは	-16026
状を見つけた	-16027
珀システムは	-16028
疸を見つけた	-16029
痃を見つけた	-16030
瞠システムは	-16031
碍を見つけた	-16032
碣を見つけた	-16033
窶を見つけた	-16034
竜を見つけた	-16035
筈を見つけた	-16036
箇を見つけた	-16037
箔システムは	-16038
箸システムは	-16039
篥を見つけた	-16040
篶を見つけた	-16041
簧を見つけた	-16042
綉を見つけた	-16043
縞を見つけた	-16044
繆を見つけた	-16045
肘を見つけた	-16046
胞システムは	-16047
至を見つけた	-16048
艸を見つけた	-16049
艸システムは	-16050
芳を見つけた	-16051
茹を見つけた	-16052
莚システムは	-16053
葡を見つけた	-16054
虚を見つけた	-16055
蚣を見つけた	-16056
蜩を見つけた	-16057
蝕を見つけた	-16058
衙を見つけた	-16059
褒システムは	-16060
訝を見つけた	-16061
贊を見つけた	-16062
軛を見つけた	-16063
逾を見つけた	-16064
邦システムは	-16065
醵を見つけた	-16066
鍮を見つけた	-16067
鑒を見つけた	-16068
鑢システムは	-16069
防を見つけた	-16070
雰システムは	-16071
雲を見つけた	-16072
需システムは	-16073
震システムは	-16074
頏を見つけた	-16075
飜を見つけた	-16076
騁を見つけた	-16077
魂を見つけた	-16078
鰔システムは	-16079
鰾を見つけた	-16080
鱶を見つけた	-16081
鵲システムは	-16082
鶸システムは	-16083
その出来事はダ	-16084
その出来事は俛	-16085
その出来事は偲	-16086
その出来事は剴	-16087
その出来事は卸	-16088
その出来事は去	-16089
その出来事は叱	-16090
その出来事は吭	-16091
その出来事は吶	-16092
その出来事は咾	-16093
その出来事は婢	-16094
その出来事は子	-16095
その出来事は宗	-16096
その出来事は寒	-16097
その出来事は寡	-16098
その出来事は幎	-16099
その出来事は廴	-16100
その出来事は擣	-16101
その出来事は擯	-16102
その出来事は政	-16103
その出来事は效	-16104
その出来事は枹	-16105
その出来事は根	-16106
その出来事は橄	-16107
その出来事は气	-16108
その出来事は泣	-16109
その出来事は溏	-16110
その出来事は漁	-16111
その出来事は漆	-16112
その出来事は濆	-16113
その出来事は煢	-16114
その出来事は熈	-16115
その出来事は瑙	-16116
その出来事は瑶	-16117
その出来事は瓮	-16118
その出来事は矗	-16119
その出来事は稾	-16120
その出来事は罪	-16121
その出来事は罵	-16122
その出来事は羶	-16123
その出来事は臺	-16124
その出来事は芟	-16125
その出来事は苑	-16126
その出来事は茂	-16127
その出来事は荀	-16128
その出来事は菟	-16129
その出来事は蒸	-16130
その出来事は蓉	-16131
その出来事は蜀	-16132
その出来事は蟠	-16133
その出来事は詫	-16134
その出来事は趺	-16135
その出来事は跡	-16136
その出来事は軻	-16137
その出来事は逕	-16138
その出来事は酋	-16139
その出来事は釜	-16140
その出来事は鑷	-16141
その出来事は闔	-16142
その出来事は韲	-16143
その出来事は韻	-16144
その出来事は餠	-16145
その出来事は鬚	-16146
その出来事は鯰	-16147
その出来事は鯵	-16148
その出来事は鴦	-16149
その出来事は鸛	-16150
その出来事は麋	-16151
ナモデルに基づく	-16152
ベの始まりだった	-16153
乞モデルに基づく	-16154
亰の始まりだった	-16155
仭モデルに基づく	-16156
僞モデルに基づく	-16157
儿モデルに基づく	-16158
写の始まりだった	-16159
冥の始まりだった	-16160
創モデルに基づく	-16161
升モデルに基づく	-16162
卮の始まりだった	-16163
叱の始まりだった	-16164
咀の始まりだった	-16165
哺の始まりだった	-16166
喙モデルに基づく	-16167
嚏モデルに基づく	-16168
嚮モデルに基づく	-16169
四の始まりだった	-16170
型モデルに基づく	-16171
墟モデルに基づく	-16172
壞の始まりだった	-16173
夏モデルに基づく	-16174
姻モデルに基づく	-16175
娥の始まりだった	-16176
娯モデルに基づく	-16177
嬪モデルに基づく	-16178
完の始まりだった	-16179
射の始まりだった	-16180
岼モデルに基づく	-16181
峇の始まりだった	-16182
幣モデルに基づく	-16183
幵モデルに基づく	-16184
廼の始まりだった	-16185
弖の始まりだった	-16186
弟モデルに基づく	-16187
影の始まりだった	-16188
志の始まりだった	-16189
怎の始まりだった	-16190
思の始まりだった	-16191
感モデルに基づく	-16192
慙モデルに基づく	-16193
扮モデルに基づく	-16194
採の始まりだった	-16195
擘モデルに基づく	-16196
攪モデルに基づく	-16197
敗の始まりだった	-16198
无の始まりだった	-16199
晁モデルに基づく	-16200
暝の始まりだった	-16201
曖の始まりだった	-16202
曚モデルに基づく	-16203
末の始まりだった	-16204
朽モデルに基づく	-16205
杰の始まりだった	-16206
杳の始まりだった	-16207
板モデルに基づく	-16208
架の始まりだった	-16209
柿の始まりだった	-16210
梧の始まりだった	-16211
樓モデルに基づく	-16212
橿の始まりだった	-16213
此モデルに基づく	-16214
歴の始まりだった	-16215
毓の始まりだった	-16216
泗の始まりだった	-16217
泥の始まりだった	-16218
涛モデルに基づく	-16219
淘の始まりだった	-16220
湲の始まりだった	-16221
溂の始まりだった	-16222
瀛の始まりだった	-16223
災モデルに基づく	-16224
熔の始まりだった	-16225
珞の始まりだった	-16226
甲の始まりだった	-16227
甲モデルに基づく	-16228
甼の始まりだった	-16229
症の始まりだった	-16230
痺モデルに基づく	-16231
癌の始まりだった	-16232
盧モデルに基づく	-16233
眸モデルに基づく	-16234
瞞モデルに基づく	-16235
碑の始まりだった	-16236
磑モデルに基づく	-16237
祕モデルに基づく	-16238
禺の始まりだった	-16239
秀モデルに基づく	-16240
移の始まりだった	-16241
稘の始まりだった	-16242
竟の始まりだった	-16243
竰モデルに基づく	-16244
筐の始まりだった	-16245
箍の始まりだった	-16246
箟の始まりだった	-16247
簀の始まりだった	-16248
粟の始まりだった	-16249
粭モデルに基づく	-16250
糲モデルに基づく	-16251
糸モデルに基づく	-16252
紮モデルに基づく	-16253
絖モデルに基づく	-16254
絞モデルに基づく	-16255
線の始まりだった	-16256
縒の始まりだった	-16257
聹の始まりだった	-16258
膏の始まりだった	-16259
荊モデルに基づく	-16260
荷の始まりだった	-16261
莢モデルに基づく	-16262
蔀モデルに基づく	-16263
蝉の始まりだった	-16264
蝋の始まりだった	-16265
蝴の始まりだった	-16266
蠶の始まりだった	-16267
衍モデルに基づく	-16268
衵モデルに基づく	-16269
褐の始まりだった	-16270
褸モデルに基づく	-16271
襃モデルに基づく	-16272
覲モデルに基づく	-16273
計モデルに基づく	-16274
訊モデルに基づく	-16275
訖の始まりだった	-16276
訳の始まりだった	-16277
詠モデルに基づく	-16278
謖モデルに基づく	-16279
謳の始まりだった	-16280
豺の始まりだった	-16281
踴モデルに基づく	-16282
軽モデルに基づく	-16283
輳の始まりだった	-16284
通モデルに基づく	-16285
遵モデルに基づく	-16286
還モデルに基づく	-16287
醜の始まりだった	-16288
醤モデルに基づく	-16289
醪モデルに基づく	-16290
鉉モデルに基づく	-16291
鉱の始まりだった	-16292
錣の始まりだった	-16293
隠の始まりだった	-16294
隹の始まりだった	-16295
靦モデルに基づく	-16296
餾モデルに基づく	-16297
駆モデルに基づく	-16298
鯱モデルに基づく	-16299
鵄モデルに基づく	-16300
鶇モデルに基づく	-16301
鷦モデルに基づく	-16302
鹿モデルに基づく	-16303
丿処理を行うために設計されている	-16304
些処理を行うために設計されている	-16305
从処理を行うために設計されている	-16306
俎処理を行うために設計されている	-16307
保処理を行うために設計されている	-16308
僧処理を行うために設計されている	-16309
匠処理を行うために設計されている	-16310
匿処理を行うために設計されている	-16311
危処理を行うために設計されている	-16312
呀処理を行うために設計されている	-16313
啄処理を行うために設計されている	-16314
囂処理を行うために設計されている	-16315
地処理を行うために設計されている	-16316
堀処理を行うために設計されている	-16317
嬋処理を行うために設計されている	-16318
差処理を行うために設計されている	-16319
庠処理を行うために設計されている	-16320
式処理を行うために設計されている	-16321
很処理を行うために設計されている	-16322
徐処理を行うために設計されている	-16323
挽処理を行うために設計されている	-16324
捍処理を行うために設計されている	-16325
掛処理を行うために設計されている	-16326
敏処理を行うために設計されている	-16327
柴処理を行うために設計されている	-16328
樵処理を行うために設計されている	-16329
欅処理を行うために設計されている	-16330
毅処理を行うために設計されている	-16331
泅処理を行うために設計されている	-16332
浤処理を行うために設計されている	-16333
添処理を行うために設計されている	-16334
溽処理を行うために設計されている	-16335
瑠処理を行うために設計されている	-16336
瓧処理を行うために設計されている	-16337
畢処理を行うために設計されている	-16338
痛処理を行うために設計されている	-16339
盈処理を行うために設計されている	-16340
禾処理を行うために設計されている	-16341
秬処理を行うために設計されている	-16342
稷処理を行うために設計されている	-16343
筰処理を行うために設計されている	-16344
繁処理を行うために設計されている	-16345
罍処理を行うために設計されている	-16346
美処理を行うために設計されている	-16347
膚処理を行うために設計されている	-16348
色処理を行うために設計されている	-16349
艷処理を行うために設計されている	-16350
蕨処理を行うために設計されている	-16351
袈処理を行うために設計されている	-16352
補処理を行うために設計されている	-16353
襠処理を行うために設計されている	-16354
詛処理を行うために設計されている	-16355
話処理を行うために設計されている	-16356
賠処理を行うために設計されている	-16357
農処理を行うために設計されている	-16358
週処理を行うために設計されている	-16359
釣処理を行うために設計されている	-16360
鈕処理を行うために設計されている	-16361
錢処理を行うために設計されている	-16362
鎹処理を行うために設計されている	-16363
閖処理を行うために設計されている	-16364
閧処理を行うために設計されている	-16365
閨処理を行うために設計されている	-16366
闃処理を行うために設計されている	-16367
附処理を行うために設計されている	-16368
陸処理を行うために設計されている	-16369
雙処理を行うために設計されている	-16370
霜処理を行うために設計されている	-16371
鞆処理を行うために設計されている	-16372
鞣処理を行うために設計されている	-16373
飴処理を行うために設計されている	-16374
餠処理を行うために設計されている	-16375
館処理を行うために設計されている	-16376
鰒処理を行うために設計されている	-16377
がト	-16378
が佇	-16379
が俯	-16380
が傑	-16381
が叫	-16382
が呀	-16383
が崛	-16384
が懺	-16385
が捨	-16386
が搶	-16387
が杠	-16388
が柢	-16389
が栩	-16390
が棗	-16391
が檳	-16392
が氈	-16393
が泄	-16394
が泗	-16395
が滷	-16396
が炙	-16397
が熾	-16398
が猖	-16399
が疝	-16400
が種	-16401
が簡	-16402
が肬	-16403
が臀	-16404
が苫	-16405
が荒	-16406
が菜	-16407
が蕩	-16408
が覆	-16409
が轜	-16410
が醸	-16411
が雌	-16412
が靉	-16413
が鞁	-16414
が鞳	-16415
が顱	-16416
が颪	-16417
が鱧	-16418
らが	-16419
寳が	-16420
崙が	-16421
棋が	-16422
檠が	-16423
渺が	-16424
餅が	-16425
麹が	-16426
▁こと	-16427
の町でと	-16428
の町で五	-16429
の町で劵	-16430
の町で吐	-16431
の町で嫁	-16432
の町で學	-16433
の町で寂	-16434
の町で尠	-16435
の町で悵	-16436
の町で惧	-16437
の町で戦	-16438
の町で楡	-16439
の町で榛	-16440
の町で櫞	-16441
の町で欒	-16442
の町で沿	-16443
の町で淹	-16444
の町で淺	-16445
の町で牢	-16446
の町で狆	-16447
の町で畴	-16448
の町で禿	-16449
の町で簓	-16450
の町で籵	-16451
の町で罫	-16452
の町で置	-16453
の町で腮	-16454
の町で膈	-16455
の町で膵	-16456
の町で至	-16457
の町で蘰	-16458
の町で蝣	-16459
の町で衍	-16460
の町で複	-16461
の町で逅	-16462
の町で遜	-16463
の町で鍄	-16464
の町で韶	-16465
の町で顳	-16466
の町で髣	-16467
の町で鯡	-16468
の町で鰓	-16469
の町で鴬	-16470
の町で鶻	-16471
の町で黄	-16472
廟の町で	-16473
杖の町で	-16474
栖の町で	-16475
湟の町で	-16476
づシステムは	-16477
ガを見つけた	-16478
ゲシステムは	-16479
システムは余	-16480
システムは匣	-16481
システムは壅	-16482
システムは従	-16483
システムは戈	-16484
システムは払	-16485
システムは抑	-16486
システムは晰	-16487
システムは柬	-16488
システムは機	-16489
システムは檎	-16490
システムは檸	-16491
システムは皈	-16492
システムは糒	-16493
システムは羣	-16494
システムは芸	-16495
システムは蘢	-16496
システムは複	-16497
システムは迥	-16498
システムは迪	-16499
システムは錣	-16500
システムは鏈	-16501
システムは韮	-16502
システムは骸	-16503
システムは鶯	-16504
ダを見つけた	-16505
バシステムは	-16506
主を見つけた	-16507
侵システムは	-16508
做システムは	-16509
偬を見つけた	-16510
元を見つけた	-16511
凪を見つけた	-16512
凸システムは	-16513
卆を見つけた	-16514
吟を見つけた	-16515
善を見つけた	-16516
垢を見つけた	-16517
基本構造はミ	-16518
基本構造は介	-16519
基本構造は价	-16520
基本構造は伉	-16521
基本構造は会	-16522
基本構造は佞	-16523
基本構造は偬	-16524
基本構造は凄	-16525
基本構造は凛	-16526
基本構造は力	-16527
基本構造は匹	-16528
基本構造は咒	-16529
基本構造は堤	-16530
基本構造は墻	-16531
基本構造は夭	-16532
基本構造は妄	-16533
基本構造は妖	-16534
基本構造は嫐	-16535
基本構造は害	-16536
基本構造は察	-16537
基本構造は屆	-16538
基本構造は岳	-16539
基本構造は巛	-16540
基本構造は廊	-16541
基本構造は式	-16542
基本構造は恆	-16543
基本構造は慧	-16544
基本構造は扉	-16545
基本構造は才	-16546
基本構造は拇	-16547
基本構造は拉	-16548
基本構造は擲	-16549
基本構造は是	-16550
基本構造は杏	-16551
基本構造は桃	-16552
基本構造は梺	-16553
基本構造は歡	-16554
基本構造は沿	-16555
基本構造は注	-16556
基本構造は漱	-16557
基本構造は炸	-16558
基本構造は熄	-16559
基本構造は爭	-16560
基本構造は犁	-16561
基本構造は畋	-16562
基本構造は睹	-16563
基本構造は磊	-16564
基本構造は筺	-16565
基本構造は糀	-16566
基本構造は紹	-16567
基本構造は緝	-16568
基本構造は縉	-16569
基本構造は繹	-16570
基本構造は罷	-16571
基本構造は肋	-16572
基本構造は胚	-16573
基本構造は臆	-16574
基本構造は苫	-16575
基本構造は蕈	-16576
基本構造は藜	-16577
基本構造は蚌	-16578
基本構造は蛛	-16579
基本構造は蜊	-16580
基本構造は袤	-16581
基本構造は裼	-16582
基本構造は褄	-16583
基本構造は襍	-16584
基本構造は觸	-16585
基本構造は訴	-16586
基本構造は讀	-16587
基本構造は賦	-16588
基本構造は贄	-16589
基本構造は跏	-16590
基本構造は車	-16591
基本構造は轗	-16592
基本構造は辯	-16593
基本構造は邃	-16594
基本構造は陝	-16595
基本構造は陦	-16596
基本構造は陶	-16597
基本構造は雛	-16598
基本構造は韮	-16599
基本構造は頽	-16600
基本構造は餒	-16601
基本構造は麾	-16602
基本構造は黷	-16603
奕システムは	-16604
妃を見つけた	-16605
妙を見つけた	-16606
孜システムは	-16607
富を見つけた	-16608
帆を見つけた	-16609
帽を見つけた	-16610
庭を見つけた	-16611
徭システムは	-16612
恐を見つけた	-16613
愃を見つけた	-16614
愈システムは	-16615
愛を見つけた	-16616
憙システムは	-16617
懃を見つけた	-16618
懋を見つけた	-16619
戟を見つけた	-16620
戻を見つけた	-16621
捲システムは	-16622
插を見つけた	-16623
擠を見つけた	-16624
斎を見つけた	-16625
旄を見つけた	-16626
旭を見つけた	-16627
晁を見つけた	-16628
杉を見つけた	-16629
杏を見つけた	-16630
框を見つけた	-16631
樂システムは	-16632
櫓を見つけた	-16633
浜を見つけた	-16634
湲を見つけた	-16635
漆を見つけた	-16636
漣を見つけた	-16637
潜を見つけた	-16638
瀑を見つけた	-16639
為を見つけた	-16640
煮を見つけた	-16641
燻を見つけた	-16642
珂システムは	-16643
申を見つけた	-16644
留を見つけた	-16645
異を見つけた	-16646
疋システムは	-16647
瘋を見つけた	-16648
盂を見つけた	-16649
省を見つけた	-16650
竣を見つけた	-16651
笥を見つけた	-16652
箔を見つけた	-16653
簟を見つけた	-16654
紹を見つけた	-16655
絞を見つけた	-16656
纔を見つけた	-16657
罘を見つけた	-16658
罵を見つけた	-16659
群を見つけた	-16660
肆を見つけた	-16661
腔を見つけた	-16662
膩を見つけた	-16663
舊を見つけた	-16664
舘システムは	-16665
茄を見つけた	-16666
葵を見つけた	-16667
蔓を見つけた	-16668
藝を見つけた	-16669
蛉を見つけた	-16670
蜚を見つけた	-16671
蜿システムは	-16672
蟀を見つけた	-16673
蠍を見つけた	-16674
蠡を見つけた	-16675
蠱を見つけた	-16676
蠻を見つけた	-16677
褌を見つけた	-16678
許を見つけた	-16679
謫を見つけた	-16680
譚を見つけた	-16681
譽を見つけた	-16682
讌を見つけた	-16683
貞システムは	-16684
軫を見つけた	-16685
連を見つけた	-16686
遜を見つけた	-16687
遶を見つけた	-16688
邁を見つけた	-16689
酣を見つけた	-16690
鈩システムは	-16691
鉈を見つけた	-16692
鐔を見つけた	-16693
鐸を見つけた	-16694
鑚システムは	-16695
閥を見つけた	-16696
霧を見つけた	-16697
項を見つけた	-16698
頒を見つけた	-16699
頓システムは	-16700
颯を見つけた	-16701
飼を見つけた	-16702
餔を見つけた	-16703
饌を見つけた	-16704
驕を見つけた	-16705
鬚システムは	-16706
鴿を見つけた	-16707
鵆システムは	-16708
黜を見つけた	-16709
鼓を見つけた	-16710
その出来事はと	-16711
その出来事はぴ	-16712
その出来事はぷ	-16713
その出来事は世	-16714
その出来事は二	-16715
その出来事は伎	-16716
その出来事は兔	-16717
その出来事は凋	-16718
その出来事は刧	-16719
その出来事は剩	-16720
その出来事は叮	-16721
その出来事は唏	-16722
その出来事は噫	-16723
その出来事は嚏	-16724
その出来事は圏	-16725
その出来事は圦	-16726
その出来事は均	-16727
その出来事は坪	-16728
その出来事は塩	-16729
その出来事は妥	-16730
その出来事は孱	-16731
その出来事は并	-16732
その出来事は彊	-16733
その出来事は彩	-16734
その出来事は惆	-16735
その出来事は愚	-16736
その出来事は憺	-16737
その出来事は懈	-16738
その出来事は拉	-16739
その出来事は招	-16740
その出来事は掏	-16741
その出来事は斤	-16742
その出来事は断	-16743
その出来事は斯	-16744
その出来事は斷	-16745
その出来事は星	-16746
その出来事は晒	-16747
その出来事は暗	-16748
その出来事は更	-16749
その出来事は杳	-16750
その出来事は核	-16751
その出来事は椛	-16752
その出来事は殪	-16753
その出来事は氛	-16754
その出来事は洪	-16755
その出来事は淳	-16756
その出来事は炳	-16757
その出来事は燒	-16758
その出来事は燧	-16759
その出来事は牾	-16760
その出来事は獸	-16761
その出来事は現	-16762
その出来事は璋	-16763
その出来事は疂	-16764
その出来事は皮	-16765
その出来事は磬	-16766
その出来事は窗	-16767
その出来事は箸	-16768
その出来事は簓	-16769
その出来事は繚	-16770
その出来事は羨	-16771
その出来事は羲	-16772
その出来事は翻	-16773
その出来事は耙	-16774
その出来事は胝	-16775
その出来事は腺	-16776
その出来事は茄	-16777
その出来事は茨	-16778
その出来事は菠	-16779
その出来事は葭	-16780
その出来事は蕋	-16781
その出来事は蝎	-16782
その出来事は衝	-16783
その出来事は褂	-16784
その出来事は褊	-16785
その出来事は覬	-16786
その出来事は評	-16787
その出来事は質	-16788
その出来事は賽	-16789
その出来事は踰	-16790
その出来事は邯	-16791
その出来事は酔	-16792
その出来事は醐	-16793
その出来事は鎹	-16794
その出来事は鑑	-16795
その出来事は韃	-16796
その出来事は飛	-16797
その出来事は饐	-16798
その出来事は騰	-16799
その出来事は驍	-16800
その出来事は鬱	-16801
その出来事は鴣	-16802
その出来事は鷁	-16803
その出来事は鷺	-16804
その出来事は鼻	-16805
チの始まりだった	-16806
プモデルに基づく	-16807
丐の始まりだった	-16808
佛の始まりだった	-16809
侈の始まりだった	-16810
俟モデルに基づく	-16811
兒の始まりだった	-16812
冫モデルに基づく	-16813
凉モデルに基づく	-16814
凩の始まりだった	-16815
刮モデルに基づく	-16816
匚の始まりだった	-16817
匡の始まりだった	-16818
可の始まりだった	-16819
吉の始まりだった	-16820
咽モデルに基づく	-16821
哉の始まりだった	-16822
哽の始まりだった	-16823
唯モデルに基づく	-16824
啀の始まりだった	-16825
喀の始まりだった	-16826
喬モデルに基づく	-16827
坂モデルに基づく	-16828
垈モデルに基づく	-16829
堡モデルに基づく	-16830
報モデルに基づく	-16831
夂の始まりだった	-16832
央の始まりだった	-16833
女の始まりだった	-16834
娑の始まりだった	-16835
娟の始まりだった	-16836
宋の始まりだった	-16837
宗モデルに基づく	-16838
寝モデルに基づく	-16839
專モデルに基づく	-16840
峭モデルに基づく	-16841
峺の始まりだった	-16842
嶂モデルに基づく	-16843
市モデルに基づく	-16844
庚モデルに基づく	-16845
府の始まりだった	-16846
廨の始まりだった	-16847
廳の始まりだった	-16848
廸の始まりだった	-16849
弟の始まりだった	-16850
強モデルに基づく	-16851
征の始まりだった	-16852
徊モデルに基づく	-16853
必モデルに基づく	-16854
恤の始まりだった	-16855
恬の始まりだった	-16856
悒モデルに基づく	-16857
悦の始まりだった	-16858
悲の始まりだった	-16859
惷の始まりだった	-16860
惹モデルに基づく	-16861
愃の始まりだった	-16862
愕の始まりだった	-16863
愽モデルに基づく	-16864
憚モデルに基づく	-16865
戡の始まりだった	-16866
扎の始まりだった	-16867
招モデルに基づく	-16868
括の始まりだった	-16869
推の始まりだった	-16870
攀モデルに基づく	-16871
攻モデルに基づく	-16872
政モデルに基づく	-16873
早モデルに基づく	-16874
杜モデルに基づく	-16875
柱モデルに基づく	-16876
柴モデルに基づく	-16877
柾の始まりだった	-16878
案モデルに基づく	-16879
梠の始まりだった	-16880
棣モデルに基づく	-16881
棲モデルに基づく	-16882
楚モデルに基づく	-16883
榴の始まりだった	-16884
槫の始まりだった	-16885
樊モデルに基づく	-16886
橄の始まりだった	-16887
殺の始まりだった	-16888
沽の始まりだった	-16889
淪モデルに基づく	-16890
渙モデルに基づく	-16891
渡モデルに基づく	-16892
漫の始まりだった	-16893
潘モデルに基づく	-16894
激の始まりだった	-16895
煕モデルに基づく	-16896
甞モデルに基づく	-16897
痼モデルに基づく	-16898
皇の始まりだった	-16899
盤モデルに基づく	-16900
眇モデルに基づく	-16901
睛の始まりだった	-16902
矍モデルに基づく	-16903
砌モデルに基づく	-16904
砿モデルに基づく	-16905
稟の始まりだった	-16906
稻の始まりだった	-16907
窗モデルに基づく	-16908
竍モデルに基づく	-16909
筝の始まりだった	-16910
箭モデルに基づく	-16911
粤モデルに基づく	-16912
糖モデルに基づく	-16913
綛モデルに基づく	-16914
緞の始まりだった	-16915
繋モデルに基づく	-16916
纉モデルに基づく	-16917
纛モデルに基づく	-16918
罌の始まりだった	-16919
群の始まりだった	-16920
聳モデルに基づく	-16921
腓の始まりだった	-16922
膺の始まりだった	-16923
船モデルに基づく	-16924
色の始まりだった	-16925
艾の始まりだった	-16926
若の始まりだった	-16927
茸モデルに基づく	-16928
荒モデルに基づく	-16929
萵の始まりだった	-16930
蕉の始まりだった	-16931
蕩モデルに基づく	-16932
薈モデルに基づく	-16933
薗の始まりだった	-16934
蘊の始まりだった	-16935
蘯モデルに基づく	-16936
蛟の始まりだった	-16937
蛩の始まりだった	-16938
蜀モデルに基づく	-16939
蝓の始まりだった	-16940
蟐の始まりだった	-16941
蠖の始まりだった	-16942
衫の始まりだった	-16943
袋の始まりだった	-16944
襄モデルに基づく	-16945
襯モデルに基づく	-16946
襾モデルに基づく	-16947
訐モデルに基づく	-16948
訶モデルに基づく	-16949
詑の始まりだった	-16950
誡の始まりだった	-16951
諫モデルに基づく	-16952
譬モデルに基づく	-16953
豫モデルに基づく	-16954
賎モデルに基づく	-16955
贋モデルに基づく	-16956
起の始まりだった	-16957
踪の始まりだった	-16958
輸の始まりだった	-16959
郵モデルに基づく	-16960
針の始まりだった	-16961
銭モデルに基づく	-16962
鏃モデルに基づく	-16963
陟モデルに基づく	-16964
隗の始まりだった	-16965
雪モデルに基づく	-16966
霄の始まりだった	-16967
靠の始まりだった	-16968
鞁モデルに基づく	-16969
韈モデルに基づく	-16970
頒モデルに基づく	-16971
願モデルに基づく	-16972
驀の始まりだった	-16973
鬚の始まりだった	-16974
魁の始まりだった	-16975
鰰の始まりだった	-16976
鵲モデルに基づく	-16977
麁の始まりだった	-16978
鼈の始まりだった	-16979
齬の始まりだった	-16980
龜の始まりだった	-16981
の文脈においている	-16982
ェ処理を行うために設計されている	-16983
セ処理を行うために設計されている	-16984
ヅ処理を行うために設計されている	-16985
ニ処理を行うために設計されている	-16986
乕処理を行うために設計されている	-16987
争処理を行うために設計されている	-16988
仆処理を行うために設計されている	-16989
倫処理を行うために設計されている	-16990
写処理を行うために設計されている	-16991
剌処理を行うために設計されている	-16992
吟処理を行うために設計されている	-16993
咄処理を行うために設計されている	-16994
喪処理を行うために設計されている	-16995
嚊処理を行うために設計されている	-16996
壅処理を行うために設計されている	-16997
婿処理を行うために設計されている	-16998
宏処理を行うために設計されている	-16999
寞処理を行うために設計されている	-17000
展処理を行うために設計されている	-17001
峅処理を行うために設計されている	-17002
峡処理を行うために設計されている	-17003
巒処理を行うために設計されている	-17004
帥処理を行うために設計されている	-17005
幎処理を行うために設計されている	-17006
彭処理を行うために設計されている	-17007
律処理を行うために設計されている	-17008
徨処理を行うために設計されている	-17009
恂処理を行うために設計されている	-17010
慌処理を行うために設計されている	-17011
揚処理を行うために設計されている	-17012
換処理を行うために設計されている	-17013
揺処理を行うために設計されている	-17014
杰処理を行うために設計されている	-17015
枠処理を行うために設計されている	-17016
柔処理を行うために設計されている	-17017
柳処理を行うために設計されている	-17018
棊処理を行うために設計されている	-17019
楼処理を行うために設計されている	-17020
槎処理を行うために設計されている	-17021
決処理を行うために設計されている	-17022
沮処理を行うために設計されている	-17023
湘処理を行うために設計されている	-17024
滴処理を行うために設計されている	-17025
澁処理を行うために設計されている	-17026
濳処理を行うために設計されている	-17027
焚処理を行うために設計されている	-17028
燵処理を行うために設計されている	-17029
片処理を行うために設計されている	-17030
瞭処理を行うために設計されている	-17031
碯処理を行うために設計されている	-17032
磆処理を行うために設計されている	-17033
祈処理を行うために設計されている	-17034
空処理を行うために設計されている	-17035
笘処理を行うために設計されている	-17036
簗処理を行うために設計されている	-17037
糺処理を行うために設計されている	-17038
絅処理を行うために設計されている	-17039
絖処理を行うために設計されている	-17040
綜処理を行うために設計されている	-17041
綻処理を行うために設計されている	-17042
編処理を行うために設計されている	-17043
翹処理を行うために設計されている	-17044
舫処理を行うために設計されている	-17045
芯処理を行うために設計されている	-17046
芻処理を行うために設計されている	-17047
茯処理を行うために設計されている	-17048
荼処理を行うために設計されている	-17049
萃処理を行うために設計されている	-17050
蘿処理を行うために設計されている	-17051
蟠処理を行うために設計されている	-17052
袍処理を行うために設計されている	-17053
裕処理を行うために設計されている	-17054
覲処理を行うために設計されている	-17055
詳処理を行うために設計されている	-17056
譲処理を行うために設計されている	-17057
譴処理を行うために設計されている	-17058
財処理を行うために設計されている	-17059
趺処理を行うために設計されている	-17060
跟処理を行うために設計されている	-17061
遐処理を行うために設計されている	-17062
醗処理を行うために設計されている	-17063
醫処理を行うために設計されている	-17064
釦処理を行うために設計されている	-17065
鉢処理を行うために設計されている	-17066
陏処理を行うために設計されている	-17067
雁処理を行うために設計されている	-17068
霤処理を行うために設計されている	-17069
餽処理を行うために設計されている	-17070
馴処理を行うために設計されている	-17071
鶸処理を行うために設計されている	-17072
鼈処理を行うために設計されている	-17073
齋処理を行うために設計されている	-17074
が々	-17075
がシ	-17076
がダ	-17077
がミ	-17078
がレ	-17079
が仞	-17080
が侠	-17081
が哩	-17082
が回	-17083
が坊	-17084
が坤	-17085
が墺	-17086
が宿	-17087
が展	-17088
が張	-17089
が怩	-17090
が愀	-17091
が慮	-17092
が手	-17093
が暢	-17094
が曄	-17095
が梟	-17096
が樛	-17097
が湛	-17098
が滲	-17099
が濠	-17100
が灯	-17101
が灰	-17102
が無	-17103
が瓶	-17104
が甌	-17105
が畑	-17106
が畛	-17107
が畴	-17108
が眞	-17109
が秡	-17110
が稷	-17111
が箭	-17112
が絖	-17113
が綛	-17114
が罌	-17115
が羅	-17116
が翊	-17117
が耋	-17118
が膚	-17119
が舅	-17120
が艸	-17121
が莇	-17122
が薛	-17123
が蜀	-17124
が蠢	-17125
が衂	-17126
が衰	-17127
が裲	-17128
が襁	-17129
が謬	-17130
が譏	-17131
が譚	-17132
が躪	-17133
が辣	-17134
が釀	-17135
が里	-17136
が鉗	-17137
が閙	-17138
が陸	-17139
が駆	-17140
が駛	-17141
が魯	-17142
が鳩	-17143
乎が	-17144
暖が	-17145
殃が	-17146
瓣が	-17147
畦が	-17148
躱が	-17149
い感じ	-17150
の町でう	-17151
の町で仭	-17152
の町で傑	-17153
の町で剃	-17154
の町で墅	-17155
の町で壘	-17156
の町で嫐	-17157
の町で宕	-17158
の町で庄	-17159
の町で廂	-17160
の町で懲	-17161
の町で捧	-17162
の町で揃	-17163
の町で梱	-17164
の町で槿	-17165
の町で櫺	-17166
の町で段	-17167
の町で汗	-17168
の町で浩	-17169
の町で爻	-17170
の町で用	-17171
の町で番	-17172
の町で癇	-17173
の町で砧	-17174
の町で碕	-17175
の町で禹	-17176
の町で箋	-17177
の町で緋	-17178
の町で縮	-17179
の町で胖	-17180
の町で胸	-17181
の町で臑	-17182
の町で臣	-17183
の町で苑	-17184
の町で萄	-17185
の町で蕭	-17186
の町で蛭	-17187
の町で蜃	-17188
の町で袒	-17189
の町で裲	-17190
の町で逞	-17191
の町で鐡	-17192
の町で鑒	-17193
の町で鑪	-17194
の町で閃	-17195
の町で陞	-17196
の町で飆	-17197
の町で麭	-17198
の町で齋	-17199
ヲの町で	-17200
姶の町で	-17201
晉の町で	-17202
辮の町で	-17203
▁今日はね	-17204
▁今日はろ	-17205
かを見つけた	-17206
せシステムは	-17207
てシステムは	-17208
システムは叭	-17209
システムは喋	-17210
システムは園	-17211
システムは執	-17212
システムは孺	-17213
システムは披	-17214
システムは朝	-17215
システムは欄	-17216
システムは渾	-17217
システムは瑞	-17218
システムは痃	-17219
システムは籍	-17220
システムは茹	-17221
システムは販	-17222
システムは趨	-17223
システムは龠	-17224
五を見つけた	-17225
亦を見つけた	-17226
佛を見つけた	-17227
偏を見つけた	-17228
册を見つけた	-17229
冬システムは	-17230
初システムは	-17231
刺を見つけた	-17232
剋システムは	-17233
匳システムは	-17234
厭システムは	-17235
和システムは	-17236
垓を見つけた	-17237
埋を見つけた	-17238
基本構造はけ	-17239
基本構造はギ	-17240
基本構造はボ	-17241
基本構造はュ	-17242
基本構造は仙	-17243
基本構造は倫	-17244
基本構造は偲	-17245
基本構造は兌	-17246
基本構造は兼	-17247
基本構造は况	-17248
基本構造は凸	-17249
基本構造は剞	-17250
基本構造は匕	-17251
基本構造は半	-17252
基本構造は咳	-17253
基本構造は品	-17254
基本構造は囀	-17255
基本構造は墹	-17256
基本構造は墺	-17257
基本構造は壗	-17258
基本構造は壮	-17259
基本構造は奨	-17260
基本構造は好	-17261
基本構造は嫺	-17262
基本構造は嬌	-17263
基本構造は宀	-17264
基本構造は寄	-17265
基本構造は寓	-17266
基本構造は尅	-17267
基本構造は岐	-17268
基本構造は崛	-17269
基本構造は帆	-17270
基本構造は常	-17271
基本構造は序	-17272
基本構造は弋	-17273
基本構造は彊	-17274
基本構造は徑	-17275
基本構造は恪	-17276
基本構造は慌	-17277
基本構造は抃	-17278
基本構造は捧	-17279
基本構造は捷	-17280
基本構造は撃	-17281
基本構造は擡	-17282
基本構造は擺	-17283
基本構造は楸	-17284
基本構造は榠	-17285
基本構造は檄	-17286
基本構造は欄	-17287
基本構造は涎	-17288
基本構造は淇	-17289
基本構造は滉	-17290
基本構造は澤	-17291
基本構造は澱	-17292
基本構造は激	-17293
基本構造は火	-17294
基本構造は煖	-17295
基本構造は狂	-17296
基本構造は猷	-17297
基本構造は獺	-17298
基本構造は瓲	-17299
基本構造は畴	-17300
基本構造は皚	-17301
基本構造は皸	-17302
基本構造は盻	-17303
基本構造は看	-17304
基本構造は眺	-17305
基本構造は碎	-17306
基本構造は磨	-17307
基本構造は禳	-17308
基本構造は稻	-17309
基本構造は穉	-17310
基本構造は窓	-17311
基本構造は窰	-17312
基本構造は筍	-17313
基本構造は筰	-17314
基本構造は粋	-17315
基本構造は粍	-17316
基本構造は粐	-17317
基本構造は紆	-17318
基本構造は紕	-17319
基本構造は絮	-17320
基本構造は綴	-17321
基本構造は纉	-17322
基本構造は羃	-17323
基本構造は羔	-17324
基本構造は聳	-17325
基本構造は育	-17326
基本構造は胸	-17327
基本構造は腴	-17328
基本構造は臘	-17329
基本構造は芽	-17330
基本構造は茨	-17331
基本構造は莟	-17332
基本構造は蓖	-17333
基本構造は蝋	-17334
基本構造は視	-17335
基本構造は談	-17336
基本構造は趾	-17337
基本構造は踪	-17338
基本構造は軈	-17339
基本構造は逞	-17340
基本構造は銕	-17341
基本構造は鑑	-17342
基本構造は開	-17343
基本構造は雌	-17344
基本構造は靖	-17345
基本構造は饅	-17346
基本構造は驚	-17347
基本構造は髏	-17348
基本構造は鬲	-17349
基本構造は鯖	-17350
基本構造は鵠	-17351
基本構造は鹿	-17352
基本構造は鼎	-17353
奉を見つけた	-17354
奘を見つけた	-17355
妛を見つけた	-17356
寞システムは	-17357
寢を見つけた	-17358
將システムは	-17359
峭システムは	-17360
廛を見つけた	-17361
怜システムは	-17362
怯システムは	-17363
戉を見つけた	-17364
扨システムは	-17365
扶システムは	-17366
担を見つけた	-17367
挈システムは	-17368
挧を見つけた	-17369
掏を見つけた	-17370
揖を見つけた	-17371
搴システムは	-17372
擂を見つけた	-17373
旌を見つけた	-17374
晒を見つけた	-17375
有システムは	-17376
梱を見つけた	-17377
榾システムは	-17378
檢を見つけた	-17379
櫻を見つけた	-17380
歙を見つけた	-17381
此を見つけた	-17382
毆を見つけた	-17383
氤を見つけた	-17384
浣を見つけた	-17385
浣システムは	-17386
涼を見つけた	-17387
淒システムは	-17388
滯を見つけた	-17389
炎を見つけた	-17390
熱を見つけた	-17391
物を見つけた	-17392
瓧を見つけた	-17393
畢を見つけた	-17394
畧を見つけた	-17395
瘴を見つけた	-17396
皀を見つけた	-17397
皃システムは	-17398
皿システムは	-17399
瞼を見つけた	-17400
砧システムは	-17401
硅を見つけた	-17402
磴を見つけた	-17403
礎を見つけた	-17404
社を見つけた	-17405
穏を見つけた	-17406
穩を見つけた	-17407
簡を見つけた	-17408
籔を見つけた	-17409
糘を見つけた	-17410
統を見つけた	-17411
統システムは	-17412
聶を見つけた	-17413
脱を見つけた	-17414
腟を見つけた	-17415
膕を見つけた	-17416
膜システムは	-17417
臠システムは	-17418
臼を見つけた	-17419
舊システムは	-17420
舗を見つけた	-17421
芹を見つけた	-17422
菊を見つけた	-17423
萩を見つけた	-17424
蓴システムは	-17425
蔬を見つけた	-17426
薪を見つけた	-17427
虫を見つけた	-17428
蜉を見つけた	-17429
裼システムは	-17430
襖システムは	-17431
覇システムは	-17432
諂を見つけた	-17433
譁を見つけた	-17434
谷を見つけた	-17435
貉を見つけた	-17436
貭を見つけた	-17437
買を見つけた	-17438
賊を見つけた	-17439
赳を見つけた	-17440
趺を見つけた	-17441
蹇システムは	-17442
躡システムは	-17443
逑を見つけた	-17444
通を見つけた	-17445
鈎を見つけた	-17446
鍖を見つけた	-17447
鏘システムは	-17448
鑓システムは	-17449
閔を見つけた	-17450
閠を見つけた	-17451
靉を見つけた	-17452
靖システムは	-17453
靠システムは	-17454
革システムは	-17455
韵を見つけた	-17456
馭を見つけた	-17457
魍システムは	-17458
鮎を見つけた	-17459
鯀を見つけた	-17460
鯊システムは	-17461
鰐を見つけた	-17462
鳩を見つけた	-17463
その出来事はク	-17464
その出来事はヾ	-17465
その出来事は丘	-17466
その出来事は亀	-17467
その出来事は互	-17468
その出来事は亠	-17469
その出来事は伜	-17470
その出来事は佑	-17471
その出来事は体	-17472
その出来事は侮	-17473
その出来事は倔	-17474
その出来事は儀	-17475
その出来事は允	-17476
その出来事は処	-17477
その出来事は化	-17478
その出来事は卅	-17479
その出来事は卑	-17480
その出来事は占	-17481
その出来事は呂	-17482
その出来事は團	-17483
その出来事は圭	-17484
その出来事は垤	-17485
その出来事は堵	-17486
その出来事は妊	-17487
その出来事は媽	-17488
その出来事は孫	-17489
その出来事は封	-17490
その出来事は尖	-17491
その出来事は尠	-17492
その出来事は崛	-17493
その出来事は帆	-17494
その出来事は帯	-17495
その出来事は常	-17496
その出来事は幹	-17497
その出来事は底	-17498
その出来事は弟	-17499
その出来事は彬	-17500
その出来事は恁	-17501
その出来事は恭	-17502
その出来事は悌	-17503
その出来事は慇	-17504
その出来事は擡	-17505
その出来事は旆	-17506
その出来事は枝	-17507
その出来事は楫	-17508
その出来事は樟	-17509
その出来事は樸	-17510
その出来事は橿	-17511
その出来事は殉	-17512
その出来事は殳	-17513
その出来事は段	-17514
その出来事は毎	-17515
その出来事は況	-17516
その出来事は洌	-17517
その出来事は淙	-17518
その出来事は淵	-17519
その出来事は滷	-17520
その出来事は煮	-17521
その出来事は牛	-17522
その出来事は牧	-17523
その出来事は犹	-17524
その出来事は甞	-17525
その出来事は甸	-17526
その出来事は病	-17527
その出来事は瘟	-17528
その出来事は癲	-17529
その出来事は眦	-17530
その出来事は睇	-17531
その出来事は矮	-17532
その出来事は碍	-17533
その出来事は祁	-17534
その出来事は竇	-17535
その出来事は竈	-17536
その出来事は競	-17537
その出来事は笄	-17538
その出来事は節	-17539
その出来事は簀	-17540
その出来事は簪	-17541
その出来事は紙	-17542
その出来事は縉	-17543
その出来事は网	-17544
その出来事は腕	-17545
その出来事は舸	-17546
その出来事は芸	-17547
その出来事は莊	-17548
その出来事は莓	-17549
その出来事は菱	-17550
その出来事は萋	-17551
その出来事は葬	-17552
その出来事は蓐	-17553
その出来事は蚩	-17554
その出来事は蜒	-17555
その出来事は衷	-17556
その出来事は裏	-17557
その出来事は襭	-17558
その出来事は襯	-17559
その出来事は覚	-17560
その出来事は觝	-17561
その出来事は謔	-17562
その出来事は講	-17563
その出来事は賜	-17564
その出来事は贊	-17565
その出来事は跏	-17566
その出来事は躇	-17567
その出来事は躊	-17568
その出来事は轢	-17569
その出来事は迎	-17570
その出来事は酬	-17571
その出来事は鑪	-17572
その出来事は闥	-17573
その出来事は陂	-17574
その出来事は陋	-17575
その出来事は陳	-17576
その出来事は顧	-17577
その出来事は館	-17578
その出来事は餾	-17579
その出来事は鵝	-17580
その出来事は鸚	-17581
しモデルに基づく	-17582
ゝモデルに基づく	-17583
ワモデルに基づく	-17584
ヲの始まりだった	-17585
丘の始まりだった	-17586
些の始まりだった	-17587
亨の始まりだった	-17588
仁モデルに基づく	-17589
仄モデルに基づく	-17590
伊の始まりだった	-17591
伴モデルに基づく	-17592
佼モデルに基づく	-17593
偏の始まりだった	-17594
偸モデルに基づく	-17595
傀モデルに基づく	-17596
僭モデルに基づく	-17597
價モデルに基づく	-17598
凄の始まりだった	-17599
刔の始まりだった	-17600
到の始まりだった	-17601
券の始まりだった	-17602
剳の始まりだった	-17603
包モデルに基づく	-17604
匱モデルに基づく	-17605
卆モデルに基づく	-17606
午の始まりだった	-17607
印モデルに基づく	-17608
即モデルに基づく	-17609
卸モデルに基づく	-17610
厳の始まりだった	-17611
喘モデルに基づく	-17612
喫の始まりだった	-17613
嚇モデルに基づく	-17614
嚮の始まりだった	-17615
堝の始まりだった	-17616
塵の始まりだった	-17617
変モデルに基づく	-17618
姨モデルに基づく	-17619
嬰の始まりだった	-17620
嬶モデルに基づく	-17621
孔モデルに基づく	-17622
存モデルに基づく	-17623
學の始まりだった	-17624
寒の始まりだった	-17625
属の始まりだった	-17626
崙モデルに基づく	-17627
嵐モデルに基づく	-17628
巵モデルに基づく	-17629
幾モデルに基づく	-17630
廡の始まりだった	-17631
彙の始まりだった	-17632
忱モデルに基づく	-17633
惨モデルに基づく	-17634
慍モデルに基づく	-17635
憫の始まりだった	-17636
手の始まりだった	-17637
抗の始まりだった	-17638
抗モデルに基づく	-17639
抱モデルに基づく	-17640
抵モデルに基づく	-17641
抻の始まりだった	-17642
拍の始まりだった	-17643
拶モデルに基づく	-17644
捌の始まりだった	-17645
授モデルに基づく	-17646
掖モデルに基づく	-17647
携の始まりだった	-17648
擘の始まりだった	-17649
擶モデルに基づく	-17650
攣の始まりだった	-17651
整の始まりだった	-17652
旦の始まりだった	-17653
旻の始まりだった	-17654
昼モデルに基づく	-17655
暗の始まりだった	-17656
暸の始まりだった	-17657
最の始まりだった	-17658
朋の始まりだった	-17659
朮モデルに基づく	-17660
机モデルに基づく	-17661
柝モデルに基づく	-17662
柢の始まりだった	-17663
栢モデルに基づく	-17664
棗の始まりだった	-17665
楮モデルに基づく	-17666
榛モデルに基づく	-17667
槧モデルに基づく	-17668
歃モデルに基づく	-17669
歟の始まりだった	-17670
殘の始まりだった	-17671
氾モデルに基づく	-17672
沂モデルに基づく	-17673
泙の始まりだった	-17674
涙の始まりだった	-17675
漠の始まりだった	-17676
澄モデルに基づく	-17677
澗の始まりだった	-17678
濔の始まりだった	-17679
濶モデルに基づく	-17680
烈モデルに基づく	-17681
煦モデルに基づく	-17682
熟モデルに基づく	-17683
燈モデルに基づく	-17684
燒の始まりだった	-17685
犲モデルに基づく	-17686
猟モデルに基づく	-17687
獸モデルに基づく	-17688
甌の始まりだった	-17689
甞の始まりだった	-17690
甬モデルに基づく	-17691
畑の始まりだった	-17692
畩モデルに基づく	-17693
痒モデルに基づく	-17694
痞の始まりだった	-17695
癨の始まりだった	-17696
瞼モデルに基づく	-17697
硝モデルに基づく	-17698
硫モデルに基づく	-17699
礇の始まりだった	-17700
稲の始まりだった	-17701
穎の始まりだった	-17702
竓モデルに基づく	-17703
笊モデルに基づく	-17704
筮の始まりだった	-17705
筱の始まりだった	-17706
箪モデルに基づく	-17707
精の始まりだった	-17708
網モデルに基づく	-17709
罠モデルに基づく	-17710
罫モデルに基づく	-17711
翁モデルに基づく	-17712
耕モデルに基づく	-17713
耗の始まりだった	-17714
胖の始まりだった	-17715
胚の始まりだった	-17716
腫モデルに基づく	-17717
臧モデルに基づく	-17718
自モデルに基づく	-17719
臭の始まりだった	-17720
舩の始まりだった	-17721
苹モデルに基づく	-17722
莓の始まりだった	-17723
莖の始まりだった	-17724
莞モデルに基づく	-17725
菎モデルに基づく	-17726
菟モデルに基づく	-17727
蓆の始まりだった	-17728
藥の始まりだった	-17729
蘰モデルに基づく	-17730
虻の始まりだった	-17731
蛟モデルに基づく	-17732
蜚の始まりだった	-17733
蜥モデルに基づく	-17734
蝋モデルに基づく	-17735
螳の始まりだった	-17736
袂の始まりだった	-17737
[...]
